
#ifndef MODELO_ENTRENADO_RELU_H
#define MODELO_ENTRENADO_RELU_H

const unsigned char model[] = {
    0x1c, 0x00, 0x00, 0x00, 0x54, 0x46, 0x4c, 0x33, 0x14, 0x00, 0x20, 0x00, 0x1c, 0x00, 0x18, 0x00, 0x14, 0x00, 0x10, 0x00, 0x0c, 0x00, 0x00, 0x00, 0x08, 0x00, 0x04, 0x00, 0x14, 0x00, 0x00, 0x00, 0x1c, 0x00, 0x00, 0x00, 0x88, 0x00, 0x00, 0x00, 0xe0, 0x00, 0x00, 0x00, 0xfc, 0x3d, 0x00, 0x00, 0x0c, 0x3e, 0x00, 0x00, 0x04, 0x49, 0x00, 0x00, 0x03, 0x00, 0x00, 0x00, 0x01, 0x00, 0x00, 0x00, 0x04, 0x00, 0x00, 0x00, 0x1e, 0xc0, 0xff, 0xff, 0x0c, 0x00, 0x00, 0x00, 0x1c, 0x00, 0x00, 0x00, 0x3c, 0x00, 0x00, 0x00, 0x0f, 0x00, 0x00, 0x00, 0x73, 0x65, 0x72, 0x76, 0x69, 0x6e, 0x67, 0x5f, 0x64, 0x65, 0x66, 0x61, 0x75, 0x6c, 0x74, 0x00, 0x01, 0x00, 0x00, 0x00, 0x04, 0x00, 0x00, 0x00, 0x94, 0xff, 0xff, 0xff, 0x15, 0x00, 0x00, 0x00, 0x04, 0x00, 0x00, 0x00, 0x08, 0x00, 0x00, 0x00, 0x6f, 0x75, 0x74, 0x70, 0x75, 0x74, 0x5f, 0x30, 0x00, 0x00, 0x00, 0x00, 0x01, 0x00, 0x00, 0x00, 0x04, 0x00, 0x00, 0x00, 0xd6, 0xc1, 0xff, 0xff, 0x04, 0x00, 0x00, 0x00, 0x0b, 0x00, 0x00, 0x00, 0x69, 0x6e, 0x70, 0x75, 0x74, 0x5f, 0x6c, 0x61, 0x79, 0x65, 0x72, 0x00, 0x02, 0x00, 0x00, 0x00, 0x34, 0x00, 0x00, 0x00, 0x04, 0x00, 0x00, 0x00, 0xdc, 0xff, 0xff, 0xff, 0x18, 0x00, 0x00, 0x00, 0x04, 0x00, 0x00, 0x00, 0x13, 0x00, 0x00, 0x00, 0x43, 0x4f, 0x4e, 0x56, 0x45, 0x52, 0x53, 0x49, 0x4f, 0x4e, 0x5f, 0x4d, 0x45, 0x54, 0x41, 0x44, 0x41, 0x54, 0x41, 0x00, 0x08, 0x00, 0x0c, 0x00, 0x08, 0x00, 0x04, 0x00, 0x08, 0x00, 0x00, 0x00, 0x17, 0x00, 0x00, 0x00, 0x04, 0x00, 0x00, 0x00, 0x13, 0x00, 0x00, 0x00, 0x6d, 0x69, 0x6e, 0x5f, 0x72, 0x75, 0x6e, 0x74, 0x69, 0x6d, 0x65, 0x5f, 0x76, 0x65, 0x72, 0x73, 0x69, 0x6f, 0x6e, 0x00, 0x19, 0x00, 0x00, 0x00, 0x18, 0x3d, 0x00, 0x00, 0x10, 0x3d, 0x00, 0x00, 0xf4, 0x3c, 0x00, 0x00, 0x64, 0x3c, 0x00, 0x00, 0xd4, 0x3b, 0x00, 0x00, 0x84, 0x35, 0x00, 0x00, 0x74, 0x03, 0x00, 0x00, 0xe4, 0x02, 0x00, 0x00, 0x44, 0x01, 0x00, 0x00, 0x24, 0x01, 0x00, 0x00, 0x10, 0x01, 0x00, 0x00, 0xf8, 0x00, 0x00, 0x00, 0xe4, 0x00, 0x00, 0x00, 0xdc, 0x00, 0x00, 0x00, 0xd4, 0x00, 0x00, 0x00, 0xcc, 0x00, 0x00, 0x00, 0xc4, 0x00, 0x00, 0x00, 0xbc, 0x00, 0x00, 0x00, 0xb4, 0x00, 0x00, 0x00, 0xac, 0x00, 0x00, 0x00, 0xa4, 0x00, 0x00, 0x00, 0x9c, 0x00, 0x00, 0x00, 0x94, 0x00, 0x00, 0x00, 0x74, 0x00, 0x00, 0x00, 0x04, 0x00, 0x00, 0x00, 0xb2, 0xc2, 0xff, 0xff, 0x04, 0x00, 0x00, 0x00, 0x60, 0x00, 0x00, 0x00, 0x10, 0x00, 0x00, 0x00, 0x00, 0x00, 0x00, 0x00, 0x08, 0x00, 0x0e, 0x00, 0x08, 0x00, 0x04, 0x00, 0x08, 0x00, 0x00, 0x00, 0x10, 0x00, 0x00, 0x00, 0x24, 0x00, 0x00, 0x00, 0x00, 0x00, 0x06, 0x00, 0x08, 0x00, 0x04, 0x00, 0x06, 0x00, 0x00, 0x00, 0x04, 0x00, 0x00, 0x00, 0x00, 0x00, 0x00, 0x00, 0x0c, 0x00, 0x18, 0x00, 0x14, 0x00, 0x10, 0x00, 0x0c, 0x00, 0x04, 0x00, 0x0c, 0x00, 0x00, 0x00, 0x81, 0x83, 0xef, 0xb1, 0xee, 0x3f, 0x53, 0x53, 0x02, 0x00, 0x00, 0x00, 0x02, 0x00, 0x00, 0x00, 0x04, 0x00, 0x00, 0x00, 0x06, 0x00, 0x00, 0x00, 0x32, 0x2e, 0x31, 0x37, 0x2e, 0x30, 0x00, 0x00, 0x1e, 0xc3, 0xff, 0xff, 0x04, 0x00, 0x00, 0x00, 0x10, 0x00, 0x00, 0x00, 0x31, 0x2e, 0x31, 0x30, 0x2e, 0x30, 0x00, 0x00, 0x00, 0x00, 0x00, 0x00, 0x00, 0x00, 0x00, 0x00, 0x7c, 0xb8, 0xff, 0xff, 0x80, 0xb8, 0xff, 0xff, 0x84, 0xb8, 0xff, 0xff, 0x88, 0xb8, 0xff, 0xff, 0x8c, 0xb8, 0xff, 0xff, 0x90, 0xb8, 0xff, 0xff, 0x94, 0xb8, 0xff, 0xff, 0x98, 0xb8, 0xff, 0xff, 0x9c, 0xb8, 0xff, 0xff, 0xa0, 0xb8, 0xff, 0xff, 0x62, 0xc3, 0xff, 0xff, 0x04, 0x00, 0x00, 0x00, 0x04, 0x00, 0x00, 0x00, 0xfd, 0xff, 0xff, 0xff, 0x72, 0xc3, 0xff, 0xff, 0x04, 0x00, 0x00, 0x00, 0x08, 0x00, 0x00, 0x00, 0xff, 0xff, 0xff, 0xff, 0x20, 0x00, 0x00, 0x00, 0x86, 0xc3, 0xff, 0xff, 0x04, 0x00, 0x00, 0x00, 0x04, 0x00, 0x00, 0x00, 0x01, 0x00, 0x00, 0x00, 0x96, 0xc3, 0xff, 0xff, 0x04, 0x00, 0x00, 0x00, 0x10, 0x00, 0x00, 0x00, 0xff, 0x3d, 0xff, 0x3c, 0xfe, 0x00, 0x45, 0xbd, 0xfd, 0xb7, 0x07, 0xbc, 0x55, 0x01, 0x8a, 0x3d, 0xb2, 0xc3, 0xff, 0xff, 0x04, 0x00, 0x00, 0x00, 0x90, 0x01, 0x00, 0x00, 0xe3, 0x5a, 0xb7, 0x3b, 0x04, 0x44, 0x75, 0xbc, 0x75, 0xeb, 0x3b, 0x3e, 0x00, 0x00, 0x00, 0x00, 0xdc, 0xdf, 0x16, 0x3e, 0x07, 0x83, 0x2b, 0x3e, 0x8b, 0xf5, 0x72, 0xbd, 0xa2, 0x77, 0x50, 0x3d, 0x8b, 0xd9, 0x07, 0xbd, 0xa4, 0xcb, 0x15, 0x3d, 0xcf, 0xda, 0xa9, 0xbc, 0x00, 0x00, 0x00, 0x00, 0xad, 0xd6, 0x43, 0x3e, 0x00, 0x00, 0x00, 0x00, 0x3b, 0x91, 0x87, 0xbe, 0x8f, 0xf5, 0x1a, 0x3a, 0xa3, 0x18, 0xe5, 0xbc, 0xa2, 0x18, 0x32, 0x3e, 0x13, 0x4a, 0x13, 0x3d, 0xbd, 0x1b, 0xfb, 0x3d, 0x76, 0x25, 0x13, 0xbc, 0x16, 0x98, 0x4a, 0x3e, 0x21, 0xa1, 0x05, 0xbc, 0xa6, 0x3a, 0xc2, 0xbb, 0xd1, 0xd3, 0x1f, 0xbd, 0x02, 0x0c, 0x00, 0x3e, 0xac, 0x5d, 0xfc, 0xbc, 0x00, 0x00, 0x00, 0x00, 0x00, 0x00, 0x00, 0x00, 0x50, 0x87, 0x64, 0xbc, 0x16, 0xdb, 0xd7, 0x3c, 0x27, 0x6a, 0x78, 0xb9, 0x16, 0x58, 0x1f, 0xbc, 0xae, 0x45, 0x8d, 0x3d, 0x32, 0xb6, 0x7c, 0x3e, 0x00, 0x00, 0x00, 0x00, 0x78, 0x5b, 0x06, 0x3e, 0x1c, 0x51, 0x2a, 0x3e, 0x60, 0xa6, 0x2b, 0xbd, 0x4f, 0x24, 0x19, 0x3e, 0xdf, 0xf0, 0xc1, 0x3d, 0xc8, 0x5e, 0xa8, 0xbb, 0x38, 0xea, 0x8b, 0x3e, 0x3c, 0xce, 0x18, 0xbd, 0xa7, 0x48, 0x07, 0x3e, 0xcd, 0x18, 0x78, 0x3d, 0x24, 0xf7, 0x11, 0xbe, 0x83, 0x91, 0x5e, 0x3e, 0x00, 0x00, 0x00, 0x00, 0x0e, 0xd2, 0x08, 0x3e, 0xb2, 0xf6, 0x25, 0x3e, 0x00, 0x00, 0x00, 0x00, 0x3f, 0xbd, 0x96, 0xbc, 0xce, 0x4b, 0x64, 0x3c, 0xab, 0x3d, 0x39, 0xbc, 0x42, 0xf9, 0x60, 0xbd, 0x00, 0x00, 0x00, 0x00, 0x00, 0x00, 0x00, 0x00, 0x4c, 0xec, 0x06, 0xbd, 0x55, 0x0c, 0x05, 0x3d, 0x7b, 0x69, 0x29, 0xbc, 0xca, 0xc1, 0x25, 0x3c, 0xa4, 0x05, 0x72, 0x3e, 0xee, 0x46, 0xe4, 0x3d, 0x94, 0x5a, 0x34, 0x3e, 0x21, 0x9f, 0xf1, 0xbd, 0x00, 0x00, 0x00, 0x00, 0x6d, 0xf3, 0x13, 0x3e, 0x20, 0x7e, 0x5a, 0xbe, 0x80, 0x83, 0xfb, 0x3d, 0x68, 0x70, 0xf0, 0x3d, 0x00, 0x00, 0x00, 0x00, 0xc8, 0x3a, 0x69, 0x3e, 0xf2, 0x83, 0xea, 0x3d, 0xa0, 0x38, 0x0b, 0xbd, 0x3d, 0xb5, 0x10, 0xbe, 0x7a, 0xb8, 0x60, 0x3b, 0x00, 0x00, 0x00, 0x00, 0x00, 0x00, 0x00, 0x00, 0xe8, 0xf9, 0x41, 0xbd, 0xa8, 0x3b, 0xf5, 0x3d, 0xdf, 0x4d, 0x16, 0xbe, 0x2a, 0xd4, 0xdd, 0xbd, 0x8c, 0x17, 0xe0, 0xbc, 0xd3, 0xc2, 0x49, 0x3e, 0xa2, 0xe9, 0x68, 0x3d, 0x33, 0x17, 0x14, 0xbd, 0xc3, 0xd1, 0x30, 0x3e, 0x16, 0x67, 0x00, 0xbc, 0x44, 0x3c, 0xac, 0x3d, 0xa6, 0x39, 0x1f, 0xbc, 0x9d, 0x17, 0x41, 0xbd, 0x28, 0xba, 0x5a, 0x3e, 0xf7, 0x31, 0xbc, 0x3d, 0x57, 0x37, 0xd7, 0xbd, 0x37, 0x05, 0xf5, 0x3d, 0x27, 0x4e, 0x11, 0x3e, 0xcd, 0x22, 0x1c, 0xbe, 0x15, 0x3b, 0x62, 0xbd, 0xab, 0x8b, 0x1a, 0x3e, 0x4e, 0xc5, 0xff, 0xff, 0x04, 0x00, 0x00, 0x00, 0x80, 0x00, 0x00, 0x00, 0x8e, 0xab, 0xd2, 0x3d, 0x2f, 0xce, 0x3e, 0xbe, 0x87, 0xf3, 0xf6, 0xbd, 0xc3, 0xb2, 0x88, 0x3c, 0xea, 0x20, 0x06, 0xbe, 0x55, 0xd7, 0x59, 0xbc, 0xe7, 0xa2, 0x71, 0x3e, 0x5e, 0xa4, 0x5b, 0xbd, 0xfc, 0x55, 0x85, 0x3d, 0xde, 0x1e, 0x9b, 0x3e, 0x71, 0xce, 0x17, 0x3e, 0xdf, 0x91, 0x35, 0xbe, 0x58, 0x1f, 0xa1, 0x3e, 0x6e, 0xaf, 0x52, 0x3d, 0x4e, 0xe7, 0xab, 0x3c, 0x8e, 0xaa, 0x9a, 0xbc, 0xe6, 0x80, 0xda, 0xbd, 0x72, 0x28, 0xa2, 0x3e, 0x5d, 0x03, 0x5b, 0x3d, 0x82, 0x44, 0x9b, 0x3e, 0xb2, 0x64, 0x5b, 0xbe, 0x04, 0xf6, 0x04, 0x3d, 0xf8, 0xe1, 0x1e, 0xbe, 0xee, 0x85, 0xe6, 0x3d, 0xb6, 0x09, 0x0a, 0x3e, 0x58, 0x98, 0x82, 0x3d, 0x5c, 0x2e, 0xc3, 0x3d, 0x1e, 0xdb, 0xec, 0xbc, 0xf1, 0x35, 0xcf, 0x3d, 0x57, 0x64, 0x00, 0xbe, 0x62, 0x5f, 0xb3, 0x3e, 0x15, 0x76, 0x4b, 0xbe, 0xda, 0xc5, 0xff, 0xff, 0x04, 0x00, 0x00, 0x00, 0x00, 0x32, 0x00, 0x00, 0x97, 0xa0, 0xd6, 0xbd, 0x28, 0xa1, 0x4f, 0x3d, 0x81, 0x06, 0x10, 0x3e, 0x30, 0x5c, 0x1f, 0x3e, 0xa3, 0xd4, 0x73, 0xbd, 0x8a, 0x47, 0x3e, 0xbe, 0x92, 0x1f, 0x3d, 0xbd, 0x67, 0x76, 0xc8, 0xbd, 0x87, 0x1b, 0xe6, 0x3c, 0xdd, 0x5e, 0x0c, 0xbe, 0xe3, 0x3f, 0x08, 0x3e, 0x57, 0x71, 0xf0, 0xbd, 0x15, 0xfd, 0xad, 0xbe, 0xa8, 0xaf, 0xdc, 0x3d, 0xe8, 0xfa, 0xd5, 0xbd, 0x79, 0x58, 0x0a, 0x3e, 0xca, 0xcb, 0x40, 0xbe, 0xc2, 0xea, 0xd0, 0xbe, 0x68, 0xe8, 0xf6, 0x3d, 0x13, 0x20, 0xf8, 0xbe, 0x5b, 0x60, 0x32, 0x3e, 0x22, 0x98, 0x16, 0x3e, 0x1c, 0x85, 0x14, 0xbe, 0x30, 0x4e, 0xb7, 0x3d, 0xb0, 0x2b, 0xb8, 0x3d, 0x99, 0x2d, 0x79, 0xbd, 0xbe, 0x59, 0xca, 0x3d, 0xe7, 0xf4, 0x40, 0x3e, 0xe2, 0xfa, 0xad, 0x3c, 0x46, 0x5c, 0x75, 0x3d, 0x82, 0x8f, 0x73, 0x3e, 0x5c, 0xb2, 0x02, 0xbe, 0x6e, 0x62, 0x30, 0xbe, 0xea, 0x41, 0x4f, 0x3c, 0xb5, 0x24, 0x49, 0x3e, 0xa9, 0x03, 0x85, 0x3c, 0x1b, 0xb5, 0x00, 0xbe, 0xfb, 0x67, 0x6f, 0x3d, 0x16, 0xc2, 0x49, 0x3e, 0x20, 0x8e, 0x80, 0xbb, 0x60, 0x6f, 0x7c, 0x3d, 0x0b, 0xf3, 0x1a, 0x3e, 0x63, 0xe6, 0x04, 0x3e, 0x32, 0x76, 0x00, 0x3e, 0x13, 0xb3, 0x15, 0xbf, 0x70, 0x0a, 0x05, 0x3d, 0x76, 0x52, 0x18, 0x3e, 0xd0, 0x0a, 0x81, 0xbd, 0x9a, 0x19, 0xd7, 0x3d, 0x10, 0xae, 0xe3, 0xbe, 0x73, 0xc0, 0xe5, 0x3d, 0x5f, 0x0e, 0x0a, 0xbf, 0xe0, 0x65, 0xe1, 0xbd, 0x54, 0xf1, 0x62, 0xbe, 0x79, 0xa3, 0x2c, 0x3d, 0xd5, 0x25, 0xc6, 0x3d, 0x64, 0x7a, 0x3e, 0x3e, 0x72, 0x2f, 0x52, 0xbe, 0xc7, 0xcc, 0x86, 0xbd, 0xd0, 0xcd, 0x47, 0xbe, 0x9e, 0xc4, 0x00, 0xbe, 0x09, 0xab, 0xb1, 0x3d, 0x5e, 0x70, 0xac, 0xbd, 0x60, 0x35, 0x4f, 0x3e, 0x74, 0xeb, 0xfe, 0x3c, 0xff, 0xaa, 0xba, 0xbe, 0x8f, 0x00, 0xa6, 0xbe, 0x78, 0x3d, 0x73, 0x3d, 0x7b, 0xf6, 0x5d, 0xbf, 0x10, 0x61, 0x0f, 0x3e, 0x07, 0xfc, 0xad, 0x3e, 0x71, 0x32, 0xc5, 0xbe, 0x74, 0x04, 0x29, 0xbe, 0x81, 0xb3, 0xac, 0x3e, 0x4c, 0x6a, 0xc6, 0x3d, 0x2b, 0xe5, 0xdf, 0xbe, 0x37, 0x91, 0x27, 0x3e, 0x13, 0xf9, 0x58, 0x3d, 0xe4, 0xe7, 0x4c, 0xbe, 0x3a, 0xb3, 0x22, 0xbe, 0xca, 0xa1, 0x8b, 0xbe, 0xfa, 0x56, 0x97, 0x3e, 0xc0, 0x34, 0x09, 0x3e, 0x0a, 0x52, 0xbf, 0x3e, 0x47, 0x69, 0xad, 0xbd, 0x96, 0x75, 0x4d, 0x3d, 0xed, 0x42, 0xe5, 0xbe, 0x5d, 0x56, 0xa6, 0xbc, 0x6c, 0x34, 0x2f, 0xbe, 0xe0, 0xb3, 0x0b, 0xbc, 0x41, 0xa0, 0x44, 0xbb, 0x5a, 0x73, 0xbc, 0xbe, 0xe9, 0x77, 0x62, 0xbe, 0x1b, 0x48, 0xf2, 0xbe, 0x72, 0x3e, 0x0b, 0x3e, 0xc4, 0x9a, 0x39, 0xbe, 0xf0, 0xe9, 0x0b, 0x3d, 0x8a, 0xfc, 0x0c, 0xbe, 0x73, 0x12, 0x4c, 0xbe, 0x92, 0x36, 0xc7, 0xbd, 0x46, 0x49, 0x53, 0xbe, 0xce, 0x4a, 0xa7, 0xbd, 0x38, 0x83, 0x36, 0x3e, 0x12, 0xe4, 0x54, 0x3e, 0x5c, 0x6f, 0x62, 0xbd, 0x9c, 0x05, 0x98, 0xbd, 0x1e, 0x84, 0x2f, 0xbe, 0x94, 0x8e, 0xb4, 0x3d, 0x2c, 0x52, 0x90, 0x3d, 0x5f, 0x7b, 0xdd, 0xbd, 0x5a, 0x37, 0x2f, 0xbe, 0xf4, 0xbc, 0x01, 0xbe, 0xc8, 0x10, 0xf2, 0x3d, 0x08, 0x49, 0x96, 0x3c, 0x5c, 0xb6, 0xa7, 0xbd, 0x80, 0x95, 0xc5, 0xba, 0x88, 0x45, 0xca, 0x3d, 0x9c, 0x91, 0x56, 0x3e, 0xb8, 0xa3, 0xb2, 0x3d, 0xac, 0xe5, 0x0c, 0x3d, 0x15, 0x76, 0xce, 0xbd, 0xb7, 0xeb, 0x3b, 0xbe, 0x80, 0x1e, 0x1a, 0xbc, 0x0a, 0xbe, 0x4e, 0xbe, 0xe6, 0x47, 0xaf, 0xbd, 0x08, 0x94, 0xea, 0xbc, 0xe4, 0x33, 0x2a, 0xbd, 0x92, 0x28, 0x15, 0x3e, 0xd2, 0x28, 0x86, 0xbe, 0xd6, 0x16, 0x42, 0x3d, 0xb6, 0xa1, 0x36, 0x3d, 0x04, 0x89, 0x85, 0x3e, 0xeb, 0xfa, 0x12, 0xbe, 0xfb, 0x2a, 0x22, 0xbe, 0xae, 0xbe, 0x11, 0x3e, 0x0b, 0xc1, 0x8c, 0xbe, 0x6c, 0x26, 0x95, 0xbd, 0x28, 0x75, 0x28, 0x3e, 0x4e, 0x5b, 0xd6, 0x3e, 0xce, 0x70, 0x90, 0x3e, 0x06, 0xde, 0xe7, 0x3d, 0x63, 0xd5, 0xbd, 0xbe, 0x4a, 0x96, 0x20, 0x3e, 0xcc, 0x18, 0x12, 0x3d, 0x45, 0x33, 0xe0, 0xbb, 0x5a, 0x19, 0xad, 0x3c, 0xd1, 0xeb, 0x92, 0x3e, 0x4a, 0xa3, 0xbe, 0xbd, 0x0d, 0xec, 0xbf, 0x3d, 0xd5, 0x9e, 0x2d, 0xbe, 0x64, 0x91, 0xa3, 0x3e, 0x52, 0xd0, 0xc1, 0x3e, 0x08, 0x3d, 0x9f, 0x3e, 0xf7, 0x26, 0x8a, 0xbe, 0xac, 0xa4, 0xda, 0x3e, 0xdb, 0x0e, 0xab, 0xbe, 0x5b, 0x69, 0x87, 0xbb, 0x22, 0x70, 0x84, 0x3e, 0xbd, 0x2a, 0x22, 0x3e, 0x43, 0xaa, 0xb7, 0xbd, 0x88, 0xfa, 0x81, 0xbe, 0x90, 0x90, 0xfd, 0x3d, 0x94, 0xea, 0x7a, 0xbb, 0x35, 0x39, 0x4f, 0x3e, 0x0f, 0x21, 0xc7, 0xbd, 0x2d, 0x6a, 0xb4, 0xbd, 0xff, 0x26, 0x59, 0x3d, 0xa4, 0xeb, 0xab, 0xbe, 0xeb, 0x08, 0xa6, 0xbe, 0x8e, 0x1c, 0x0f, 0x3e, 0xa0, 0x74, 0x0c, 0x3e, 0x60, 0x36, 0xd0, 0xbd, 0x9d, 0x23, 0xca, 0xbc, 0xa3, 0xbc, 0xa6, 0xbe, 0x76, 0x78, 0xa0, 0x3c, 0x2c, 0xc3, 0x7d, 0xbd, 0xec, 0xd4, 0x70, 0x3d, 0x3b, 0x94, 0xc7, 0x3d, 0xfd, 0x82, 0x8f, 0x3e, 0xf6, 0x11, 0x20, 0xbd, 0x64, 0x55, 0xc4, 0x3d, 0x76, 0xe4, 0x48, 0xbd, 0x16, 0x9c, 0xce, 0xbd, 0x1c, 0x12, 0x90, 0x3d, 0xf2, 0x05, 0x97, 0x3e, 0x0f, 0x58, 0xa2, 0xbe, 0xfe, 0x98, 0xa1, 0x3e, 0x8b, 0xba, 0x9b, 0xbe, 0xc4, 0x28, 0xe8, 0xbd, 0xd1, 0x30, 0x0a, 0x3d, 0x50, 0x17, 0x31, 0x3e, 0x26, 0x03, 0x1d, 0x3d, 0xf7, 0x8c, 0x0c, 0x3e, 0xcf, 0x3e, 0x25, 0xbe, 0x88, 0xe9, 0x26, 0x3e, 0x5e, 0xd2, 0x45, 0xbd, 0x5c, 0xcb, 0xa1, 0xbd, 0xa4, 0x27, 0x09, 0xbe, 0xd6, 0xae, 0x41, 0x3d, 0xfc, 0xc3, 0xdc, 0x3d, 0x78, 0xf6, 0x43, 0xbe, 0xb7, 0x15, 0x14, 0x3e, 0xed, 0xdf, 0xbe, 0x3d, 0xe3, 0x39, 0xa2, 0x3b, 0x11, 0x98, 0x16, 0x3d, 0xa5, 0xbc, 0xa8, 0x3d, 0x8c, 0xa3, 0x25, 0xbe, 0x29, 0xa6, 0x23, 0x3e, 0x47, 0x4f, 0x34, 0xbe, 0x4c, 0x13, 0xe4, 0x3d, 0xdc, 0xfc, 0x3c, 0x3d, 0x29, 0x0d, 0x93, 0xbe, 0xfe, 0x2c, 0x80, 0x3d, 0x1f, 0x88, 0xa0, 0xbc, 0xf9, 0x5a, 0x13, 0xbe, 0x56, 0x4d, 0x4a, 0xbe, 0xb6, 0x8c, 0x2c, 0xbd, 0x99, 0xed, 0xcc, 0x3c, 0xe4, 0x28, 0xf8, 0xbd, 0x5e, 0x61, 0xaa, 0xbd, 0x83, 0x53, 0x98, 0x3c, 0xec, 0xa1, 0x34, 0xbd, 0x5c, 0xbb, 0x2a, 0xbd, 0x5f, 0xe7, 0xf3, 0x3d, 0x71, 0xc2, 0x0c, 0xbe, 0x16, 0x23, 0x4c, 0x3e, 0x97, 0x41, 0x13, 0xbd, 0x90, 0x29, 0xb6, 0x3e, 0x41, 0xc1, 0x0f, 0xbd, 0xf9, 0x24, 0x53, 0x3e, 0xd2, 0xdc, 0x32, 0x3e, 0x87, 0xdd, 0xcc, 0xbd, 0x9b, 0x4f, 0x2f, 0xbe, 0xc8, 0x54, 0x23, 0x3e, 0x14, 0x3e, 0xc5, 0x3e, 0x6a, 0xd7, 0x98, 0x3e, 0xb8, 0x67, 0x4c, 0xbc, 0x20, 0xcb, 0xa0, 0x3d, 0xbf, 0x2f, 0xbe, 0x3e, 0xf8, 0xd6, 0xa0, 0x3d, 0xb3, 0xed, 0xf6, 0x3d, 0x04, 0x5b, 0x8e, 0xbd, 0xc4, 0x06, 0x7c, 0x3e, 0x47, 0xaf, 0x93, 0xbe, 0xb1, 0x6d, 0x9b, 0x3e, 0xc8, 0x4e, 0xff, 0xbd, 0x23, 0xe1, 0x99, 0x3d, 0xae, 0x06, 0x56, 0x3e, 0x37, 0x74, 0x7f, 0x3d, 0x63, 0x99, 0x44, 0xbe, 0x09, 0xa8, 0x85, 0x3e, 0xff, 0x30, 0xc1, 0xbb, 0x18, 0x9a, 0x80, 0xbe, 0xb5, 0x37, 0xf7, 0x3d, 0xd0, 0x3f, 0xa5, 0x3e, 0x3b, 0x7e, 0xa0, 0x3e, 0x27, 0xd5, 0x6f, 0xbe, 0x8f, 0x8a, 0x40, 0x3d, 0xf0, 0x09, 0x10, 0xbd, 0xdd, 0x94, 0x3f, 0xbd, 0x00, 0x7e, 0x1c, 0x3d, 0x10, 0xac, 0x64, 0xbd, 0xb8, 0x46, 0xcb, 0xbb, 0x98, 0x01, 0x48, 0x3e, 0xfe, 0x62, 0x4d, 0x3d, 0x67, 0x7c, 0xe9, 0xbc, 0x35, 0x5e, 0xd6, 0x3d, 0x70, 0x0f, 0x5a, 0xbe, 0x51, 0x94, 0xac, 0x3d, 0x1a, 0x14, 0xb9, 0xbd, 0x01, 0x03, 0x26, 0xbe, 0x78, 0xba, 0x3f, 0x3e, 0x74, 0xb0, 0x6f, 0xbd, 0x8b, 0xe9, 0x11, 0xbd, 0x69, 0x33, 0x79, 0xbe, 0xe4, 0xca, 0x0c, 0x3e, 0x5e, 0x94, 0x04, 0xbe, 0xda, 0xaa, 0xa3, 0xbd, 0x86, 0xd0, 0x90, 0x3d, 0xf5, 0xde, 0xa3, 0x3d, 0x69, 0xbe, 0xd6, 0xbd, 0x4e, 0x93, 0x9b, 0x3d, 0xc6, 0x4c, 0x13, 0xbe, 0xc4, 0x10, 0xbf, 0x3d, 0x03, 0x0d, 0x7c, 0xbe, 0x30, 0xe8, 0x3d, 0xbe, 0x42, 0x1f, 0x9f, 0x3d, 0xae, 0xfa, 0x6f, 0x3c, 0x17, 0xc5, 0x01, 0xbe, 0x00, 0x88, 0x46, 0xbe, 0x36, 0xb3, 0x74, 0xbd, 0xef, 0x8d, 0xb8, 0xbd, 0xd3, 0x1d, 0x20, 0xbd, 0x56, 0xa5, 0x69, 0xbd, 0xf1, 0xbd, 0x85, 0x3e, 0x15, 0xee, 0x23, 0x3d, 0xdd, 0x07, 0x9a, 0xbe, 0x72, 0xdf, 0xe3, 0x3d, 0x11, 0xbe, 0x89, 0x3e, 0xb5, 0x59, 0x3b, 0x3d, 0x7a, 0x63, 0xb6, 0xbc, 0xfa, 0xaf, 0x03, 0xbe, 0x5d, 0xd1, 0x92, 0x3e, 0xb9, 0xf8, 0x3b, 0xbd, 0xe0, 0x2d, 0x2e, 0xbe, 0x7d, 0x0e, 0x38, 0x3d, 0x50, 0x73, 0x8b, 0x3e, 0x2b, 0x7d, 0x07, 0xbe, 0x49, 0xcc, 0x94, 0xbd, 0x4b, 0x82, 0xc6, 0xbe, 0x32, 0xf0, 0xa1, 0xbd, 0xa0, 0x33, 0x38, 0x3d, 0x2a, 0xde, 0x43, 0x3e, 0x50, 0xfc, 0x1f, 0xbe, 0xdc, 0x10, 0x85, 0x3e, 0xaa, 0xa8, 0x39, 0xbe, 0xef, 0xa8, 0x85, 0x3c, 0xde, 0x82, 0xa3, 0xbd, 0xa8, 0xd0, 0x78, 0x3c, 0x75, 0x25, 0xb6, 0xbd, 0xf3, 0x06, 0x97, 0xbd, 0xb5, 0x91, 0x81, 0xbc, 0x4b, 0x2b, 0x5e, 0xbe, 0xe1, 0xba, 0xd0, 0x3d, 0x0d, 0xdc, 0x54, 0xbe, 0xb7, 0x6c, 0xbb, 0xbd, 0x9b, 0x26, 0x17, 0x3e, 0x21, 0x24, 0x79, 0xbd, 0x7e, 0x2c, 0x51, 0xbe, 0x0e, 0x4e, 0xcc, 0x3d, 0x30, 0x76, 0x4e, 0xbe, 0x44, 0xd2, 0x3e, 0x3c, 0x93, 0xef, 0x65, 0xb9, 0x7f, 0x46, 0x1f, 0xbe, 0x7f, 0xea, 0x28, 0xbe, 0x01, 0xf7, 0x3d, 0xbe, 0x11, 0xac, 0x1f, 0x3e, 0xa5, 0xba, 0x44, 0x3c, 0xa0, 0x6c, 0xac, 0xbc, 0x41, 0x5c, 0x3d, 0xbd, 0xb0, 0x8c, 0xd8, 0x3d, 0x83, 0x7e, 0x4a, 0xbe, 0x79, 0x37, 0x98, 0xbd, 0xa2, 0x92, 0x64, 0xbe, 0xdf, 0x9e, 0x06, 0x3e, 0xa9, 0x4b, 0x95, 0xbd, 0x7a, 0x85, 0x5a, 0xbd, 0x98, 0x3c, 0xed, 0x3d, 0x44, 0xdd, 0x02, 0x3e, 0x6c, 0x14, 0x07, 0x3e, 0x51, 0x21, 0xb1, 0x3d, 0x85, 0xda, 0x30, 0x3e, 0x66, 0x38, 0x15, 0x3e, 0x20, 0x60, 0x1d, 0xbc, 0xa4, 0xb9, 0x1b, 0xbe, 0x6c, 0x7d, 0x56, 0xbd, 0x3c, 0x43, 0x8f, 0x3d, 0xf0, 0xff, 0x57, 0xbe, 0xfc, 0x9d, 0xb0, 0x3d, 0x78, 0xa9, 0x75, 0xbd, 0xa3, 0x20, 0x44, 0xbe, 0x16, 0x22, 0xd2, 0xbd, 0x04, 0x16, 0xcb, 0x3d, 0xd6, 0x5c, 0x53, 0xbe, 0xf4, 0x77, 0x8a, 0xbd, 0x97, 0xca, 0x3a, 0xbe, 0xe4, 0xe7, 0x79, 0xbd, 0xd0, 0x74, 0x24, 0x3d, 0xec, 0x27, 0x22, 0x3e, 0xdf, 0x64, 0x43, 0xbe, 0x90, 0x97, 0xfb, 0x3d, 0x62, 0xf4, 0x41, 0xbe, 0x58, 0x38, 0x68, 0x3d, 0x4c, 0xc4, 0x03, 0xbd, 0xe0, 0x2a, 0x16, 0xbc, 0x91, 0x13, 0x45, 0xbe, 0xc3, 0xdf, 0x15, 0xbe, 0x68, 0xba, 0x96, 0x3d, 0x50, 0xce, 0x43, 0x3e, 0x70, 0x8a, 0x57, 0x3d, 0xa8, 0x46, 0x4a, 0x3e, 0x1a, 0x01, 0x17, 0xbe, 0x94, 0x3e, 0x5b, 0xbd, 0x16, 0x86, 0x2d, 0x3e, 0x46, 0x67, 0xb1, 0x3e, 0xc1, 0xca, 0x09, 0xbe, 0x58, 0x46, 0x21, 0xbe, 0x9d, 0xf8, 0x5c, 0xbd, 0x69, 0x7c, 0x5c, 0x3d, 0x04, 0xb6, 0x36, 0x3e, 0xda, 0x60, 0x30, 0x3e, 0xd3, 0xd8, 0xbd, 0x3e, 0x97, 0x63, 0xa2, 0x3d, 0x2b, 0x8e, 0x0a, 0x3e, 0xf8, 0x53, 0x02, 0xbe, 0x9f, 0x6e, 0x08, 0xbe, 0x56, 0x45, 0x0f, 0x3e, 0x10, 0xd1, 0x24, 0xbc, 0x50, 0x18, 0xf8, 0x3c, 0xbd, 0x02, 0x9b, 0xbd, 0xf7, 0x95, 0xcd, 0xbd, 0xc8, 0xc8, 0xb9, 0x3d, 0x3d, 0x3d, 0x13, 0xbe, 0x5f, 0xc9, 0x72, 0x3e, 0x93, 0xf3, 0x5b, 0xbe, 0xcf, 0x3c, 0x46, 0x3e, 0xe2, 0x03, 0xa8, 0xbd, 0xa0, 0x5c, 0xeb, 0xbd, 0xdf, 0x65, 0x49, 0x3e, 0x29, 0x1e, 0xbe, 0x3e, 0x78, 0xf6, 0x33, 0x3c, 0x75, 0x28, 0x4e, 0x3e, 0xfe, 0xd3, 0x85, 0x3e, 0x4a, 0x6e, 0x48, 0xbc, 0xc2, 0x1e, 0x87, 0x3d, 0xd0, 0xd3, 0x1f, 0x3d, 0x12, 0x92, 0x53, 0x3e, 0x60, 0x8f, 0x08, 0xbd, 0x14, 0x93, 0x8b, 0xbd, 0x78, 0x35, 0x12, 0x3d, 0xa4, 0x52, 0x2d, 0xbe, 0xdc, 0x17, 0xbc, 0x3d, 0x84, 0xd1, 0xeb, 0xbd, 0xa6, 0x5c, 0x0b, 0xbe, 0xc0, 0xa5, 0x4f, 0xbb, 0xb8, 0xb4, 0xab, 0x3d, 0x38, 0xa9, 0xf0, 0x3d, 0x40, 0xd9, 0x75, 0xbc, 0x3c, 0x2a, 0xa2, 0xbd, 0x38, 0x9f, 0x2c, 0xbe, 0x7e, 0x38, 0xee, 0xbd, 0x80, 0xed, 0xcc, 0xbd, 0x68, 0x7f, 0xac, 0x3c, 0x76, 0x43, 0x4a, 0xbe, 0xfc, 0x0e, 0x56, 0x3e, 0xd8, 0x31, 0x1e, 0xbd, 0xaf, 0xe3, 0x0a, 0xbe, 0xb0, 0x31, 0xcd, 0xbc, 0x5f, 0xc3, 0x3e, 0xbe, 0x5b, 0xc1, 0x06, 0xbe, 0x8e, 0x4e, 0x36, 0xbe, 0x58, 0x0c, 0x59, 0xbe, 0x1c, 0x3d, 0xf8, 0xbd, 0xb8, 0x02, 0x0e, 0x3e, 0xa6, 0x2d, 0x06, 0xbe, 0x94, 0xd9, 0x17, 0xbe, 0xf6, 0x96, 0x00, 0xbe, 0x7c, 0xe3, 0x11, 0x3d, 0xbe, 0x40, 0x4e, 0xbe, 0xa4, 0xb3, 0x72, 0x3d, 0x31, 0x24, 0x7d, 0xbc, 0x05, 0x94, 0x2d, 0x3e, 0xd0, 0xaf, 0xd0, 0x3d, 0x78, 0x35, 0x12, 0xbd, 0xd7, 0x97, 0xd5, 0x3d, 0x72, 0x54, 0x44, 0xbe, 0xac, 0x4c, 0xa7, 0x3d, 0xd7, 0x4d, 0xbc, 0xbd, 0x36, 0x61, 0x80, 0xbd, 0xe3, 0x31, 0xa6, 0x3e, 0x97, 0x2f, 0x4a, 0xbe, 0xbf, 0xd1, 0x4f, 0xbe, 0x1a, 0xdf, 0x31, 0x3d, 0xb4, 0xb7, 0xbb, 0x3d, 0xde, 0x8c, 0x8b, 0xbd, 0x86, 0x18, 0x8b, 0xbd, 0x7a, 0x52, 0x15, 0x3d, 0x96, 0xe9, 0xff, 0x3b, 0x4e, 0x4a, 0x5f, 0x3e, 0xb2, 0x5f, 0x00, 0x3e, 0x9e, 0x92, 0x4a, 0x3e, 0xd3, 0x59, 0x0a, 0xbd, 0xb2, 0xa1, 0x3c, 0xbe, 0x40, 0xd3, 0xf8, 0xbb, 0x3d, 0xeb, 0x96, 0x3d, 0x54, 0x52, 0x47, 0x3e, 0x60, 0xfe, 0x9a, 0x3b, 0x91, 0xd1, 0x99, 0x3e, 0xd9, 0x0a, 0x0e, 0xbe, 0x0d, 0x30, 0x87, 0x3e, 0x41, 0x2f, 0xd5, 0x3b, 0x83, 0x68, 0x53, 0xbe, 0x90, 0x1b, 0x33, 0x3d, 0xbe, 0x99, 0x5a, 0xbd, 0xfe, 0xe5, 0xaf, 0xbd, 0xec, 0x8f, 0x4f, 0xbe, 0x11, 0x50, 0xf0, 0x3d, 0xb2, 0x9e, 0x13, 0xbe, 0xf6, 0xad, 0x32, 0xbe, 0xb1, 0x88, 0x54, 0xbe, 0x94, 0x08, 0x6e, 0x3c, 0xad, 0x91, 0x21, 0x3d, 0x5d, 0x48, 0x7f, 0xbd, 0x88, 0xd2, 0x9a, 0xbd, 0x08, 0xff, 0xa3, 0x3d, 0xde, 0x52, 0x40, 0x3e, 0x98, 0x8e, 0x1f, 0xbe, 0xd6, 0x6f, 0xe5, 0x3c, 0xbc, 0x28, 0xf8, 0xbb, 0xa5, 0x4b, 0x2b, 0xbd, 0x7c, 0xa0, 0xd4, 0x3d, 0x20, 0x79, 0xb3, 0x3b, 0x2c, 0x92, 0x4e, 0x3e, 0x52, 0xa7, 0x50, 0xbe, 0x47, 0xb8, 0x49, 0x3b, 0x90, 0x06, 0x8b, 0xbd, 0x79, 0x11, 0xd6, 0x3d, 0xdb, 0xc8, 0xeb, 0xbd, 0xe8, 0xe7, 0xa8, 0xbd, 0xe0, 0xf7, 0xb4, 0xbc, 0x19, 0x43, 0xfe, 0x3c, 0xfe, 0x41, 0x08, 0xbe, 0xd1, 0x1d, 0x84, 0xbd, 0x31, 0x9e, 0x68, 0xbd, 0x47, 0x7e, 0xb4, 0xbd, 0xbc, 0x30, 0x19, 0x3d, 0x70, 0xa5, 0x3a, 0x3e, 0xe0, 0x0c, 0x3a, 0x3e, 0xf3, 0x08, 0x6f, 0xbd, 0x60, 0x9b, 0x38, 0xbc, 0xa2, 0x26, 0x22, 0x3e, 0x44, 0xa7, 0xd8, 0x3d, 0x51, 0xcc, 0xab, 0x3d, 0xc0, 0x3f, 0x0f, 0x3e, 0x6a, 0xa8, 0x6d, 0xbe, 0xf0, 0x36, 0x06, 0xbe, 0xeb, 0x79, 0x08, 0xbd, 0x36, 0x23, 0x4a, 0xbe, 0xd0, 0xd4, 0x24, 0x3e, 0x09, 0x8c, 0xab, 0xbe, 0xc7, 0xdd, 0x21, 0x3e, 0x86, 0x62, 0xb1, 0xbe, 0x10, 0x97, 0x26, 0x3e, 0xa4, 0xf7, 0xb4, 0x3d, 0x82, 0x1d, 0xc4, 0x3d, 0x63, 0x36, 0x11, 0xbd, 0x88, 0x83, 0xe9, 0x3d, 0x22, 0xee, 0x0c, 0xbe, 0x71, 0x7f, 0x99, 0x3b, 0x95, 0xcd, 0xb5, 0xbd, 0x56, 0x59, 0x14, 0xbe, 0x65, 0xdc, 0x49, 0xbc, 0x13, 0x27, 0x20, 0x3e, 0x70, 0xd7, 0x2d, 0x3e, 0x0e, 0x69, 0x13, 0xbd, 0x53, 0xda, 0x58, 0x3e, 0x01, 0x8e, 0x3a, 0x3e, 0x00, 0x90, 0x56, 0xbd, 0xc6, 0x9f, 0x2d, 0x3c, 0xa1, 0x72, 0x31, 0xbe, 0xa2, 0xc4, 0x87, 0x3e, 0x5c, 0x12, 0x0c, 0xbe, 0xf6, 0x7b, 0x2b, 0xbe, 0x1e, 0x2a, 0x85, 0x3e, 0x08, 0x18, 0x88, 0x3e, 0x9b, 0x01, 0xf8, 0x3d, 0xbd, 0xe7, 0xa3, 0x3d, 0x51, 0xa5, 0x54, 0xbe, 0x64, 0x6c, 0x9c, 0x3e, 0xfc, 0xee, 0x42, 0xbe, 0x70, 0xdd, 0x03, 0x3e, 0x84, 0x4d, 0x9d, 0xbe, 0xe4, 0x10, 0x5d, 0x3e, 0xdf, 0xc9, 0x98, 0xbd, 0x28, 0x93, 0xe1, 0xbc, 0x64, 0x69, 0x81, 0xbe, 0x20, 0x52, 0x65, 0x3e, 0xa5, 0xe7, 0x13, 0x3d, 0xe9, 0xc7, 0x74, 0x3e, 0xa1, 0x82, 0x70, 0xbe, 0xa6, 0xbe, 0x01, 0x3d, 0xe9, 0x0a, 0x2a, 0xbe, 0xd8, 0xa7, 0xd3, 0xbd, 0xf8, 0x21, 0x46, 0x3e, 0xde, 0xd3, 0x23, 0x3e, 0xfa, 0x67, 0x4d, 0x3d, 0x37, 0x4d, 0x29, 0xbe, 0xe8, 0x40, 0x63, 0x3e, 0x6c, 0x47, 0x20, 0x3d, 0x5f, 0xda, 0xb3, 0x3d, 0x28, 0xa9, 0xbb, 0x3d, 0x92, 0xc8, 0x1d, 0xbe, 0xb0, 0x7f, 0xdd, 0x3d, 0x08, 0xe1, 0xb0, 0xbd, 0x26, 0xee, 0x23, 0xbe, 0x1f, 0x1f, 0x57, 0x3e, 0x86, 0xe4, 0xb4, 0x3d, 0xba, 0x6c, 0x6a, 0x3e, 0x97, 0x4d, 0x08, 0xbf, 0xfc, 0x84, 0xec, 0x3d, 0xf3, 0x46, 0x8d, 0xbd, 0x98, 0x26, 0x15, 0xbd, 0xcb, 0x3c, 0x7b, 0x3b, 0x22, 0x2d, 0xf3, 0xbe, 0x0d, 0x83, 0x0f, 0xbe, 0xde, 0x26, 0x60, 0xbe, 0xe7, 0xea, 0xf8, 0x3c, 0xca, 0x18, 0x13, 0x3e, 0xe2, 0x0c, 0x92, 0xbb, 0x31, 0xd5, 0x11, 0x3c, 0xec, 0x18, 0xc9, 0xbd, 0x21, 0xda, 0xc3, 0xbd, 0xc9, 0xc2, 0x46, 0x3e, 0xfe, 0xf0, 0x3e, 0x3e, 0xf2, 0xe2, 0x15, 0xbe, 0xf0, 0x91, 0xc4, 0xbc, 0x36, 0x14, 0x21, 0x3e, 0x0a, 0x17, 0x6f, 0x3e, 0x14, 0xfb, 0xb1, 0xbe, 0x75, 0x3e, 0x95, 0xbe, 0x88, 0xf7, 0x39, 0xbe, 0xde, 0xfa, 0x82, 0x3e, 0x5e, 0x67, 0x3f, 0x3c, 0x58, 0xe8, 0x93, 0xbc, 0x76, 0x45, 0xaa, 0x3e, 0x12, 0x86, 0x68, 0xbe, 0xb1, 0x84, 0x8f, 0xbe, 0x47, 0x6d, 0xe8, 0x3b, 0x70, 0x6e, 0x2d, 0x3d, 0x22, 0x4a, 0xa9, 0xbe, 0x53, 0xd2, 0x01, 0x3e, 0x6a, 0xd9, 0xce, 0xbe, 0x3e, 0xc2, 0x68, 0x3e, 0xb0, 0x1c, 0x2f, 0xbe, 0xd8, 0x30, 0xaf, 0xbe, 0x59, 0x7a, 0x22, 0x3e, 0xa6, 0x23, 0x64, 0x3d, 0xc2, 0xce, 0x19, 0x3e, 0xfe, 0xa0, 0x6b, 0xbe, 0xc8, 0x58, 0x7c, 0xbe, 0x1e, 0xf4, 0xa9, 0xbe, 0x40, 0xfa, 0x82, 0x3e, 0x21, 0x8c, 0x9a, 0x3e, 0x46, 0x93, 0x78, 0xbe, 0x7b, 0x0c, 0x89, 0x3c, 0xa3, 0x23, 0x9c, 0xbe, 0x74, 0xd3, 0x7d, 0xbe, 0xdb, 0x41, 0x00, 0xbe, 0x1d, 0x3d, 0x5c, 0x3e, 0x79, 0xd0, 0xaf, 0xbe, 0x84, 0x8d, 0x96, 0xbd, 0x15, 0x95, 0xe1, 0xbd, 0xeb, 0xdd, 0xbe, 0xbd, 0x13, 0x92, 0xff, 0x3d, 0x04, 0x67, 0xde, 0x3e, 0x9d, 0x73, 0x39, 0x3d, 0x21, 0xc4, 0x9e, 0x3b, 0x2d, 0x50, 0x79, 0x3e, 0x28, 0x6e, 0xf1, 0xbd, 0xd8, 0x3f, 0x1c, 0xbe, 0x3a, 0x68, 0x36, 0x3e, 0xa6, 0xb7, 0x1c, 0x3e, 0xc0, 0x99, 0x10, 0x3d, 0x28, 0x02, 0x72, 0x3e, 0xc4, 0x53, 0xf1, 0x3c, 0x7c, 0x01, 0xe6, 0xbc, 0xe3, 0xad, 0x2a, 0x3e, 0xda, 0xda, 0xb3, 0x3e, 0x7e, 0x61, 0xdd, 0x3c, 0x59, 0xac, 0x65, 0x3e, 0x0a, 0xbc, 0x91, 0xbd, 0xfb, 0xda, 0x84, 0x3e, 0x3d, 0xeb, 0xc4, 0x3d, 0x06, 0x71, 0x47, 0xbd, 0x80, 0x3e, 0x2f, 0x3e, 0x66, 0x0f, 0x69, 0xbc, 0xf4, 0xe1, 0x6d, 0xbd, 0x83, 0x9b, 0x1f, 0x3d, 0xde, 0xde, 0x76, 0x3e, 0x02, 0xc2, 0x81, 0xbd, 0xa4, 0xd4, 0x9d, 0xbd, 0x52, 0xa3, 0x01, 0xbe, 0x0d, 0xf2, 0xc1, 0x3d, 0x66, 0x59, 0x37, 0xbc, 0x69, 0x7d, 0xaa, 0xbe, 0x75, 0x6d, 0x4e, 0xbc, 0x79, 0x22, 0x6a, 0xbf, 0xc8, 0x37, 0xce, 0x3d, 0x78, 0xaa, 0x66, 0x3d, 0x25, 0xb2, 0x44, 0xbe, 0x8a, 0xba, 0xcc, 0xbd, 0x16, 0x75, 0x9a, 0x3e, 0x46, 0xf6, 0x18, 0x3e, 0x3f, 0x8e, 0x10, 0xbe, 0x2e, 0xa2, 0xd3, 0x3e, 0x27, 0xf3, 0x86, 0xbd, 0xae, 0x48, 0xd8, 0xbd, 0xce, 0x4d, 0x0b, 0x3e, 0x80, 0x17, 0x12, 0xbe, 0x7b, 0xc9, 0xb4, 0x3e, 0x1a, 0x91, 0x33, 0xbd, 0xcb, 0x25, 0xd1, 0x3e, 0xc5, 0xb6, 0x86, 0xbe, 0x5b, 0x43, 0x29, 0xbe, 0xdf, 0xf4, 0xe1, 0xbe, 0xf6, 0xb7, 0x85, 0xbb, 0x65, 0x9a, 0xb5, 0xbd, 0xc6, 0x97, 0x47, 0xbe, 0x6e, 0x90, 0xbe, 0xbd, 0xef, 0xef, 0x90, 0xbe, 0xac, 0x13, 0xa9, 0xbe, 0x7f, 0xb7, 0x86, 0xbe, 0x0c, 0x43, 0x46, 0x3e, 0x87, 0xe1, 0x91, 0xbe, 0x72, 0x72, 0x72, 0xbd, 0x4e, 0x08, 0x12, 0x3e, 0xac, 0x98, 0xa0, 0xbd, 0x26, 0xba, 0x46, 0xbc, 0x80, 0x5c, 0x37, 0x3d, 0x34, 0x56, 0x3d, 0xbd, 0xef, 0x01, 0xf7, 0xbc, 0x28, 0x9b, 0x51, 0xbe, 0x4a, 0x79, 0x10, 0xbe, 0xa1, 0x2c, 0x0f, 0x3d, 0x9c, 0x55, 0x75, 0x3d, 0x4c, 0x00, 0x97, 0x3d, 0xc3, 0x81, 0xaf, 0xbe, 0x00, 0x13, 0x84, 0x3d, 0x76, 0x2f, 0x20, 0xbd, 0x7c, 0x56, 0x97, 0xbd, 0x96, 0x40, 0x6b, 0x3e, 0xa3, 0xfc, 0xfa, 0xbe, 0xed, 0x4f, 0x3a, 0x3d, 0xf9, 0xad, 0xb5, 0xbe, 0x0e, 0x73, 0x1d, 0x3e, 0x3b, 0x28, 0x29, 0x3d, 0xae, 0xd7, 0xbb, 0xbd, 0x70, 0x19, 0x3f, 0x3d, 0x42, 0x51, 0x87, 0x3e, 0x5d, 0xcc, 0xdc, 0x3d, 0xb1, 0x9b, 0x24, 0x3e, 0x4f, 0x23, 0x12, 0x3e, 0x0a, 0x94, 0x06, 0xbe, 0xb7, 0x83, 0x3d, 0x3e, 0x7a, 0x88, 0x1a, 0x3e, 0xf0, 0x2a, 0x72, 0x3e, 0x41, 0xd0, 0x5a, 0x3d, 0xfd, 0xee, 0x47, 0x3e, 0xda, 0x4a, 0x42, 0x3c, 0x58, 0x1e, 0x45, 0xb9, 0x30, 0xfa, 0xdf, 0x3d, 0x43, 0x0a, 0x2c, 0xbd, 0x82, 0xe0, 0x87, 0x3d, 0x2d, 0x43, 0x40, 0x3e, 0x91, 0x8b, 0x1c, 0x3e, 0x40, 0xcf, 0xc5, 0x3d, 0x8b, 0x22, 0x0e, 0x3d, 0xfd, 0x17, 0xa6, 0x3d, 0x48, 0x15, 0x5f, 0x3e, 0x08, 0xa6, 0x9f, 0x3e, 0x7e, 0x47, 0xea, 0x3d, 0x1d, 0x5c, 0xb1, 0xbd, 0x1a, 0x85, 0x66, 0x3c, 0x83, 0x65, 0x2a, 0x3e, 0x59, 0xae, 0x0e, 0x3d, 0x1f, 0x78, 0xb7, 0x3c, 0x79, 0xdb, 0x59, 0x3e, 0x4e, 0x20, 0x35, 0x39, 0xc5, 0x6a, 0xa6, 0xbd, 0xf1, 0x72, 0x10, 0x3e, 0xf0, 0x0d, 0x83, 0x3d, 0x90, 0x78, 0x88, 0x3e, 0x00, 0x3f, 0x1f, 0xbe, 0x71, 0x53, 0xc6, 0x3e, 0x70, 0x5d, 0xc9, 0x3c, 0xfa, 0x3e, 0x34, 0x3e, 0x36, 0xab, 0x50, 0xbe, 0x38, 0xf2, 0x5f, 0x3e, 0xa5, 0x5f, 0xd2, 0xba, 0x27, 0xf7, 0x9f, 0x3a, 0xc2, 0xf4, 0x11, 0xbd, 0x91, 0xb4, 0x84, 0xbd, 0xa6, 0x38, 0x31, 0xbe, 0x23, 0x97, 0xd5, 0xbd, 0xf7, 0x77, 0x1a, 0x3e, 0x06, 0xfc, 0x56, 0xbe, 0x04, 0x91, 0x1d, 0xbd, 0x64, 0x09, 0x10, 0xbe, 0xd8, 0x76, 0x2e, 0xbe, 0xb8, 0x49, 0x29, 0xbe, 0x36, 0x8c, 0x21, 0x3e, 0xaf, 0x3f, 0xb1, 0x3d, 0x35, 0x7c, 0x6d, 0xbd, 0x74, 0x43, 0x76, 0xbd, 0x69, 0x04, 0x02, 0x3d, 0x2f, 0xa0, 0x5d, 0xbe, 0xf0, 0x4a, 0xda, 0xbd, 0x85, 0x3c, 0x1a, 0xbe, 0x83, 0xdf, 0x9d, 0xbd, 0xe7, 0x0c, 0x1a, 0x3e, 0x48, 0x3f, 0x85, 0xbd, 0x65, 0x86, 0x3b, 0x3c, 0x70, 0xf0, 0x08, 0x3e, 0xf4, 0x8b, 0x24, 0xbe, 0xce, 0xfb, 0x63, 0xbb, 0x82, 0xed, 0x82, 0xbd, 0xef, 0xd5, 0xfe, 0xbc, 0x78, 0x6a, 0x45, 0xbe, 0x6c, 0x84, 0x07, 0x3e, 0x48, 0xf7, 0xde, 0xbb, 0x83, 0x4a, 0xce, 0xbe, 0x53, 0x2c, 0x82, 0xbe, 0x52, 0x3c, 0x21, 0xbe, 0x90, 0xc2, 0x60, 0xbd, 0x92, 0xa4, 0x8b, 0x3d, 0x7e, 0x07, 0xab, 0x3d, 0xfb, 0xc5, 0x36, 0x3e, 0xc8, 0x65, 0xf6, 0xbd, 0xc7, 0xb6, 0x2a, 0xbe, 0x34, 0x54, 0x88, 0x3e, 0x5e, 0x04, 0x0d, 0x3e, 0x95, 0xe6, 0x8f, 0x3d, 0x4a, 0xaf, 0xc3, 0xbd, 0x14, 0xc5, 0xa5, 0xbe, 0x45, 0xe5, 0xd6, 0xbd, 0xea, 0x6a, 0x9e, 0x3a, 0x59, 0xc6, 0x46, 0xbe, 0x56, 0x30, 0xae, 0x3d, 0x03, 0x15, 0x73, 0x3e, 0x3c, 0x18, 0xfd, 0x3d, 0xd6, 0x7b, 0x75, 0xbe, 0xdc, 0x5c, 0x45, 0xbe, 0xba, 0xa4, 0xcb, 0x3d, 0x2a, 0x71, 0x20, 0x3e, 0xe9, 0xd1, 0x86, 0x3e, 0x7b, 0x79, 0xb1, 0xbe, 0x38, 0xc2, 0xb5, 0xbd, 0x72, 0xce, 0x1e, 0xbe, 0x90, 0x60, 0xab, 0xbe, 0x0a, 0xa6, 0xb7, 0xbe, 0xf5, 0xc9, 0xb5, 0xbd, 0x29, 0x3e, 0x70, 0x3d, 0x8e, 0x75, 0x07, 0xbe, 0xa4, 0x01, 0xee, 0xbc, 0xfc, 0x18, 0x13, 0xbe, 0x0e, 0x91, 0x38, 0xbe, 0x1c, 0x2e, 0x75, 0x3d, 0x2c, 0x55, 0x2d, 0xbe, 0x24, 0x9b, 0xd0, 0xbd, 0x7e, 0x22, 0x98, 0xbd, 0xfe, 0xbe, 0x0b, 0xbe, 0x34, 0x52, 0x07, 0x3d, 0xb3, 0xc0, 0x96, 0xbd, 0x7d, 0x32, 0x4d, 0xbe, 0xa0, 0xdf, 0x78, 0x3d, 0x09, 0xb4, 0xa4, 0xbd, 0xc9, 0xca, 0x08, 0x3e, 0x18, 0x1a, 0x79, 0x3d, 0x49, 0x0c, 0xf2, 0xbd, 0xba, 0x12, 0x9e, 0xbd, 0xb9, 0x8f, 0x3a, 0xbe, 0x4a, 0xa0, 0x0f, 0x3d, 0xd3, 0x32, 0x2d, 0xbe, 0x55, 0xd9, 0x19, 0x3d, 0x01, 0x14, 0x19, 0x3e, 0x53, 0xf8, 0x08, 0x3e, 0x0a, 0xa4, 0xde, 0xbd, 0xf9, 0x77, 0x25, 0xbe, 0x54, 0xac, 0xf0, 0x3d, 0x8b, 0xc0, 0x2c, 0xbe, 0xf5, 0x61, 0xaa, 0x3d, 0x32, 0x58, 0x90, 0x3d, 0x39, 0x09, 0x3b, 0x3d, 0x3e, 0x8c, 0x6a, 0xbd, 0xf6, 0xf1, 0x01, 0x3e, 0xb4, 0x21, 0x1b, 0xbd, 0x32, 0x1d, 0x32, 0xbe, 0x40, 0x4b, 0x03, 0x3d, 0xac, 0xc8, 0x57, 0xbd, 0x96, 0x38, 0x48, 0x3e, 0xda, 0x62, 0x4a, 0xbe, 0x14, 0x85, 0x1f, 0xbe, 0xf7, 0xd0, 0x53, 0xbe, 0x1a, 0x8b, 0x58, 0x3e, 0xec, 0x0f, 0x41, 0xbd, 0x30, 0x00, 0xad, 0xbc, 0x29, 0xce, 0x27, 0xbe, 0x18, 0x7f, 0xb1, 0xbd, 0x90, 0x3b, 0x19, 0x3e, 0x46, 0xd1, 0x0f, 0xbe, 0x88, 0xe6, 0x11, 0xbd, 0xca, 0xd9, 0xda, 0xbd, 0x46, 0xe2, 0x2c, 0x3e, 0xd0, 0x31, 0xff, 0x3c, 0xc8, 0x48, 0xb1, 0xbd, 0x48, 0x90, 0x0c, 0xbe, 0x70, 0x38, 0x38, 0xbc, 0x98, 0x0b, 0x43, 0xbe, 0x0a, 0x73, 0xa7, 0xbd, 0xd0, 0xce, 0xbb, 0x3d, 0x38, 0xe2, 0x9e, 0xbc, 0x0c, 0xc7, 0x4e, 0xbe, 0xc1, 0xbc, 0xe8, 0xbd, 0xde, 0xf6, 0xdb, 0xbd, 0x80, 0x96, 0x56, 0x3e, 0xa6, 0xc7, 0x0d, 0x3e, 0xe0, 0xfe, 0x0a, 0x3d, 0x54, 0x78, 0xa9, 0x3d, 0xc0, 0xce, 0xcc, 0xbb, 0x9d, 0xc4, 0x0f, 0xbe, 0xfb, 0xff, 0x48, 0xbe, 0x76, 0x2a, 0x15, 0x3e, 0xb2, 0xfd, 0x52, 0xbe, 0xa8, 0xf3, 0xec, 0xbd, 0xeb, 0xb6, 0xc5, 0xbd, 0x30, 0x11, 0x9a, 0xbc, 0x47, 0x1e, 0x56, 0xbe, 0xae, 0xfb, 0xcc, 0xbd, 0xb4, 0x9a, 0x27, 0xbd, 0xc6, 0xdf, 0x22, 0xbe, 0x6f, 0xc8, 0xd2, 0xbd, 0x66, 0x68, 0x51, 0x3e, 0x3c, 0x71, 0x89, 0xbd, 0xd0, 0xe4, 0x5c, 0x3d, 0xe0, 0x89, 0xca, 0x3d, 0xae, 0xaf, 0x22, 0xbe, 0xf0, 0xed, 0xe5, 0x3c, 0x24, 0x67, 0xfc, 0x3d, 0x78, 0xbb, 0x13, 0xbd, 0x8a, 0x84, 0x3b, 0x3e, 0x8d, 0xbd, 0x52, 0xbe, 0xd4, 0x80, 0x54, 0xbe, 0x00, 0xcc, 0x15, 0xbe, 0xee, 0x42, 0xbf, 0xbd, 0x84, 0x4a, 0xd5, 0xbd, 0xf0, 0x0f, 0xb3, 0x3d, 0xa8, 0x24, 0x82, 0x3d, 0x36, 0xa5, 0x15, 0x3e, 0x09, 0x90, 0x43, 0x3a, 0x36, 0xff, 0x45, 0x3b, 0x1f, 0x97, 0x8d, 0xbc, 0x48, 0x48, 0x8a, 0x3e, 0x98, 0xa1, 0x05, 0x3d, 0xcc, 0x5d, 0x1a, 0xbe, 0x63, 0xca, 0x87, 0xbc, 0x2e, 0x13, 0x5a, 0xbe, 0x06, 0xb6, 0x6e, 0xbe, 0xec, 0xd2, 0x00, 0xbd, 0x1e, 0x86, 0x47, 0x3e, 0xb5, 0xd5, 0x1e, 0x3d, 0xba, 0x2d, 0xc3, 0xbe, 0x54, 0x50, 0x27, 0x3e, 0x96, 0x87, 0x96, 0xba, 0xd4, 0x15, 0x0d, 0xbe, 0x7b, 0xb0, 0x1f, 0x3c, 0xcd, 0x14, 0x17, 0xbf, 0x36, 0x36, 0xb4, 0x3d, 0x5b, 0xd1, 0xd4, 0xbe, 0x13, 0xc2, 0x04, 0x3d, 0x62, 0x35, 0x17, 0x3e, 0x9c, 0x79, 0x64, 0x3e, 0x0f, 0xa8, 0x48, 0x3d, 0x87, 0xd4, 0x86, 0x3e, 0x0a, 0xc0, 0x19, 0xbe, 0x51, 0x8f, 0x4f, 0x3e, 0x2b, 0xd7, 0x38, 0x3d, 0xd0, 0x15, 0xe8, 0xbc, 0xb4, 0x71, 0x5d, 0x3e, 0x34, 0xbd, 0xa8, 0xbc, 0xce, 0xbf, 0x71, 0x3e, 0x0b, 0x48, 0x4c, 0xbe, 0x88, 0xa9, 0xc8, 0x3c, 0xcf, 0x16, 0x52, 0x3e, 0x12, 0x6c, 0x67, 0x3e, 0x46, 0x89, 0x7a, 0xbd, 0xa8, 0x26, 0x4a, 0xbe, 0x95, 0x44, 0xcb, 0x3d, 0x76, 0xac, 0x6a, 0xbe, 0x40, 0x9b, 0xb2, 0xbe, 0x29, 0x64, 0x34, 0x3e, 0x31, 0x55, 0x94, 0x3d, 0x72, 0xa6, 0x4a, 0x3e, 0xe5, 0x85, 0x2b, 0x3e, 0xfb, 0xf9, 0x2a, 0xbd, 0x3c, 0x37, 0x71, 0x3e, 0x00, 0x0a, 0x02, 0xbc, 0xea, 0x41, 0xde, 0x3c, 0xfd, 0x1a, 0x48, 0x3e, 0xa7, 0x67, 0xd8, 0xbd, 0xd1, 0xf9, 0x88, 0x3e, 0x75, 0x98, 0x95, 0x3d, 0x3a, 0x45, 0xc2, 0xbe, 0xa3, 0x3e, 0x39, 0x3e, 0xd0, 0x30, 0xb8, 0x3d, 0x5c, 0xb6, 0x07, 0xbe, 0x5c, 0x41, 0x8d, 0xbe, 0x2b, 0x16, 0x35, 0x3d, 0xb7, 0x05, 0xaf, 0xbe, 0x56, 0x4d, 0xa5, 0xbe, 0x1f, 0xa9, 0x00, 0xbe, 0x8b, 0x04, 0x45, 0x3e, 0x65, 0xcd, 0x1b, 0xbe, 0x8c, 0xcb, 0x4e, 0x3d, 0x82, 0x09, 0xae, 0x3d, 0x12, 0x28, 0xac, 0xbd, 0xc0, 0xb5, 0xc2, 0x3d, 0xf4, 0x04, 0xb5, 0x3e, 0x22, 0x16, 0x2b, 0xbe, 0x0b, 0xf7, 0x32, 0x3c, 0x39, 0x0e, 0x63, 0x3e, 0x7e, 0x16, 0x7e, 0x3e, 0xe6, 0x7d, 0x61, 0xbe, 0xdf, 0xce, 0x8d, 0x3d, 0x95, 0x00, 0x7d, 0x3d, 0x8b, 0xc0, 0x79, 0x3e, 0x04, 0xd5, 0x18, 0x3d, 0xcb, 0xbc, 0x03, 0x3e, 0x1b, 0x65, 0x36, 0x3d, 0x8f, 0xab, 0x71, 0xbe, 0x8c, 0x23, 0x59, 0x3d, 0xcf, 0x1a, 0x4e, 0x3d, 0xb2, 0x04, 0xa6, 0x3e, 0xf2, 0xd5, 0xa7, 0xbb, 0xd8, 0x12, 0x26, 0x3e, 0xf0, 0xd9, 0x66, 0xbd, 0x32, 0xe8, 0xec, 0x3c, 0xb6, 0x07, 0x63, 0x3e, 0x67, 0x33, 0x17, 0xbd, 0x24, 0x49, 0xcc, 0x3d, 0x2d, 0x19, 0xb5, 0x3c, 0xed, 0x01, 0x7c, 0x3e, 0xcf, 0x78, 0xf4, 0x3b, 0x12, 0x8f, 0x40, 0xbe, 0xb8, 0xa3, 0x89, 0x3d, 0x38, 0x57, 0x9a, 0xbd, 0xdd, 0x81, 0x5c, 0xbe, 0x8f, 0x0a, 0x03, 0x3d, 0xe5, 0x8e, 0x2f, 0xbe, 0x85, 0x99, 0x45, 0xbe, 0xa4, 0x1e, 0xae, 0x3d, 0xa6, 0x98, 0x2f, 0x3e, 0xa2, 0x83, 0x81, 0xbd, 0x41, 0x7b, 0x36, 0x3e, 0x4c, 0x8c, 0x3d, 0x3e, 0xf1, 0x66, 0x90, 0x3d, 0x01, 0x3b, 0x53, 0xbe, 0x38, 0x8b, 0x1e, 0x3d, 0xe3, 0xe8, 0x32, 0xbd, 0x43, 0x63, 0x75, 0xbd, 0x26, 0xbc, 0xc1, 0xbd, 0xe8, 0xf8, 0x4e, 0x3d, 0x16, 0x93, 0x1d, 0xbe, 0xaf, 0x69, 0xda, 0x3c, 0x3c, 0x59, 0xe7, 0xbd, 0xfc, 0x70, 0x48, 0xbe, 0x35, 0xc1, 0xd5, 0xbc, 0xbe, 0x3e, 0x2e, 0x3c, 0xff, 0xa9, 0xf3, 0xbd, 0x88, 0x5d, 0xf9, 0x3d, 0xc2, 0x77, 0x42, 0x3b, 0x72, 0xba, 0x37, 0xbe, 0xfe, 0x78, 0xbf, 0x3d, 0x91, 0x36, 0x17, 0x3e, 0xe0, 0x3d, 0x37, 0x3d, 0x4d, 0xf4, 0x48, 0xbe, 0x4e, 0xbe, 0xfa, 0x3c, 0x2c, 0xa1, 0xa5, 0xbe, 0xa4, 0x25, 0x8e, 0xbd, 0xb0, 0x64, 0xec, 0x3d, 0x91, 0x65, 0x41, 0x3e, 0x7f, 0xc5, 0x41, 0xbc, 0x06, 0xce, 0xc5, 0xbd, 0xcb, 0x70, 0x55, 0x3c, 0x65, 0x91, 0x3f, 0xbd, 0x9b, 0xc9, 0xac, 0xbe, 0x07, 0x34, 0xf5, 0xbd, 0x5f, 0x81, 0x05, 0x3e, 0x6b, 0x00, 0x54, 0xbe, 0x01, 0xd9, 0x84, 0x3e, 0x42, 0x40, 0xa0, 0xbe, 0x47, 0x5f, 0x23, 0xbe, 0x40, 0xf6, 0x0f, 0xbe, 0x3f, 0xf9, 0x1b, 0x3d, 0x33, 0x68, 0x85, 0x3b, 0xe7, 0xf7, 0x54, 0x3e, 0x4c, 0x54, 0xb9, 0x3e, 0x35, 0xd6, 0xef, 0x3d, 0x73, 0x49, 0x8d, 0xbe, 0x4f, 0x15, 0x32, 0xbe, 0x4f, 0x67, 0x9b, 0xbd, 0xde, 0x69, 0x10, 0x3e, 0x45, 0xe2, 0x4b, 0xbd, 0x95, 0x71, 0x4c, 0x3e, 0x62, 0xb3, 0x48, 0xbe, 0xca, 0x11, 0xa8, 0xbd, 0x85, 0x34, 0x0e, 0xbd, 0xc5, 0xaf, 0xb8, 0x3d, 0xb1, 0xff, 0xb0, 0xbd, 0xa0, 0x53, 0x95, 0x3e, 0xf9, 0x19, 0x7d, 0xbd, 0x8a, 0xc9, 0x1d, 0x3d, 0xe7, 0xd1, 0x2a, 0x3d, 0x1d, 0x6a, 0x20, 0xbe, 0xdf, 0x90, 0x43, 0xbe, 0xb0, 0x82, 0xd1, 0xbd, 0x77, 0xab, 0x94, 0x3e, 0x34, 0xc2, 0x34, 0x3e, 0x89, 0x4a, 0xef, 0xbb, 0x02, 0x20, 0x91, 0x3d, 0xcb, 0xdf, 0xf0, 0x3d, 0xa8, 0x2b, 0xaf, 0x3e, 0xd0, 0xa5, 0xb8, 0x3e, 0x1f, 0x37, 0x46, 0xbe, 0x3e, 0x66, 0x31, 0x3e, 0x5d, 0x8c, 0xcd, 0x3d, 0x1a, 0xb7, 0xa0, 0x3e, 0xee, 0x54, 0x2e, 0xbe, 0x2c, 0xbe, 0xb8, 0x3e, 0xbf, 0xdf, 0x7b, 0xbe, 0x62, 0xac, 0x3c, 0xba, 0x89, 0xfc, 0x25, 0x3d, 0x08, 0x63, 0xdc, 0xbd, 0x88, 0x8d, 0x73, 0xbd, 0x68, 0x1e, 0x48, 0x3d, 0x72, 0xb4, 0xf7, 0xba, 0x0b, 0x6a, 0xff, 0x3c, 0x67, 0x8a, 0x5c, 0x3e, 0x0e, 0x3d, 0x02, 0xbe, 0x69, 0xbe, 0x74, 0x3e, 0x0f, 0x73, 0x48, 0xbe, 0xe0, 0x6d, 0xf7, 0x3b, 0x18, 0x76, 0x40, 0x3d, 0xac, 0xd3, 0xe6, 0xbd, 0xa9, 0x1e, 0x0a, 0xbe, 0xf0, 0x09, 0x40, 0x3c, 0xb0, 0x4a, 0xa2, 0x3d, 0x9c, 0xa6, 0xc0, 0x3d, 0xa0, 0xb2, 0x29, 0xbc, 0x00, 0x42, 0x9f, 0xb9, 0xc0, 0x32, 0xb9, 0xbd, 0x62, 0x62, 0x9f, 0xbd, 0x04, 0xc8, 0xd9, 0x3d, 0x09, 0x58, 0xdd, 0xbd, 0xc4, 0xfd, 0xe0, 0x3d, 0xf0, 0x71, 0x43, 0x3c, 0x93, 0xa0, 0x15, 0xbe, 0xb3, 0x75, 0xbe, 0xbd, 0x44, 0x5a, 0x92, 0x3d, 0xa0, 0x32, 0x3d, 0xbd, 0x00, 0x40, 0x15, 0xb8, 0xbc, 0xa6, 0x51, 0x3e, 0x74, 0x6d, 0xd2, 0x3d, 0x37, 0x09, 0x4b, 0xbe, 0xcc, 0xf8, 0x35, 0x3e, 0x67, 0x24, 0x50, 0xbe, 0x90, 0x9d, 0x28, 0xbe, 0xd0, 0xdb, 0x21, 0x3d, 0xa0, 0xd5, 0xfc, 0x3d, 0x85, 0x18, 0x0f, 0xbe, 0xf8, 0x93, 0x63, 0x3d, 0x40, 0x91, 0xa7, 0xbb, 0x68, 0x20, 0x5d, 0x3d, 0x3b, 0x5b, 0xc2, 0xbd, 0xea, 0x58, 0x14, 0x3e, 0x65, 0x01, 0x5a, 0x3e, 0x7e, 0x55, 0xc6, 0xbd, 0x20, 0x61, 0x43, 0xbd, 0xda, 0xa2, 0x28, 0xbd, 0xd4, 0x19, 0x82, 0x3e, 0x55, 0x78, 0x24, 0x3d, 0x09, 0x25, 0x71, 0x3b, 0x76, 0xb6, 0xd0, 0x3d, 0xfc, 0xe9, 0x2b, 0x3d, 0xeb, 0x8d, 0x27, 0x3b, 0xfe, 0x04, 0xc4, 0xbe, 0x65, 0x29, 0x0a, 0xbe, 0xb5, 0x0e, 0xc4, 0x3c, 0xef, 0x15, 0xb7, 0x3c, 0xe3, 0xfc, 0x0e, 0xbe, 0x27, 0x68, 0xf6, 0xbe, 0x83, 0x73, 0xca, 0xbd, 0x6d, 0xf2, 0x03, 0xbf, 0xff, 0x84, 0x67, 0x3d, 0x57, 0x1f, 0xc9, 0xbd, 0x01, 0x5b, 0x12, 0x3e, 0x74, 0x31, 0x9c, 0xbd, 0x69, 0xdf, 0x18, 0x3d, 0x96, 0xd7, 0x92, 0xbb, 0x42, 0x6e, 0x95, 0xbc, 0xa8, 0x31, 0x00, 0x3e, 0x37, 0xd3, 0x41, 0x3e, 0x70, 0x3a, 0xe3, 0x3c, 0x51, 0xb6, 0x91, 0x3d, 0xc6, 0x56, 0x34, 0x3e, 0x81, 0xec, 0x3a, 0x3d, 0x2f, 0x5e, 0x9c, 0xbe, 0x16, 0x85, 0x9f, 0xbb, 0xd8, 0x27, 0xe8, 0xbd, 0x88, 0x75, 0x93, 0x3d, 0xde, 0xd4, 0x42, 0x3e, 0xd3, 0x6c, 0x8c, 0x3b, 0x08, 0xb7, 0x62, 0x3e, 0x0e, 0x70, 0x91, 0x3e, 0x51, 0x0b, 0x82, 0x3e, 0x96, 0xfc, 0xc9, 0xbc, 0x89, 0xb2, 0x3c, 0xbd, 0xab, 0x08, 0x04, 0x3f, 0xdb, 0x2e, 0xa2, 0x3d, 0xcf, 0xe8, 0x65, 0x3d, 0x7d, 0x45, 0xa3, 0xbd, 0x66, 0xed, 0x90, 0xbe, 0x1a, 0xcc, 0xd0, 0x3e, 0x86, 0x17, 0x2d, 0x3b, 0xa9, 0xc3, 0xf5, 0x3e, 0x6f, 0xdf, 0x13, 0xbd, 0x77, 0x89, 0x3e, 0x3e, 0x4a, 0x76, 0x0b, 0xbd, 0xfa, 0xe0, 0x25, 0xbe, 0xff, 0x9f, 0x35, 0xbe, 0x3b, 0xe3, 0x66, 0x3e, 0x3b, 0xfc, 0xdf, 0x3d, 0x4b, 0xe7, 0xb4, 0x3d, 0xec, 0x40, 0x81, 0x3d, 0xea, 0x45, 0x2e, 0xbe, 0xd4, 0x34, 0x7f, 0x3e, 0x7d, 0x02, 0x1d, 0x3d, 0x3c, 0x40, 0x5c, 0xbd, 0xb1, 0x3f, 0x1e, 0xbd, 0x2a, 0x81, 0x33, 0xbd, 0x32, 0x6b, 0x76, 0x3d, 0x1e, 0xc3, 0x9f, 0xbd, 0x82, 0x81, 0x41, 0x3d, 0x47, 0x9c, 0xaf, 0x3d, 0xfd, 0xeb, 0x53, 0xbe, 0xbb, 0x1a, 0xd0, 0xbd, 0x83, 0x03, 0x55, 0xbe, 0xb0, 0x6d, 0xf8, 0x3d, 0x49, 0xa9, 0xa9, 0xbd, 0x24, 0x64, 0x10, 0x3e, 0x10, 0xee, 0x54, 0x3c, 0x4d, 0x18, 0xb3, 0xbd, 0x18, 0xfe, 0x0b, 0x3e, 0x97, 0x40, 0x49, 0xbd, 0xa4, 0xdc, 0x5b, 0xbe, 0xd4, 0x78, 0x76, 0xbe, 0x43, 0x96, 0x51, 0xbe, 0x62, 0xb0, 0xb5, 0x3c, 0x59, 0x1f, 0x4c, 0xbe, 0xcc, 0xd2, 0x11, 0xbe, 0x6a, 0xf9, 0x27, 0x3e, 0x74, 0x4f, 0x74, 0xbd, 0xac, 0x65, 0x95, 0x3d, 0x5b, 0x4d, 0x1f, 0x3e, 0xec, 0xa7, 0x18, 0x3e, 0xc4, 0x2a, 0x22, 0xbe, 0x92, 0xbd, 0xfc, 0x3c, 0xa3, 0x89, 0x16, 0xbd, 0xc5, 0x59, 0xb7, 0x3d, 0xdd, 0xc0, 0x1e, 0x3d, 0xf4, 0xba, 0xbe, 0x3d, 0xb5, 0xb4, 0xbe, 0x3d, 0xbc, 0x9d, 0x35, 0xbd, 0x8a, 0xda, 0xd2, 0xbe, 0xb9, 0x98, 0xa1, 0xbd, 0x47, 0xd8, 0x5f, 0xbd, 0x94, 0x56, 0x74, 0xbe, 0x60, 0x37, 0x1c, 0xbd, 0x32, 0x39, 0x56, 0x3e, 0x9b, 0xf2, 0xed, 0x3d, 0xad, 0x01, 0x99, 0xbe, 0x87, 0x97, 0x6b, 0x3e, 0x76, 0x87, 0x54, 0xbe, 0xfd, 0x1b, 0xbc, 0xbc, 0x80, 0xb5, 0xfd, 0x3d, 0xd1, 0x38, 0x28, 0xbe, 0x61, 0x4a, 0x73, 0x3e, 0x3e, 0xc1, 0xb5, 0x3d, 0xd2, 0x0f, 0x86, 0x3e, 0x8f, 0x11, 0x1e, 0xbe, 0x37, 0xa4, 0x89, 0xbe, 0x69, 0x69, 0x8f, 0xbe, 0x07, 0xb9, 0x26, 0x3d, 0x5d, 0x9d, 0x24, 0x3e, 0x64, 0xc9, 0x63, 0x3d, 0xfd, 0xcc, 0x71, 0x3e, 0x37, 0xb6, 0x8a, 0xbd, 0xd7, 0xe3, 0x93, 0xbe, 0x85, 0xdf, 0xb8, 0xbe, 0xa6, 0x93, 0xcc, 0x3c, 0xbd, 0x2a, 0x9c, 0xbe, 0x54, 0x12, 0x8e, 0xbe, 0x0a, 0x20, 0x37, 0xbe, 0x20, 0xe2, 0xb1, 0xb7, 0x9b, 0x8f, 0x29, 0x3e, 0xb8, 0x11, 0xf4, 0x3c, 0xc6, 0x90, 0x81, 0xbd, 0x90, 0x5a, 0x74, 0x3e, 0x72, 0xe0, 0xd7, 0x3d, 0x35, 0x15, 0x96, 0xbd, 0x43, 0x75, 0x46, 0x3e, 0x79, 0xbb, 0x2b, 0x3e, 0x66, 0x11, 0xc7, 0xbd, 0xa9, 0xea, 0x85, 0xbc, 0x17, 0x45, 0xf2, 0xbd, 0x00, 0x3f, 0x02, 0xbd, 0x3d, 0xa7, 0x20, 0x3e, 0x42, 0x45, 0x6c, 0xbe, 0x57, 0x6e, 0x83, 0xbe, 0xc8, 0x42, 0x44, 0x3e, 0x9a, 0x07, 0xdf, 0xbd, 0x3d, 0x32, 0x1a, 0x3e, 0xc7, 0x0e, 0x8a, 0xbe, 0x3a, 0x9b, 0x5b, 0xbe, 0x03, 0xd0, 0x22, 0x3e, 0x67, 0x2c, 0x92, 0x3d, 0xb0, 0x44, 0xfb, 0xbd, 0xb5, 0xf5, 0x91, 0x3e, 0x93, 0x9c, 0x36, 0xbe, 0x3c, 0xfb, 0x8f, 0xbe, 0x29, 0xd0, 0x8a, 0xbe, 0x87, 0xc8, 0x27, 0xbc, 0x58, 0xea, 0x07, 0x3e, 0x23, 0x23, 0x94, 0xbd, 0x4c, 0x82, 0x92, 0xbd, 0x18, 0xca, 0xc1, 0x3d, 0x63, 0x5e, 0x34, 0xbe, 0x50, 0x18, 0xfd, 0xbd, 0x7d, 0xc3, 0xe0, 0xbd, 0xf8, 0xb8, 0xb8, 0x3d, 0x3e, 0x53, 0x0c, 0xbe, 0xb9, 0xf7, 0xdf, 0xbd, 0x8f, 0x70, 0x17, 0xbe, 0xfd, 0x52, 0xd0, 0x3d, 0x64, 0xdf, 0xa0, 0x3d, 0xa9, 0x30, 0x41, 0x3e, 0x01, 0x94, 0x35, 0xbe, 0x6b, 0xef, 0xab, 0x3d, 0x60, 0x02, 0x46, 0x3d, 0x34, 0xe9, 0x65, 0xbd, 0x4a, 0x21, 0x08, 0x3e, 0x0a, 0x40, 0x01, 0xbd, 0xc5, 0xe4, 0x49, 0xbe, 0xa8, 0xb2, 0x08, 0x3d, 0xa2, 0x9b, 0x18, 0xbe, 0x54, 0xb1, 0x4f, 0xbe, 0x70, 0xae, 0xbe, 0xbc, 0xcc, 0x9d, 0x15, 0xbe, 0x8a, 0xf8, 0xf6, 0xbd, 0xab, 0x01, 0xd9, 0xbd, 0x1c, 0x68, 0x9b, 0x3d, 0xa5, 0x0f, 0x29, 0xbe, 0xdc, 0x0d, 0x0d, 0xbe, 0xec, 0x4f, 0x93, 0x3d, 0xb7, 0x35, 0xc1, 0xbd, 0xb0, 0x63, 0x65, 0x3e, 0x17, 0xad, 0xbd, 0x3c, 0x59, 0xa3, 0x51, 0xbe, 0xc7, 0x3e, 0x4a, 0xbe, 0x50, 0x09, 0xc2, 0xbe, 0x44, 0xfa, 0x74, 0xbd, 0x78, 0x20, 0xd6, 0x3e, 0x1e, 0x67, 0x33, 0xbe, 0x70, 0x3c, 0x9d, 0x3e, 0xdd, 0x93, 0x4a, 0x3e, 0x20, 0x4d, 0x19, 0xbe, 0x30, 0xf3, 0xb9, 0x3a, 0x83, 0xdb, 0x05, 0x3f, 0x34, 0xb5, 0x09, 0xbc, 0x73, 0x91, 0xc8, 0xbb, 0x6f, 0x3c, 0xa7, 0x3d, 0x7e, 0x53, 0xc7, 0x3d, 0xb0, 0x23, 0xa2, 0x3e, 0x63, 0x17, 0xad, 0xbd, 0xd6, 0x68, 0xc7, 0x3e, 0x62, 0xb8, 0x85, 0x3d, 0xbc, 0xe4, 0x7c, 0x3e, 0xa8, 0xd8, 0x83, 0xbe, 0x34, 0x06, 0x27, 0xbe, 0x78, 0x9e, 0x79, 0xbe, 0xa8, 0xe2, 0xa9, 0x3e, 0xc9, 0x9f, 0x57, 0xba, 0xdf, 0x5c, 0x7b, 0xbd, 0xd9, 0x40, 0x70, 0x3d, 0xa9, 0x1d, 0x03, 0x3c, 0xb7, 0xa6, 0x81, 0x3e, 0xe8, 0xdc, 0x9a, 0xbe, 0x85, 0x91, 0x22, 0x3d, 0x3c, 0x91, 0xba, 0xbd, 0x3a, 0x73, 0x05, 0xbe, 0xf5, 0x4f, 0x2c, 0x3e, 0x93, 0xec, 0x1e, 0x3f, 0x96, 0x09, 0x47, 0x3e, 0x92, 0x84, 0xbb, 0x3c, 0x91, 0x5e, 0x5f, 0x3e, 0x09, 0xa1, 0x68, 0xbd, 0xca, 0x87, 0xef, 0x3d, 0x7d, 0xc4, 0x53, 0x3e, 0xb2, 0x2c, 0x60, 0xbd, 0xbc, 0x99, 0x6c, 0xbc, 0x6d, 0xac, 0xb1, 0x3d, 0x32, 0x5b, 0x83, 0xbd, 0x5a, 0x83, 0xef, 0x3d, 0xc5, 0x66, 0x0c, 0x3e, 0xe8, 0x5f, 0x47, 0x3e, 0xd4, 0xee, 0xd2, 0x3b, 0x7e, 0x27, 0x41, 0xbc, 0xc7, 0xcb, 0xc1, 0x3d, 0xa8, 0x7a, 0xb8, 0xbc, 0xe6, 0x33, 0x7d, 0x3e, 0x6c, 0xb7, 0xb0, 0x3d, 0x82, 0xca, 0xff, 0x3d, 0x35, 0xde, 0x11, 0x3e, 0x1d, 0xe2, 0x33, 0x3e, 0x54, 0xb4, 0x49, 0x3e, 0x8c, 0x2e, 0x82, 0x3e, 0x6c, 0x99, 0xaa, 0x3d, 0x3d, 0xf2, 0xbc, 0xbd, 0xd5, 0x53, 0xca, 0x3c, 0xa0, 0xb5, 0x15, 0xbe, 0x8b, 0x84, 0xe1, 0xbd, 0x07, 0x57, 0xad, 0xbd, 0x99, 0x8b, 0x0c, 0x3b, 0x93, 0x36, 0x19, 0xbe, 0xa7, 0xf4, 0xef, 0x3d, 0x49, 0xbd, 0x83, 0xbd, 0x83, 0xec, 0x99, 0xbe, 0x11, 0x34, 0x93, 0xbe, 0x5b, 0x84, 0xa3, 0x3d, 0xcc, 0x47, 0x20, 0x3e, 0x00, 0xb2, 0x9b, 0xbe, 0x7a, 0x78, 0x2a, 0xbc, 0x15, 0x2b, 0xed, 0xbe, 0x24, 0xa2, 0xe2, 0x3d, 0xca, 0x16, 0x0e, 0xbe, 0xe0, 0x6a, 0x90, 0xbe, 0xd2, 0xab, 0xf4, 0xbd, 0x3c, 0xf5, 0x97, 0x3e, 0x82, 0xb9, 0x88, 0xbd, 0x9e, 0x50, 0x69, 0x3c, 0xfa, 0x5d, 0xac, 0xbe, 0x53, 0xf4, 0x1e, 0xbe, 0x7c, 0x2b, 0xba, 0x3c, 0x89, 0x19, 0x79, 0x3e, 0x03, 0x2b, 0x57, 0xbe, 0x65, 0xd9, 0x2c, 0x3e, 0xb5, 0x13, 0x89, 0xbd, 0x69, 0x70, 0xf5, 0xbd, 0xdd, 0x91, 0x9d, 0xbe, 0x90, 0x18, 0xc4, 0x3d, 0xda, 0xcf, 0x6e, 0xbe, 0x96, 0xc8, 0xa6, 0xbe, 0x6f, 0x05, 0x4f, 0xbd, 0x11, 0x66, 0x1d, 0x3e, 0xaa, 0xaa, 0x6a, 0x3e, 0x60, 0x98, 0xb8, 0xbc, 0xb6, 0x08, 0x83, 0xbc, 0xb0, 0x49, 0x66, 0x3e, 0x2c, 0x80, 0xbc, 0x3d, 0x7c, 0xe0, 0x7c, 0xbd, 0xc9, 0x7c, 0x9c, 0x3e, 0x85, 0x9a, 0xb7, 0x3c, 0x1d, 0xc5, 0x64, 0x3c, 0x79, 0x23, 0x19, 0xbe, 0x7c, 0xff, 0x24, 0x3d, 0xbb, 0x3a, 0xe5, 0x3d, 0x54, 0xbb, 0x22, 0x3d, 0x5b, 0xf7, 0x18, 0xbd, 0xb7, 0x45, 0x10, 0xbe, 0xa7, 0xeb, 0xf5, 0xbd, 0x03, 0x87, 0x94, 0xbe, 0x65, 0x77, 0x3c, 0x3e, 0x07, 0x1c, 0x98, 0xbd, 0xf7, 0x46, 0x02, 0x3e, 0x5b, 0x82, 0x99, 0xbd, 0xca, 0xc3, 0x82, 0x3e, 0x1f, 0x74, 0x6a, 0xbd, 0x3e, 0xdd, 0x89, 0x3e, 0x85, 0xd9, 0xc4, 0xbd, 0x75, 0x0e, 0x6e, 0xbe, 0xe9, 0xb1, 0x18, 0x3d, 0x64, 0x7c, 0x87, 0x3e, 0xdf, 0x45, 0x31, 0xbe, 0xf6, 0x4d, 0x08, 0xbe, 0x2e, 0x80, 0xfe, 0x3c, 0x46, 0xc3, 0xc2, 0xba, 0x25, 0x77, 0x5c, 0xbd, 0xb4, 0xb1, 0xd1, 0xbd, 0x2b, 0x7c, 0x09, 0xbe, 0xa5, 0x1a, 0xf7, 0xbd, 0x3c, 0xac, 0x86, 0xbd, 0x54, 0xc3, 0x84, 0x3d, 0x6e, 0x90, 0xc6, 0x3d, 0xef, 0x02, 0x22, 0x3e, 0xe5, 0x4d, 0x8e, 0x3e, 0x05, 0xe0, 0x49, 0xbe, 0x1c, 0x25, 0xb7, 0xbd, 0x8f, 0xb4, 0x0a, 0x3e, 0xe8, 0xf8, 0x01, 0x3e, 0xfa, 0xb4, 0x69, 0xbd, 0x03, 0x38, 0x1c, 0xbe, 0xc0, 0x59, 0x9f, 0x3d, 0xe8, 0x54, 0x76, 0x3d, 0x73, 0x23, 0xbe, 0x3b, 0x2c, 0x53, 0xe9, 0x3c, 0xd2, 0x1a, 0x7b, 0x3e, 0x0b, 0x41, 0x55, 0x3e, 0xe4, 0x1a, 0x35, 0x3e, 0x2e, 0xed, 0xc3, 0x3d, 0xe0, 0x2f, 0x39, 0xbe, 0x31, 0x7e, 0x61, 0x3d, 0x8c, 0x20, 0xa6, 0x3d, 0xa6, 0x2f, 0x30, 0x3e, 0x7e, 0x30, 0x37, 0xbe, 0xb6, 0x53, 0x77, 0x3e, 0x48, 0x13, 0x9f, 0x3e, 0x60, 0x3c, 0x69, 0xbe, 0xdf, 0xe7, 0xcb, 0xbd, 0xd2, 0xfc, 0x1f, 0xbe, 0x92, 0xf9, 0xdf, 0x3d, 0x90, 0xd8, 0x14, 0x3d, 0x77, 0x30, 0x82, 0x3e, 0x8c, 0xb7, 0xaa, 0x3d, 0xf3, 0x18, 0x42, 0xbc, 0xac, 0x9c, 0x6f, 0x3e, 0xe1, 0xcc, 0x99, 0xbc, 0x89, 0x7a, 0x41, 0xbe, 0xb6, 0xba, 0x37, 0x3f, 0xc5, 0x52, 0x76, 0x3e, 0x2c, 0x39, 0x2e, 0xbe, 0x23, 0xf2, 0xe3, 0xbd, 0x4d, 0xa1, 0x60, 0xbe, 0x2d, 0x5f, 0xda, 0x3e, 0x0e, 0x9e, 0xb4, 0x3d, 0xda, 0x98, 0x8f, 0x3e, 0x88, 0x49, 0xac, 0xbe, 0x1f, 0x71, 0x41, 0x3e, 0xea, 0x8c, 0xaa, 0xbe, 0xd1, 0x04, 0x13, 0xbe, 0xc2, 0x8b, 0x57, 0x3e, 0x67, 0x15, 0x85, 0x3e, 0x38, 0x85, 0x0a, 0xbe, 0x1b, 0xbc, 0x35, 0x3e, 0xa5, 0xd2, 0xaf, 0x3e, 0x69, 0x8e, 0xc8, 0xbe, 0x16, 0x41, 0x9d, 0x3e, 0xfb, 0xba, 0xb8, 0xbe, 0xd9, 0x29, 0xd9, 0xbd, 0xf0, 0x19, 0x41, 0x3d, 0x68, 0x62, 0x59, 0x3d, 0x10, 0x07, 0x7d, 0x3d, 0xc8, 0xc5, 0x50, 0x3e, 0xef, 0xbb, 0x1a, 0xbe, 0x66, 0x15, 0x50, 0xbe, 0xec, 0xab, 0x7e, 0xbd, 0x1e, 0xe0, 0x31, 0xbe, 0x0f, 0xf9, 0xbe, 0xbd, 0xa9, 0x96, 0x39, 0xbe, 0xbe, 0x6a, 0x3a, 0x3e, 0xc4, 0xb3, 0x3f, 0xbd, 0xd6, 0x21, 0x0d, 0xbe, 0x4c, 0x6b, 0x15, 0x3d, 0x90, 0x96, 0xe7, 0xbd, 0x64, 0xdb, 0x1b, 0xbd, 0x58, 0x05, 0x3c, 0x3e, 0x10, 0x4f, 0xc9, 0x3d, 0x50, 0xe9, 0x2f, 0xbc, 0x88, 0xa9, 0xb8, 0xbc, 0xea, 0x50, 0x45, 0x3e, 0xb6, 0xab, 0x05, 0x3e, 0xb4, 0x57, 0x8d, 0xbd, 0xf0, 0x12, 0xa3, 0xbc, 0x30, 0x10, 0x52, 0x3e, 0x28, 0x51, 0x90, 0xbd, 0x80, 0x4d, 0xa7, 0x3a, 0xe2, 0x9c, 0x14, 0xbe, 0xb8, 0xed, 0xf8, 0x3d, 0x14, 0xab, 0x4b, 0x3e, 0x7f, 0xf1, 0xe9, 0xbd, 0x36, 0x5a, 0x69, 0x3d, 0xdf, 0x5f, 0x61, 0xbe, 0x9c, 0x43, 0x84, 0xbe, 0xfc, 0x78, 0x4c, 0x3c, 0x80, 0xf3, 0x24, 0xbd, 0x82, 0x1e, 0x01, 0xbe, 0xc7, 0xeb, 0x1e, 0xbd, 0x46, 0xc6, 0xe1, 0x3d, 0xf7, 0xc7, 0x6e, 0x3e, 0x59, 0x0d, 0xb0, 0xbd, 0x3b, 0x8b, 0xd3, 0xbd, 0xb8, 0x27, 0x5c, 0xbe, 0xe9, 0x36, 0xa3, 0x3e, 0x2c, 0x43, 0xae, 0x3e, 0x6a, 0xa8, 0x2c, 0xbe, 0x2b, 0x44, 0xa6, 0x3d, 0xa4, 0xb1, 0xee, 0xbd, 0xfb, 0xe7, 0xbc, 0x3e, 0x73, 0x98, 0x41, 0x3e, 0x2c, 0x64, 0x16, 0x3e, 0xbb, 0x5c, 0x96, 0xbe, 0x29, 0x8c, 0x80, 0x3e, 0x42, 0x1b, 0xc3, 0xbd, 0x72, 0xae, 0xa8, 0xbd, 0x0f, 0x17, 0x30, 0xbe, 0x53, 0x52, 0x35, 0x3e, 0x56, 0xa9, 0x1d, 0xbe, 0x8e, 0x19, 0x41, 0x3d, 0x86, 0xe2, 0xcf, 0x3d, 0xfd, 0xa5, 0xe5, 0x3c, 0x31, 0x77, 0x05, 0x3e, 0xae, 0xa4, 0x7b, 0xbe, 0x99, 0x1a, 0xba, 0x3d, 0x78, 0xd5, 0xd0, 0xbd, 0x41, 0x88, 0x9d, 0x3d, 0xe6, 0xa6, 0x93, 0xbd, 0xa6, 0x54, 0x04, 0xbf, 0x18, 0x25, 0x48, 0xbe, 0x56, 0x62, 0x06, 0x3e, 0x56, 0x82, 0xc8, 0xbd, 0x88, 0x87, 0x38, 0xbb, 0xfb, 0x39, 0x55, 0xbd, 0xb4, 0xb6, 0x06, 0x3e, 0xdf, 0x6b, 0xae, 0xbe, 0xba, 0x39, 0x06, 0x3e, 0xc6, 0x5b, 0x81, 0xbd, 0xbe, 0x3f, 0x26, 0x3d, 0xec, 0xde, 0x38, 0x3e, 0x25, 0xda, 0x3d, 0xbe, 0x52, 0xd5, 0x5b, 0x3c, 0x97, 0x70, 0xda, 0x3d, 0xba, 0xe4, 0xa3, 0x3d, 0x7f, 0xc0, 0x18, 0xbe, 0xb4, 0xf4, 0x10, 0xbe, 0x4f, 0x6a, 0x4b, 0xbe, 0x05, 0x72, 0x1e, 0x3e, 0x97, 0x27, 0x1b, 0x3e, 0xa4, 0x22, 0x07, 0x3e, 0xe5, 0x8e, 0x31, 0xbe, 0x6b, 0x2d, 0x00, 0xbe, 0x28, 0xb2, 0x59, 0xbe, 0x35, 0x19, 0x43, 0xbe, 0xda, 0xe8, 0x1f, 0x3e, 0xf1, 0x44, 0x6c, 0xbe, 0xf0, 0x69, 0x1d, 0x3e, 0xbc, 0xf0, 0x47, 0xbe, 0x22, 0xd7, 0xe2, 0xbd, 0x2a, 0xd2, 0x89, 0xbd, 0x68, 0xdc, 0xa3, 0x3d, 0xb9, 0x17, 0xb5, 0xbd, 0x48, 0xa0, 0x9e, 0x3d, 0xd0, 0x0a, 0xc6, 0xbd, 0xfb, 0xdb, 0xbb, 0xbd, 0x44, 0xa5, 0x18, 0xbe, 0x48, 0xea, 0x93, 0x3d, 0x30, 0xd2, 0x91, 0x3d, 0x0a, 0xb5, 0xb1, 0xbd, 0xfc, 0x07, 0xa1, 0xbd, 0x54, 0x65, 0x19, 0xbd, 0x6c, 0xca, 0x21, 0x3e, 0x00, 0x7a, 0x80, 0xbb, 0x40, 0x76, 0x00, 0x3e, 0xe0, 0xb1, 0xa0, 0xbb, 0x1d, 0x44, 0x39, 0xbe, 0x9c, 0x55, 0x4f, 0x3e, 0xbe, 0x0b, 0x55, 0xbe, 0xb2, 0x01, 0x34, 0xbe, 0xc0, 0x36, 0x1d, 0x3d, 0x54, 0xfb, 0x45, 0xbe, 0x24, 0xd2, 0x4b, 0x3e, 0xe5, 0xc3, 0x57, 0xbe, 0xd8, 0x30, 0x7e, 0x3d, 0x5c, 0xc7, 0x2b, 0xbd, 0x70, 0xbe, 0x79, 0xbc, 0xec, 0x19, 0x89, 0x3d, 0xa0, 0x0d, 0xfe, 0x3c, 0x24, 0x66, 0x4a, 0x3e, 0xf0, 0x72, 0xe5, 0x3d, 0x00, 0x7f, 0xe3, 0x3c, 0x07, 0x83, 0x08, 0xbe, 0xd5, 0xa1, 0xaa, 0x3e, 0x88, 0xd5, 0x37, 0xbd, 0x18, 0x89, 0x68, 0x3d, 0xc8, 0x1c, 0xb0, 0x3d, 0x8e, 0x1a, 0x45, 0x3e, 0x94, 0x39, 0x8c, 0xbe, 0x9c, 0x2b, 0xa3, 0xbd, 0x48, 0x6b, 0x30, 0x3e, 0xd5, 0xfc, 0xe5, 0x3d, 0x7e, 0x6d, 0x3a, 0x3e, 0xac, 0xf7, 0xf5, 0x3d, 0xe0, 0x1f, 0x4d, 0x3e, 0x8d, 0xe2, 0xe5, 0x3d, 0x1c, 0xeb, 0xb0, 0x3e, 0xfd, 0x68, 0xa8, 0x3d, 0x64, 0x07, 0x4d, 0x3c, 0x98, 0xec, 0x2c, 0x3e, 0x7b, 0x01, 0x44, 0x3e, 0xed, 0x3a, 0x76, 0x3e, 0xbb, 0x0a, 0xa9, 0xbc, 0x7a, 0x4f, 0x7e, 0x3d, 0xda, 0x34, 0x98, 0x3e, 0x5c, 0xdd, 0x72, 0xbd, 0xba, 0x11, 0xd0, 0x3e, 0x12, 0x93, 0x36, 0x3e, 0x59, 0x97, 0x10, 0x3e, 0xe6, 0xf7, 0x7f, 0xbe, 0xaa, 0xa4, 0x61, 0x3d, 0x3e, 0xf4, 0x1f, 0x3e, 0xb6, 0x5a, 0x19, 0x3d, 0x5b, 0xc0, 0x84, 0xbd, 0x3e, 0x5a, 0xe8, 0xbc, 0xad, 0xc5, 0xe2, 0x3e, 0xa9, 0x93, 0xc8, 0xbd, 0xf9, 0x12, 0xba, 0xbe, 0xf7, 0x9b, 0x5f, 0x3e, 0xa0, 0x88, 0x78, 0x3e, 0x83, 0xb0, 0xfa, 0xbe, 0x6a, 0x3b, 0xea, 0xbc, 0x71, 0x9e, 0x10, 0xbd, 0x11, 0x17, 0x3a, 0x3e, 0x9e, 0x57, 0x56, 0x3e, 0x33, 0xc5, 0xfd, 0xbc, 0x34, 0x8d, 0x1e, 0xbe, 0x98, 0xec, 0x03, 0x3e, 0x90, 0x12, 0x51, 0x3e, 0xf0, 0x99, 0xf4, 0xbd, 0x74, 0xe0, 0x0c, 0x3e, 0x81, 0x6b, 0x72, 0xbe, 0x8f, 0xdd, 0xa6, 0x3e, 0x50, 0x6c, 0x44, 0x3d, 0x8a, 0x48, 0x99, 0xbe, 0x31, 0xb6, 0x38, 0x3c, 0xc1, 0x46, 0x90, 0x3d, 0xfb, 0x84, 0xc8, 0xbc, 0x0d, 0x7a, 0xe6, 0x3e, 0xf3, 0x90, 0xb4, 0x3e, 0xca, 0x34, 0x26, 0x3e, 0xa5, 0xb4, 0xd2, 0xbe, 0xc9, 0xb1, 0x74, 0xbe, 0x30, 0x95, 0xa4, 0xbd, 0x64, 0xbb, 0xdd, 0x3d, 0xd8, 0xbd, 0xe8, 0xbd, 0x34, 0x9a, 0x5b, 0xbd, 0x4a, 0x94, 0x75, 0xbd, 0x00, 0xa3, 0x27, 0x3d, 0xb9, 0xbc, 0x71, 0x3d, 0x0a, 0x3c, 0xbb, 0x3d, 0xbb, 0x8a, 0x4d, 0xbe, 0x5d, 0x37, 0x00, 0xbe, 0x2f, 0x97, 0x2c, 0xbe, 0x6f, 0x3c, 0x25, 0xbe, 0x2a, 0xda, 0x11, 0x3e, 0x32, 0xbb, 0x95, 0xbc, 0x50, 0xd7, 0x4b, 0xbe, 0x9a, 0xdb, 0x58, 0xbe, 0xd8, 0x36, 0xfb, 0x3d, 0x2b, 0xe0, 0x6c, 0xbe, 0xe7, 0x1d, 0xe9, 0x3d, 0xe2, 0x4f, 0x3f, 0x3e, 0xe0, 0x82, 0xf4, 0xbc, 0x27, 0xc0, 0xd0, 0xbd, 0x73, 0x83, 0x3c, 0xbe, 0x9c, 0x74, 0x0d, 0xbe, 0x69, 0x68, 0x24, 0xbd, 0x27, 0xb8, 0x25, 0x3e, 0x6f, 0x6e, 0xc8, 0xbc, 0xbc, 0x23, 0x29, 0x3e, 0xff, 0x37, 0x35, 0xbd, 0x66, 0x1a, 0x0c, 0xbe, 0x88, 0x54, 0x1b, 0xbe, 0xef, 0xfe, 0x1a, 0xbe, 0x3a, 0x1a, 0xdb, 0xbc, 0x3a, 0xe8, 0x03, 0x3e, 0xea, 0x01, 0xe3, 0xbc, 0x15, 0x42, 0x20, 0xbe, 0xb3, 0xd7, 0x17, 0x3e, 0xfe, 0xa2, 0x5a, 0xbe, 0xbe, 0x36, 0x1f, 0xbe, 0xca, 0xc5, 0x4d, 0x3b, 0xad, 0x2a, 0x33, 0xbe, 0xc6, 0xaf, 0x9c, 0x3d, 0x81, 0x95, 0xc1, 0x3d, 0x6e, 0xd8, 0x59, 0xbe, 0x7e, 0x0e, 0xb4, 0xbd, 0xdd, 0x20, 0x16, 0x3e, 0xd9, 0x23, 0x2b, 0x3e, 0x68, 0x56, 0xb0, 0x3d, 0xa3, 0xed, 0xf4, 0x3c, 0xe4, 0xf9, 0x8d, 0xbd, 0x0f, 0x1d, 0x2e, 0x3e, 0xfa, 0xba, 0x83, 0x3c, 0xb1, 0x1c, 0x3b, 0xbe, 0xba, 0xce, 0x9c, 0xbd, 0x14, 0xb4, 0xd9, 0xbd, 0x9b, 0x48, 0x17, 0x3c, 0x36, 0xfd, 0xed, 0x3d, 0x03, 0x36, 0xcc, 0x3d, 0x42, 0xfa, 0x7a, 0x3d, 0x3a, 0x07, 0xf8, 0x3d, 0x04, 0x36, 0x61, 0x39, 0xc9, 0xa1, 0xe9, 0xbd, 0x81, 0x0e, 0x50, 0xbe, 0x91, 0x2f, 0x20, 0x3c, 0xd8, 0x11, 0x44, 0x3d, 0xc8, 0xb6, 0x0f, 0xbe, 0x94, 0x43, 0x04, 0xbd, 0xe8, 0xee, 0xdf, 0x3c, 0x40, 0x35, 0x2e, 0xbb, 0x9e, 0xd3, 0x01, 0x3e, 0x3e, 0x29, 0x2e, 0xbe, 0x36, 0xbf, 0x84, 0xbd, 0xd0, 0xbb, 0x27, 0xbe, 0x00, 0xc0, 0xb5, 0x38, 0x14, 0x1e, 0xa4, 0x3d, 0x70, 0x0a, 0x90, 0x3c, 0xfa, 0x3a, 0x1d, 0x3e, 0xae, 0x1f, 0x15, 0xbe, 0x55, 0xa7, 0xf0, 0xbd, 0x5a, 0xfc, 0x32, 0xbe, 0x72, 0x3d, 0xe8, 0xbd, 0xbc, 0x63, 0xdd, 0xbd, 0x20, 0x17, 0x35, 0x3e, 0x1c, 0x09, 0x28, 0x3e, 0x0c, 0xa5, 0x21, 0xbe, 0xe4, 0x02, 0xc4, 0x3d, 0xd4, 0xa3, 0x9b, 0x3d, 0x73, 0xc3, 0xcd, 0xbd, 0xef, 0x53, 0xc0, 0xbd, 0x12, 0xfb, 0x1c, 0xbe, 0xb9, 0xe8, 0x41, 0xbe, 0x60, 0x8c, 0x3c, 0xbe, 0x40, 0x24, 0xe1, 0xbc, 0x6e, 0x27, 0x2f, 0xbe, 0x50, 0x73, 0x33, 0xbd, 0xd8, 0x27, 0x76, 0x3d, 0xe0, 0x74, 0xd1, 0x3b, 0x9c, 0x2a, 0xce, 0xbd, 0x40, 0xf6, 0x1e, 0x3d, 0xc0, 0x5f, 0x59, 0xbc, 0xc6, 0x69, 0x29, 0x3e, 0x22, 0x96, 0x56, 0x3e, 0x47, 0xdb, 0x50, 0xbe, 0x98, 0xc5, 0x62, 0xbd, 0x40, 0x70, 0x40, 0xbe, 0xc3, 0x6b, 0x52, 0xbe, 0xe8, 0x11, 0xf4, 0x3d, 0x00, 0x7f, 0x91, 0x3b, 0x00, 0x22, 0xa1, 0xba, 0xb2, 0x98, 0x58, 0xbe, 0x98, 0x37, 0xad, 0x3d, 0x2a, 0x9b, 0x9a, 0xbd, 0x69, 0x76, 0x10, 0xbe, 0x7e, 0x6d, 0x50, 0xbe, 0xad, 0x1c, 0x0c, 0xbe, 0xb4, 0x26, 0x16, 0x3d, 0x10, 0x7e, 0xa3, 0xbc, 0xce, 0x67, 0xf9, 0xbd, 0xfc, 0x8b, 0x35, 0xbe, 0xf8, 0x28, 0x31, 0x3d, 0xfa, 0x67, 0x11, 0xbe, 0x82, 0x09, 0x80, 0xbd, 0x2e, 0xa8, 0x31, 0x3e, 0x12, 0xb0, 0x36, 0x3e, 0xdc, 0x18, 0xf8, 0x3d, 0xc0, 0xcd, 0x36, 0xbc, 0x00, 0x8f, 0x34, 0x3c, 0x88, 0x79, 0xe5, 0xbc, 0xeb, 0xd2, 0x07, 0x3e, 0x0c, 0x66, 0xac, 0x3c, 0x7f, 0x7b, 0x34, 0x3e, 0xdf, 0x67, 0x4e, 0xbe, 0xd3, 0x1e, 0x24, 0x3e, 0x2e, 0xf4, 0x83, 0xbd, 0x46, 0x56, 0x10, 0xbc, 0x4a, 0x9d, 0x2f, 0x3d, 0xe4, 0xe1, 0x70, 0xbd, 0x76, 0x78, 0xa6, 0x3d, 0x94, 0x9a, 0xd9, 0xbd, 0x3d, 0x85, 0xe7, 0x3d, 0x6c, 0x03, 0x4a, 0xbe, 0xa2, 0x90, 0xa3, 0xbd, 0x20, 0x47, 0x26, 0xbe, 0x18, 0x64, 0xf7, 0x3c, 0xaf, 0x46, 0x54, 0x3d, 0xa3, 0xc3, 0x66, 0xbe, 0x25, 0x09, 0x07, 0xbe, 0x98, 0xaf, 0x37, 0xbe, 0x73, 0x22, 0xa2, 0x3d, 0x29, 0xc0, 0x69, 0x3d, 0x56, 0x63, 0x48, 0xbe, 0x81, 0x02, 0x1b, 0xbe, 0x6a, 0xb5, 0x01, 0xbb, 0x00, 0x1b, 0xa3, 0x3d, 0x14, 0xf2, 0x60, 0x3d, 0xbe, 0xd0, 0x1c, 0xbc, 0xd6, 0xe5, 0x9a, 0x3d, 0x0b, 0x1a, 0xbf, 0xbd, 0xd5, 0x7d, 0x0c, 0x3e, 0x26, 0xe3, 0xe2, 0x3d, 0x8d, 0xe0, 0x03, 0x3e, 0x86, 0x27, 0x1e, 0x3e, 0x68, 0xb1, 0x5a, 0x3e, 0xba, 0x9f, 0xed, 0x3c, 0x69, 0xfa, 0x8a, 0x3d, 0x3d, 0xae, 0xe2, 0xbd, 0xf1, 0x23, 0xc5, 0xbb, 0xa1, 0x72, 0x97, 0xbd, 0xca, 0x07, 0xa6, 0x3d, 0x72, 0x38, 0x0b, 0xbd, 0x6d, 0x91, 0xfc, 0x3d, 0x64, 0xc5, 0x0a, 0x3e, 0x59, 0x89, 0x33, 0xbf, 0x12, 0xd5, 0x8f, 0x3d, 0x57, 0x36, 0x78, 0x3e, 0x03, 0xe3, 0x28, 0x3e, 0xbc, 0xa3, 0x04, 0xbe, 0xa4, 0x68, 0xa1, 0xbe, 0xe2, 0x51, 0x2b, 0x3e, 0x35, 0x8f, 0xc3, 0xbe, 0x8a, 0xcd, 0x91, 0x3d, 0x8d, 0x59, 0xdc, 0x3d, 0x79, 0x50, 0x5d, 0x3e, 0x59, 0x7d, 0x86, 0x3e, 0x94, 0x14, 0x49, 0x3e, 0xce, 0xf3, 0x37, 0xbe, 0x32, 0x5a, 0x7a, 0x3d, 0x2a, 0xed, 0x14, 0x3e, 0x45, 0xbb, 0x67, 0xbd, 0xb9, 0x36, 0x07, 0xbd, 0x3e, 0x11, 0xa2, 0x3c, 0xcf, 0x03, 0xe2, 0x3d, 0x18, 0x62, 0xfa, 0x3d, 0x5c, 0xb0, 0x9c, 0xbd, 0xb1, 0x00, 0x79, 0x3d, 0x6b, 0x1a, 0x0c, 0x3e, 0x84, 0x33, 0x03, 0x3e, 0x9b, 0x16, 0x51, 0x3c, 0x04, 0x0c, 0x91, 0xbd, 0x84, 0xbf, 0x10, 0x3e, 0x37, 0x31, 0x4e, 0xbd, 0xe6, 0x3b, 0x9e, 0x3d, 0x19, 0x5f, 0x3b, 0x3d, 0x5a, 0x54, 0x35, 0x3b, 0x89, 0xae, 0xf0, 0x3d, 0x1c, 0x7f, 0x31, 0x3e, 0x18, 0x8b, 0x31, 0xbe, 0x20, 0xce, 0xb6, 0xbd, 0xfa, 0x72, 0x20, 0x3d, 0x69, 0x04, 0x78, 0x3e, 0x35, 0xe8, 0x1f, 0x3e, 0x53, 0xcd, 0xa9, 0x3e, 0x50, 0xca, 0x0b, 0xbe, 0x0f, 0x84, 0xa3, 0x3e, 0xad, 0x33, 0x54, 0xbd, 0x5c, 0x9e, 0xa1, 0x3b, 0xf5, 0x42, 0xc7, 0x3d, 0xe6, 0xbb, 0x5b, 0x3c, 0xb2, 0x49, 0x23, 0xbe, 0x27, 0x72, 0x3c, 0x3e, 0x41, 0x36, 0x42, 0x3e, 0x3c, 0x27, 0x18, 0xbd, 0x3f, 0xe6, 0x0a, 0x3e, 0xf2, 0x10, 0x7a, 0x3e, 0xa3, 0x09, 0x68, 0x3e, 0xd4, 0xab, 0xb9, 0xbd, 0x8f, 0xdc, 0xb1, 0x3d, 0x38, 0xe6, 0x27, 0xbd, 0x6c, 0x3e, 0x26, 0x3e, 0x7d, 0xae, 0x16, 0x3e, 0x5f, 0x27, 0xa1, 0xbd, 0xfb, 0x0e, 0xb8, 0x3d, 0x2a, 0xe9, 0xe0, 0x3c, 0x9d, 0xda, 0x17, 0xbd, 0xea, 0x0e, 0x40, 0x3c, 0x63, 0x75, 0x27, 0xbe, 0x89, 0x47, 0x5a, 0x3e, 0x3d, 0x46, 0xdf, 0x3d, 0x4a, 0xe9, 0xa6, 0x3d, 0x59, 0x86, 0x06, 0xbe, 0xf3, 0xba, 0x5d, 0xbb, 0xaa, 0x1b, 0x30, 0x3e, 0x80, 0x1c, 0xc1, 0xbd, 0x94, 0x5e, 0xdd, 0x3e, 0x54, 0x90, 0x01, 0x3e, 0x10, 0xe7, 0x86, 0x3e, 0x34, 0x00, 0xa8, 0x3d, 0xcc, 0xe6, 0x94, 0x3d, 0xef, 0x7e, 0x97, 0x3d, 0xf0, 0xb1, 0x32, 0x3e, 0xc6, 0x3d, 0x0e, 0x3c, 0x57, 0xc7, 0xe2, 0xba, 0x41, 0x38, 0x0d, 0x3e, 0x6f, 0xab, 0x3f, 0xbe, 0x01, 0xa2, 0xdd, 0x3d, 0xf6, 0x2d, 0x0c, 0x3e, 0xf5, 0xd7, 0x43, 0x3d, 0xba, 0x08, 0x5f, 0xbe, 0x34, 0x9f, 0x64, 0xbe, 0xd1, 0xc1, 0xdd, 0x3c, 0x4a, 0x27, 0x3e, 0xbf, 0xba, 0x10, 0x02, 0x3e, 0xe5, 0x7c, 0x4b, 0x3e, 0xf3, 0xe1, 0x80, 0xbe, 0x8e, 0x1b, 0x60, 0xbe, 0xe0, 0x2d, 0x9a, 0x3e, 0xc9, 0xa4, 0x0f, 0xbe, 0x79, 0x81, 0x25, 0xbe, 0x6a, 0xb1, 0xcd, 0x3e, 0x9d, 0x5e, 0x3e, 0xbe, 0x23, 0xc8, 0x84, 0xbd, 0xc6, 0x88, 0xb3, 0xbd, 0x33, 0x13, 0xe3, 0xbe, 0x66, 0x1b, 0x1c, 0x3e, 0xad, 0x79, 0xb5, 0xbd, 0x93, 0x43, 0xbe, 0x3e, 0x80, 0xc6, 0xa1, 0xbe, 0xb4, 0x5d, 0xd6, 0xbd, 0x2b, 0xe4, 0x3e, 0xbe, 0x3a, 0xb5, 0x27, 0x3e, 0x46, 0xdc, 0x0e, 0xbe, 0x92, 0x13, 0x29, 0xbe, 0xca, 0x0b, 0xcd, 0x3c, 0xe7, 0xfe, 0x86, 0xbe, 0x33, 0xce, 0xc1, 0xbc, 0x18, 0xaa, 0xef, 0xbe, 0x17, 0x49, 0x7b, 0x3e, 0x8e, 0x44, 0x68, 0xbe, 0x43, 0xdc, 0x51, 0xbb, 0x12, 0x11, 0x93, 0xbd, 0x97, 0xbf, 0x08, 0x3e, 0xb4, 0xd8, 0xc6, 0xbd, 0xdc, 0x36, 0x92, 0xbd, 0xe1, 0xae, 0xf5, 0x3c, 0x08, 0x69, 0x27, 0x3e, 0x36, 0x80, 0x60, 0xbd, 0xa6, 0x6d, 0xde, 0xbd, 0x7d, 0x2b, 0x3b, 0x3e, 0x21, 0x7b, 0x60, 0xbd, 0x1d, 0x0c, 0x5e, 0xbe, 0x80, 0x00, 0x2e, 0x3e, 0x87, 0x49, 0x0f, 0xbe, 0x41, 0xc8, 0x03, 0x3e, 0x66, 0x1e, 0x07, 0x3e, 0x8b, 0x8b, 0xcf, 0xbc, 0x3e, 0x55, 0x83, 0xbe, 0xb9, 0x69, 0x98, 0x3d, 0x52, 0x6e, 0x0d, 0x3e, 0x4f, 0x38, 0x2e, 0x3e, 0x33, 0xbb, 0x3a, 0xbc, 0x34, 0xb3, 0x52, 0xbe, 0x77, 0x95, 0x2d, 0x3d, 0xf2, 0x4d, 0x31, 0xbd, 0x54, 0x9d, 0x1f, 0xbe, 0x9f, 0xd7, 0x2a, 0x3e, 0xee, 0x12, 0xe1, 0x3c, 0x73, 0x93, 0xc9, 0xbb, 0x74, 0xe5, 0x28, 0x3d, 0xd0, 0x26, 0x6c, 0x3e, 0xfc, 0x70, 0x32, 0xbe, 0xe3, 0xe3, 0x10, 0xbe, 0x92, 0xc4, 0xb0, 0xbe, 0x42, 0x6d, 0x5b, 0x3d, 0xf5, 0x10, 0x85, 0xbe, 0x9e, 0x13, 0x46, 0xbf, 0xb0, 0x0b, 0x44, 0xbe, 0xfe, 0x39, 0x94, 0x3c, 0x4d, 0x53, 0x78, 0xbe, 0x0b, 0x33, 0x71, 0x3d, 0x95, 0x1f, 0x32, 0xbd, 0x9b, 0x18, 0x60, 0x3d, 0x25, 0x60, 0xc3, 0xbe, 0x6e, 0xc8, 0xd3, 0x3e, 0x24, 0x54, 0x79, 0xbe, 0x03, 0x6b, 0x41, 0x3d, 0xf6, 0x96, 0x58, 0x3e, 0x96, 0xe5, 0xcd, 0xbe, 0xd3, 0x9a, 0xa7, 0x3e, 0x58, 0x4b, 0x0c, 0x3e, 0x72, 0x2a, 0x4b, 0x3e, 0x40, 0x3c, 0x0c, 0xbe, 0x0c, 0x24, 0x66, 0xbe, 0x92, 0xed, 0xca, 0xbe, 0xdf, 0xa4, 0x18, 0x3e, 0x47, 0x47, 0x0f, 0xbd, 0x0f, 0x36, 0xbf, 0xbd, 0x8c, 0xf4, 0x0c, 0xbe, 0x07, 0x6b, 0x50, 0xbe, 0x74, 0x4f, 0x04, 0xbd, 0x3a, 0x85, 0xde, 0xbe, 0xff, 0x65, 0x93, 0x3e, 0x22, 0x53, 0x98, 0xbe, 0x80, 0x72, 0x80, 0xbd, 0x2c, 0x6a, 0x7a, 0xbc, 0x78, 0xcc, 0xf9, 0x3d, 0x41, 0xd4, 0x26, 0x3e, 0xa0, 0x51, 0xc8, 0xbb, 0x60, 0x07, 0xad, 0x3a, 0x9f, 0x8c, 0x1c, 0xbe, 0xf0, 0x3f, 0x3c, 0xbd, 0xc4, 0xc3, 0xa6, 0x3d, 0xbe, 0x3e, 0x90, 0xbd, 0x01, 0x67, 0x01, 0x3e, 0xb3, 0x49, 0x61, 0xbc, 0x3c, 0x91, 0x2d, 0x3c, 0x50, 0x4f, 0x9a, 0xbc, 0xe3, 0xef, 0xee, 0x3d, 0x28, 0xc7, 0x28, 0xbd, 0x79, 0x34, 0x91, 0x3e, 0x03, 0xeb, 0xec, 0xbc, 0x22, 0xa2, 0x4f, 0x3e, 0x21, 0x6a, 0x13, 0xbe, 0xf0, 0xd0, 0xd8, 0x3d, 0xc5, 0x61, 0x74, 0xbb, 0x34, 0xe0, 0xb6, 0xbc, 0xe2, 0xcc, 0x14, 0xbe, 0x93, 0x96, 0xa1, 0x3d, 0xa3, 0x92, 0x01, 0xbd, 0x94, 0x61, 0xaf, 0x3d, 0x79, 0x48, 0x14, 0x3d, 0x90, 0xe5, 0x13, 0x3d, 0x11, 0x9a, 0x2b, 0xbd, 0xea, 0x26, 0xac, 0x3d, 0x87, 0x36, 0x24, 0x3e, 0xc0, 0x24, 0x6a, 0x3c, 0xe8, 0xf6, 0xa9, 0x3d, 0xdf, 0xca, 0x3b, 0xbe, 0xea, 0x37, 0x36, 0x3e, 0x88, 0x4e, 0x64, 0xbd, 0x84, 0x82, 0x39, 0xbd, 0xf2, 0xaf, 0x2e, 0xbe, 0xe0, 0xe9, 0x36, 0x3d, 0xcc, 0xfc, 0x03, 0x3e, 0x80, 0xb3, 0x98, 0xbd, 0x18, 0x03, 0xc5, 0x3c, 0x44, 0x20, 0x29, 0xbd, 0xc8, 0xe8, 0x66, 0xbd, 0xc2, 0x2a, 0xbe, 0xbd, 0x9c, 0x13, 0x0b, 0xbd, 0x37, 0x3f, 0x31, 0xbe, 0xf0, 0x0e, 0x98, 0x3d, 0x00, 0xa4, 0x54, 0x3a, 0x8c, 0x82, 0x41, 0xbe, 0xb8, 0x52, 0xce, 0xbd, 0x38, 0x9a, 0x03, 0xbe, 0xa8, 0xb1, 0xc1, 0x3d, 0x24, 0x60, 0xc7, 0x3d, 0xf8, 0x2f, 0x1a, 0xbe, 0x42, 0x8a, 0x1c, 0xbe, 0x28, 0x7c, 0x19, 0x3d, 0xa0, 0xe6, 0x04, 0x3e, 0xea, 0x11, 0x57, 0xbe, 0x6a, 0x86, 0x45, 0xbe, 0x58, 0x00, 0x89, 0xbd, 0x40, 0xc6, 0xbd, 0x3c, 0x3c, 0x4a, 0x9e, 0xbd, 0x9f, 0x3e, 0xb8, 0xbe, 0xd4, 0xdc, 0x00, 0xbd, 0xca, 0xe8, 0x57, 0xbe, 0xad, 0x0d, 0x3c, 0x3e, 0xb0, 0xab, 0x6b, 0xbe, 0xc9, 0xd3, 0x17, 0xbe, 0x68, 0x8b, 0xda, 0x3d, 0x8a, 0x6d, 0xb7, 0xbe, 0x74, 0x05, 0xca, 0xbe, 0xfa, 0x3c, 0xc2, 0x3d, 0x87, 0x64, 0x33, 0x3e, 0xb9, 0x2e, 0x4a, 0xba, 0x92, 0xc8, 0x07, 0x3d, 0x91, 0x41, 0x7d, 0xbe, 0x37, 0xbf, 0x8d, 0x3d, 0x50, 0xff, 0x76, 0x3c, 0xfe, 0xcf, 0xd4, 0x3b, 0x07, 0x06, 0xa6, 0xbd, 0xc0, 0xa1, 0x50, 0xbd, 0xfa, 0x75, 0xb9, 0x3e, 0x47, 0xd5, 0x51, 0xbe, 0x90, 0x16, 0x9e, 0xbe, 0xb5, 0xa9, 0x97, 0xbe, 0x5b, 0xb7, 0xe7, 0x3d, 0xbc, 0x46, 0x85, 0x3e, 0x64, 0xd6, 0x52, 0xbe, 0x02, 0x2c, 0x39, 0x3e, 0x8c, 0xf2, 0x43, 0xbe, 0x59, 0x63, 0xa3, 0xbd, 0xcb, 0x15, 0x07, 0xbd, 0xc6, 0xbb, 0x4c, 0x3e, 0xeb, 0x68, 0x83, 0xbe, 0x4d, 0xd6, 0xd4, 0x3e, 0x04, 0xf3, 0x7b, 0x3e, 0x21, 0xba, 0xc5, 0x3d, 0x73, 0xa9, 0x80, 0x3e, 0x5d, 0xbb, 0x4a, 0x3f, 0xf4, 0xa8, 0x2b, 0xbe, 0x12, 0x04, 0x63, 0xbe, 0x57, 0xd0, 0xec, 0x3e, 0x95, 0x82, 0xdd, 0x3e, 0xa0, 0x90, 0x6c, 0xbe, 0x2a, 0x0a, 0xde, 0xbd, 0x91, 0x2b, 0xe8, 0xbc, 0xf4, 0xec, 0x45, 0xbe, 0x19, 0x7b, 0x68, 0x3e, 0xfe, 0x0b, 0x6a, 0x3e, 0x02, 0x4b, 0x69, 0x3e, 0x2c, 0x89, 0x9b, 0x3d, 0x40, 0x39, 0x32, 0xbe, 0xca, 0x15, 0x8a, 0x3d, 0x2c, 0xa5, 0xb8, 0xbc, 0x7b, 0x0e, 0xa9, 0xbc, 0x6e, 0xd9, 0xfd, 0x3e, 0xa0, 0x9a, 0x4a, 0x3e, 0xc0, 0x97, 0x9b, 0x3d, 0xf0, 0xdb, 0x03, 0x3e, 0x61, 0x83, 0xc3, 0x3e, 0x79, 0x11, 0xb1, 0x3c, 0x16, 0x04, 0xac, 0x3e, 0x32, 0x50, 0x22, 0x3e, 0x44, 0x11, 0xbf, 0x3e, 0xcc, 0x21, 0xd4, 0xbe, 0x44, 0x28, 0xa9, 0x3e, 0x18, 0xe2, 0x0f, 0x3e, 0x23, 0x70, 0x6c, 0xbe, 0xe9, 0x28, 0xd1, 0xbd, 0x17, 0x82, 0x2e, 0xbd, 0xe8, 0x42, 0x8f, 0x3e, 0xa4, 0x74, 0xd9, 0x3d, 0xa2, 0x8e, 0x9a, 0xbd, 0xa1, 0x81, 0x56, 0x3e, 0x43, 0x25, 0x86, 0x3e, 0x2a, 0x27, 0xe2, 0xbc, 0xf6, 0x6b, 0x2d, 0xbe, 0x9a, 0xb3, 0x70, 0xbe, 0xe1, 0xdd, 0x69, 0x3d, 0x88, 0x73, 0x0e, 0x3e, 0x66, 0xd6, 0x8e, 0xbd, 0xc1, 0x3d, 0x45, 0x3e, 0x61, 0xaa, 0x81, 0xbd, 0x30, 0x5d, 0x6e, 0x3b, 0x1e, 0x6f, 0xfd, 0xbd, 0xe4, 0x02, 0xc4, 0x3e, 0xcb, 0x83, 0xc1, 0x3d, 0x49, 0x82, 0x50, 0x3e, 0xc4, 0xe8, 0x13, 0xbe, 0x45, 0x68, 0x1b, 0xbe, 0x09, 0xb2, 0x3c, 0x3c, 0x11, 0x24, 0xe9, 0x3d, 0xd5, 0x1b, 0xc0, 0x3d, 0x04, 0x64, 0x43, 0x3e, 0xc7, 0x67, 0xbf, 0x3e, 0xa2, 0xac, 0xd4, 0xbd, 0x76, 0x30, 0x1b, 0xbd, 0x85, 0x27, 0x75, 0xbd, 0xbc, 0x2e, 0xa9, 0xbe, 0xbe, 0xc5, 0x35, 0x3e, 0x32, 0xd6, 0x11, 0x3e, 0xea, 0x43, 0x4d, 0x3d, 0x59, 0x86, 0x37, 0xbe, 0xd3, 0x88, 0x47, 0xbe, 0x50, 0x04, 0x20, 0x3e, 0x7f, 0xa6, 0xf7, 0xbc, 0xcd, 0x90, 0x11, 0xbe, 0x0f, 0x48, 0xa5, 0x3e, 0xe7, 0xd0, 0xc3, 0x3e, 0x00, 0xf0, 0xe7, 0xbd, 0x6d, 0x05, 0x88, 0x3e, 0x64, 0xdc, 0x83, 0xbe, 0x7b, 0x97, 0xc8, 0x3d, 0x7c, 0xd1, 0x56, 0xbe, 0x70, 0x70, 0x86, 0x3e, 0x6e, 0x17, 0x6c, 0xbd, 0xf0, 0x9d, 0x69, 0x3e, 0x26, 0xad, 0xac, 0xbd, 0x5c, 0x81, 0x7e, 0x3e, 0x92, 0x7f, 0x94, 0xbe, 0x9d, 0x4d, 0x7a, 0xbc, 0x54, 0xe3, 0x51, 0x3e, 0xf2, 0x54, 0x1d, 0x3d, 0x18, 0x09, 0xbc, 0xbe, 0x62, 0x64, 0xaf, 0x3e, 0x40, 0x36, 0x82, 0xbe, 0xf9, 0x5a, 0x93, 0xbe, 0x09, 0x07, 0x5a, 0x3e, 0xbb, 0x63, 0xa8, 0x3e, 0xeb, 0x4b, 0xcc, 0x3d, 0x22, 0x87, 0x12, 0xbe, 0x45, 0x25, 0xc1, 0xbd, 0x0f, 0x12, 0x11, 0xbe, 0x44, 0x79, 0x16, 0x3d, 0x9c, 0x97, 0x8d, 0x3d, 0x08, 0x7b, 0xd7, 0x3c, 0x68, 0xc9, 0xf9, 0x3c, 0x6a, 0x84, 0x35, 0xbe, 0xe3, 0xc1, 0x04, 0xbe, 0xb4, 0xd1, 0x1e, 0xbd, 0x1e, 0xe3, 0x0f, 0xbe, 0x74, 0x9e, 0xbd, 0x3d, 0x48, 0xf4, 0x5c, 0x3d, 0x70, 0xea, 0x0a, 0x3e, 0x62, 0x41, 0x98, 0xbd, 0x4c, 0xbc, 0x52, 0x3e, 0x98, 0xf5, 0x4a, 0x3d, 0xe8, 0x19, 0xd7, 0xbd, 0x38, 0x64, 0xd5, 0xbc, 0x2c, 0xa6, 0x37, 0xbe, 0x56, 0x31, 0x17, 0x3e, 0xbf, 0xda, 0x22, 0xbe, 0x90, 0x70, 0x8a, 0xbc, 0x3c, 0xe2, 0xd4, 0xbd, 0xc0, 0x14, 0x00, 0x3c, 0x50, 0xc1, 0xa4, 0x3d, 0x90, 0x0c, 0x16, 0x3e, 0x4c, 0x6d, 0xb1, 0xbd, 0xb0, 0xb0, 0xcc, 0xbc, 0x00, 0xda, 0x25, 0x3e, 0xa8, 0x8f, 0x40, 0x3e, 0x38, 0xea, 0x6e, 0x3d, 0x02, 0x4f, 0xc9, 0xbd, 0xc1, 0x58, 0xb1, 0xbe, 0x5f, 0x91, 0x25, 0xbe, 0x76, 0x93, 0x8c, 0xbe, 0x85, 0xf9, 0x69, 0xbf, 0xf6, 0xee, 0x4a, 0x3e, 0x69, 0x7b, 0x17, 0x3d, 0x1d, 0x4f, 0x90, 0xbe, 0x6e, 0x1a, 0x58, 0xbe, 0x1e, 0x3f, 0x35, 0x3e, 0xdb, 0x50, 0x2a, 0x3d, 0xbf, 0xda, 0x96, 0xbe, 0x12, 0x74, 0x94, 0x3e, 0xf0, 0x5e, 0x38, 0xbd, 0xd8, 0x5a, 0x40, 0xbe, 0xf8, 0xab, 0xa6, 0xbd, 0xd8, 0x50, 0xdd, 0xbe, 0x0d, 0x50, 0x2a, 0x3e, 0xf5, 0x1c, 0x6e, 0x3d, 0x66, 0xf7, 0x97, 0x3e, 0xa4, 0xdd, 0x68, 0xbe, 0xfd, 0xad, 0xd6, 0x3d, 0xe8, 0x60, 0xcc, 0xbd, 0x25, 0x7f, 0xc9, 0x3d, 0x5d, 0x1a, 0xf2, 0x3d, 0xda, 0xe5, 0xeb, 0xbb, 0x58, 0x51, 0x4a, 0xbd, 0xd3, 0xc7, 0x36, 0x3d, 0xda, 0x4f, 0x70, 0xbe, 0x69, 0x5d, 0xef, 0xbe, 0x65, 0x0d, 0x5f, 0x3e, 0xef, 0xe4, 0x80, 0xbe, 0x1d, 0xc3, 0x17, 0xbd, 0xad, 0xb7, 0x70, 0xbe, 0x4e, 0x16, 0x06, 0x3d, 0xe7, 0x84, 0x75, 0xbe, 0x38, 0xe2, 0x54, 0x3e, 0x4a, 0x19, 0x93, 0x3d, 0x2b, 0x2d, 0x84, 0xbd, 0x59, 0x17, 0x59, 0x3e, 0x6c, 0x42, 0x1a, 0x3e, 0x3f, 0x6d, 0xaa, 0x3c, 0xe3, 0xd3, 0x3e, 0x3e, 0x46, 0x7d, 0x81, 0xbe, 0x1f, 0xce, 0x14, 0x3e, 0x3c, 0xde, 0x8c, 0x3e, 0x5f, 0x7a, 0xda, 0x3d, 0xa1, 0x3f, 0xa9, 0xbd, 0x2d, 0x06, 0xc6, 0xbe, 0xfa, 0xd8, 0xb8, 0x3d, 0xd0, 0x9f, 0xd6, 0xbd, 0x52, 0x46, 0xbe, 0x3e, 0x7c, 0xf1, 0xd9, 0xbd, 0x86, 0x49, 0x50, 0xbd, 0xfd, 0x7c, 0xb5, 0xbe, 0x73, 0x1c, 0xe3, 0x3d, 0xbb, 0xbb, 0x16, 0x3e, 0x66, 0xd5, 0x49, 0x3e, 0x86, 0x52, 0xdf, 0x3d, 0xf5, 0x70, 0xa5, 0x3d, 0x83, 0x09, 0x77, 0x3e, 0x0e, 0x73, 0xc8, 0xbe, 0x80, 0x06, 0xb8, 0xbc, 0xf3, 0x4c, 0xa4, 0xbe, 0x19, 0xc5, 0x9b, 0x3e, 0xf3, 0x28, 0x3c, 0x3d, 0x79, 0x4f, 0x90, 0x3e, 0xc2, 0xf3, 0x14, 0x3e, 0xea, 0x3a, 0x00, 0x3f, 0x2b, 0xd1, 0x3b, 0x3e, 0x1d, 0x05, 0xc6, 0xbd, 0x42, 0xfb, 0xb6, 0x3c, 0xe8, 0xda, 0xbe, 0xbd, 0xfc, 0x2e, 0x3c, 0xbe, 0xa8, 0xe7, 0x8d, 0x3e, 0xbf, 0x5f, 0x13, 0x3c, 0xce, 0xc0, 0x55, 0x3e, 0x1e, 0x7d, 0x96, 0x3e, 0x08, 0x0b, 0x09, 0x3e, 0xc4, 0x3d, 0x17, 0x3e, 0xda, 0x84, 0xf7, 0xbc, 0xf6, 0x0e, 0x7c, 0x3e, 0x8b, 0x3b, 0x3f, 0xbc, 0x69, 0x06, 0x81, 0xbd, 0x62, 0xdc, 0x86, 0xbd, 0x29, 0xa8, 0x4b, 0x3e, 0xa2, 0x53, 0x81, 0x3e, 0x57, 0x9a, 0x53, 0x3e, 0xc4, 0x3a, 0x54, 0xbd, 0x9b, 0x0a, 0x46, 0x3e, 0x37, 0x7d, 0x88, 0x3e, 0x36, 0x83, 0xca, 0x3e, 0x65, 0xe5, 0x96, 0x3d, 0x8b, 0x34, 0x85, 0xbd, 0xef, 0xce, 0x8a, 0x3d, 0xc9, 0x77, 0x54, 0x3e, 0xc7, 0x33, 0x5f, 0x3e, 0x49, 0xe8, 0xcd, 0xbb, 0xce, 0xe7, 0xb3, 0x3e, 0x62, 0x41, 0x08, 0x3e, 0x9f, 0x9e, 0xad, 0x3e, 0x31, 0x73, 0x1c, 0xbc, 0xe8, 0x03, 0x9c, 0x3d, 0xb8, 0x69, 0x9f, 0x3e, 0x17, 0x34, 0xc2, 0x3c, 0x5d, 0x9b, 0x09, 0xbe, 0xca, 0x6b, 0x04, 0x3e, 0x6c, 0x64, 0xfe, 0x3d, 0x36, 0xe8, 0x8f, 0xbe, 0x2e, 0x74, 0xb4, 0x3e, 0xdc, 0x9c, 0x15, 0x3e, 0xe8, 0x37, 0x23, 0x3e, 0x8e, 0xef, 0x92, 0x3d, 0xeb, 0xdb, 0x41, 0x3d, 0x7d, 0x5a, 0x9c, 0x3d, 0xdf, 0xd1, 0x27, 0xbe, 0x0c, 0x40, 0x75, 0x3e, 0xa1, 0xba, 0x71, 0x3e, 0x51, 0x58, 0x9b, 0x3e, 0xa2, 0x86, 0x52, 0x3e, 0x76, 0x24, 0xc5, 0x3d, 0x13, 0x15, 0x5c, 0x3e, 0xde, 0x6a, 0x7f, 0x3e, 0xb9, 0x7c, 0x1f, 0x3e, 0x86, 0x26, 0xf8, 0x3d, 0x22, 0x75, 0x6a, 0x3e, 0x5a, 0x72, 0x24, 0xbe, 0x59, 0x5b, 0xf7, 0x3d, 0x8d, 0x12, 0x8f, 0x3e, 0xe8, 0x07, 0x24, 0x3e, 0xe1, 0x2e, 0xfb, 0x3b, 0xda, 0x54, 0xf3, 0x3d, 0xb9, 0x24, 0x9b, 0x3e, 0x8b, 0x7a, 0xc2, 0xbd, 0x54, 0x43, 0xac, 0x3d, 0xab, 0xac, 0xa3, 0x3e, 0x75, 0x87, 0x24, 0x3e, 0xb6, 0x55, 0x7c, 0x3c, 0xa1, 0x28, 0xfc, 0x3d, 0x84, 0x86, 0x35, 0x3e, 0xfb, 0x60, 0xd1, 0x3e, 0xaf, 0xdc, 0xbd, 0x3e, 0x16, 0xc5, 0x94, 0xbc, 0x22, 0xa1, 0x4a, 0xbd, 0x83, 0x82, 0x48, 0x3e, 0x7f, 0x0a, 0xcd, 0x3e, 0x7c, 0x39, 0xed, 0x3c, 0xf2, 0xc9, 0x17, 0x3d, 0xa2, 0xd2, 0x0d, 0x3e, 0xf0, 0x67, 0x96, 0x3e, 0x82, 0xf7, 0x49, 0x3d, 0xb0, 0x19, 0x16, 0xbe, 0x4c, 0x75, 0x06, 0xbc, 0x4c, 0x29, 0xa4, 0xbb, 0xaa, 0x74, 0xc9, 0xbd, 0x1c, 0x8b, 0xc9, 0x3e, 0x61, 0x75, 0xa4, 0x3e, 0xeb, 0x5e, 0x7f, 0xbd, 0xee, 0x57, 0xc9, 0xbd, 0x78, 0x06, 0x64, 0x3c, 0x03, 0x12, 0x3c, 0xbe, 0x02, 0x5f, 0x1b, 0xbe, 0x50, 0x94, 0x05, 0xbc, 0x34, 0x9a, 0x56, 0x3e, 0xe0, 0xdc, 0x0c, 0xbd, 0x97, 0xc3, 0x13, 0xbe, 0x3e, 0xe5, 0xf1, 0xbd, 0x80, 0xc4, 0xec, 0xbb, 0xb0, 0x4f, 0x59, 0x3d, 0x92, 0x99, 0x53, 0xbe, 0x0c, 0x89, 0x16, 0xbd, 0x44, 0x9f, 0xd7, 0x3d, 0x8b, 0xbb, 0x4a, 0xbe, 0x90, 0xac, 0xd6, 0xbd, 0x03, 0xb3, 0xb4, 0xbd, 0xd8, 0x39, 0x99, 0x3d, 0xa0, 0x01, 0xdf, 0x3b, 0xbc, 0xec, 0xf2, 0x3d, 0x36, 0x4c, 0x49, 0x3e, 0x7a, 0x1d, 0xf7, 0xbd, 0xe8, 0x42, 0x9d, 0xbc, 0x0c, 0x8a, 0x21, 0x3e, 0xc6, 0x24, 0x15, 0x3e, 0x7a, 0x08, 0x1d, 0xbe, 0xc2, 0x3a, 0x5a, 0xbe, 0x86, 0x49, 0x4c, 0x3e, 0x8e, 0xee, 0x05, 0xbe, 0x0c, 0x99, 0xa9, 0xbd, 0x68, 0x20, 0x9c, 0x3c, 0x92, 0x3a, 0xa9, 0xbd, 0xf0, 0xfb, 0x11, 0xbc, 0x01, 0xad, 0x13, 0xbe, 0x80, 0x3f, 0xd5, 0xba, 0xa4, 0xd1, 0x1e, 0x3e, 0x34, 0x27, 0xda, 0x3d, 0xc3, 0xc0, 0xd6, 0xbd, 0x7c, 0x20, 0x22, 0xbd, 0x8c, 0x9e, 0xcf, 0x3d, 0x60, 0x81, 0x9e, 0xbd, 0x50, 0x8f, 0x42, 0xbc, 0x70, 0x83, 0x33, 0x3c, 0x6c, 0x1f, 0x46, 0x3e, 0x79, 0xa8, 0x01, 0xbe, 0x40, 0xe5, 0x28, 0x3e, 0x15, 0x44, 0xc4, 0xbd, 0x86, 0xf3, 0xaa, 0xbd, 0x10, 0x76, 0xd2, 0xbc, 0x46, 0x1c, 0xf0, 0xbd, 0x00, 0x4d, 0x4c, 0xba, 0xc9, 0x2a, 0x09, 0xbe, 0xda, 0x1b, 0x2f, 0xbe, 0x90, 0x17, 0x1f, 0x3d, 0x5b, 0x3c, 0x4a, 0xbe, 0x74, 0x73, 0x90, 0xbd, 0x20, 0xc5, 0xa7, 0xbd, 0x00, 0x6c, 0x49, 0x3a, 0x8f, 0xd3, 0x1a, 0xbe, 0xdc, 0x58, 0x3a, 0xbe, 0x3a, 0xbf, 0x1c, 0xbe, 0x28, 0x78, 0x5f, 0xbd, 0xfc, 0x3d, 0xef, 0xbd, 0xec, 0x12, 0xf2, 0x3d, 0x90, 0xcf, 0x60, 0x3d, 0x10, 0xad, 0x95, 0xbc, 0x56, 0xcc, 0xc2, 0x3d, 0xea, 0x38, 0x9c, 0x3d, 0x67, 0x9c, 0x81, 0x3d, 0x2d, 0x9d, 0x53, 0x3e, 0xe1, 0xaf, 0x23, 0x3e, 0xc0, 0x28, 0x8f, 0xbd, 0x2c, 0xd0, 0x2f, 0xbe, 0x14, 0x5c, 0xc9, 0x3d, 0xf5, 0x84, 0xb6, 0x3e, 0x58, 0xbd, 0x83, 0xbc, 0x8c, 0xf5, 0xe3, 0x3d, 0xd6, 0xd0, 0xd8, 0x3d, 0x72, 0xce, 0x4e, 0xbd, 0x8e, 0xa3, 0x83, 0x3e, 0x6a, 0xcd, 0xa7, 0x3c, 0x20, 0x23, 0xe3, 0x3d, 0x74, 0x83, 0x96, 0x3e, 0xe2, 0xbe, 0x94, 0xbd, 0xd5, 0x11, 0x06, 0x3b, 0x50, 0xe4, 0x15, 0x3e, 0x87, 0x78, 0x55, 0x3e, 0x8b, 0x11, 0x20, 0x3d, 0xe5, 0xea, 0xff, 0xbb, 0xe1, 0x9e, 0x4b, 0x3e, 0x88, 0x99, 0x1d, 0x3e, 0xa2, 0x3e, 0xf3, 0x3d, 0x31, 0xfd, 0x30, 0xbd, 0x32, 0x35, 0x79, 0x3e, 0x8e, 0x92, 0x6f, 0x3e, 0x61, 0x7e, 0xed, 0x3b, 0x62, 0x31, 0x2f, 0x3c, 0xc8, 0xeb, 0x63, 0x3e, 0xeb, 0xac, 0xf3, 0x3d, 0x29, 0x2e, 0x30, 0xbe, 0xfc, 0x4b, 0x93, 0x3d, 0xfc, 0x82, 0xc8, 0x3d, 0x11, 0x1e, 0x1c, 0x3e, 0xa0, 0xf3, 0x05, 0xbc, 0xb8, 0x42, 0x9f, 0xbe, 0xaf, 0xa3, 0xf0, 0x3d, 0x44, 0xcc, 0xda, 0x3d, 0xbe, 0xce, 0x3d, 0xbd, 0x0a, 0x24, 0x3d, 0xbe, 0x00, 0x4c, 0x8b, 0xb9, 0x04, 0x4d, 0x94, 0x3e, 0x0b, 0x33, 0x8b, 0x3e, 0xa5, 0x2f, 0x84, 0xbe, 0x89, 0x27, 0xe6, 0x3d, 0x30, 0x2c, 0x59, 0xbd, 0xd1, 0x2e, 0x31, 0x3e, 0x97, 0x7a, 0x87, 0xbe, 0xbe, 0x18, 0x9d, 0xbb, 0xbb, 0x14, 0xef, 0xbd, 0xc7, 0xfe, 0x0f, 0x3d, 0x98, 0xa1, 0x3e, 0xbe, 0x2c, 0x35, 0x91, 0xbe, 0xce, 0x62, 0x89, 0xbe, 0x6b, 0x70, 0x6f, 0x3e, 0xbd, 0x20, 0x37, 0x3d, 0x2e, 0x25, 0x96, 0x3e, 0x4b, 0x68, 0x94, 0x3e, 0x5c, 0x5f, 0x63, 0xbd, 0xc2, 0xfb, 0xc5, 0xbd, 0xe0, 0xcb, 0x1c, 0x3e, 0x09, 0xe8, 0xf0, 0x3d, 0x9d, 0x76, 0x59, 0x3e, 0xa1, 0x2a, 0x95, 0x3e, 0x34, 0x54, 0xaf, 0x3c, 0x8b, 0xe8, 0x36, 0x3f, 0x7e, 0x44, 0xb7, 0xbd, 0x43, 0x71, 0x60, 0xbe, 0x71, 0xe5, 0xa9, 0x3e, 0x51, 0x05, 0xf1, 0x3e, 0x24, 0xdf, 0xf6, 0x3d, 0x10, 0x16, 0x88, 0x3e, 0x6c, 0xa9, 0x8b, 0x3e, 0xc7, 0x97, 0x8e, 0xbe, 0x92, 0x0b, 0x98, 0x3e, 0x63, 0x06, 0x85, 0x3e, 0x20, 0xa9, 0x60, 0xbd, 0x22, 0x56, 0xd7, 0x3c, 0xb4, 0xd3, 0x13, 0xbe, 0xfe, 0x56, 0x30, 0x3e, 0xe2, 0x4e, 0x8e, 0xbd, 0x30, 0xcf, 0xc0, 0xbd, 0x4e, 0xc2, 0xdd, 0x3e, 0x9e, 0x5b, 0x00, 0x3e, 0xaf, 0xc8, 0x63, 0x3e, 0x98, 0x9f, 0x87, 0x3c, 0x8b, 0x0f, 0xc0, 0x3d, 0x50, 0xe6, 0xbf, 0xbc, 0x91, 0xbd, 0x5a, 0x3e, 0x4f, 0x69, 0x87, 0x3e, 0x79, 0xa7, 0x29, 0x3e, 0xca, 0x07, 0x6d, 0xbe, 0x62, 0x37, 0x91, 0x3e, 0xfc, 0xe6, 0xae, 0x3e, 0x74, 0xbd, 0x96, 0x3e, 0xce, 0x8a, 0x8e, 0x3e, 0x3b, 0xd2, 0x97, 0x3e, 0x11, 0xf4, 0x2f, 0x3f, 0x73, 0xe0, 0x3d, 0xbe, 0xf8, 0x69, 0x10, 0xbe, 0x00, 0xe1, 0x2b, 0x3e, 0xdb, 0x63, 0xb2, 0x3e, 0x58, 0x3f, 0x06, 0xbe, 0xba, 0x57, 0x94, 0xbd, 0x6e, 0xd2, 0x99, 0x3e, 0x3f, 0x93, 0xe4, 0xbd, 0xf2, 0x67, 0xe3, 0x3c, 0xf6, 0x3c, 0xc5, 0xbc, 0x23, 0xa4, 0x59, 0x3e, 0x4c, 0xdc, 0x44, 0x3d, 0x8e, 0x92, 0x8c, 0xbc, 0x3d, 0x84, 0x54, 0x3e, 0xaa, 0xa0, 0x5f, 0xbe, 0x7f, 0x72, 0x9d, 0x3e, 0xe6, 0x98, 0xa0, 0x3e, 0x5c, 0xed, 0x7e, 0x3e, 0x6a, 0x0b, 0xa8, 0x3e, 0x32, 0x55, 0x9c, 0x3e, 0xce, 0x0d, 0x50, 0x3e, 0xc7, 0x20, 0x55, 0xbd, 0x08, 0x76, 0xc0, 0x3e, 0x09, 0x75, 0xf1, 0x3d, 0x5a, 0x3f, 0x84, 0x3e, 0xf0, 0x23, 0x77, 0xbe, 0xf2, 0x0f, 0x74, 0x3e, 0x94, 0xf5, 0xa3, 0x3d, 0xae, 0xcd, 0x01, 0x3d, 0x6a, 0x00, 0x92, 0xbd, 0xfb, 0x8c, 0x24, 0x3e, 0x13, 0x67, 0x92, 0x3d, 0xfa, 0xc9, 0x29, 0xbe, 0x11, 0xdf, 0xd1, 0xbd, 0xb5, 0x95, 0x28, 0x3d, 0x37, 0x1b, 0x86, 0x3d, 0xb2, 0x4c, 0xd4, 0x3c, 0x86, 0x81, 0x24, 0xbe, 0x66, 0x9d, 0x10, 0x3e, 0x56, 0x8d, 0x05, 0xbe, 0xbe, 0xe1, 0xa9, 0xbc, 0xdf, 0xba, 0x09, 0x3c, 0x10, 0x20, 0xba, 0xbd, 0x19, 0xa2, 0x0d, 0x3e, 0x49, 0x6c, 0x56, 0x3b, 0x64, 0x88, 0x13, 0xbe, 0xfb, 0xba, 0x1f, 0xbd, 0xc3, 0x94, 0x1e, 0x3e, 0xeb, 0x05, 0x2e, 0xbe, 0x2c, 0xb8, 0x51, 0xbd, 0x01, 0x88, 0xcc, 0xba, 0x04, 0x60, 0x86, 0x3d, 0x5e, 0xdf, 0x08, 0xbe, 0xeb, 0xdd, 0xdf, 0xbd, 0xe0, 0xba, 0x31, 0xbc, 0xc6, 0x09, 0x59, 0x3c, 0x9e, 0x28, 0x78, 0xbd, 0x74, 0x01, 0x3c, 0x3e, 0x07, 0xb4, 0x41, 0xbe, 0x96, 0x3e, 0x3b, 0xbe, 0x3d, 0x3d, 0x86, 0xbe, 0x6a, 0x8b, 0x81, 0xbe, 0xc8, 0x22, 0x94, 0x3d, 0x4b, 0x98, 0x2d, 0xbf, 0x27, 0xf4, 0x47, 0x3d, 0xcb, 0x23, 0x95, 0x3e, 0x88, 0xa4, 0x15, 0xbe, 0x04, 0x01, 0xac, 0xbd, 0x64, 0xde, 0x8b, 0x3e, 0xe7, 0x37, 0x52, 0xbc, 0x71, 0x3a, 0xa1, 0xbe, 0x9e, 0x06, 0xd5, 0x3d, 0x9b, 0x1d, 0x23, 0xbe, 0xd8, 0xbb, 0xe9, 0xbc, 0xba, 0xaa, 0x41, 0xbd, 0x91, 0x9a, 0xd6, 0xbd, 0x44, 0xa0, 0xb5, 0x3e, 0xf9, 0x03, 0xec, 0x3b, 0x28, 0x8a, 0x9d, 0x3e, 0x77, 0xc8, 0x02, 0xbe, 0x5b, 0xcc, 0x1e, 0x3d, 0x0e, 0x8c, 0xc0, 0xbe, 0x94, 0x82, 0x6b, 0xbe, 0xb1, 0x07, 0xaa, 0xbd, 0x73, 0x3c, 0x7c, 0x3d, 0x89, 0xe2, 0x32, 0x3e, 0x94, 0xc3, 0x42, 0xbe, 0x8f, 0x48, 0xfe, 0xbd, 0x69, 0x27, 0x0b, 0xbe, 0x2c, 0x17, 0x7f, 0x3e, 0x4a, 0xcf, 0x96, 0xbe, 0x5a, 0xb7, 0x00, 0xbe, 0x5a, 0x59, 0xa8, 0x3d, 0x53, 0xcd, 0x2b, 0x3e, 0xb8, 0x93, 0x76, 0x3d, 0xae, 0xd2, 0x70, 0xbe, 0xd4, 0xd6, 0x1b, 0xbe, 0xb5, 0x3e, 0x00, 0x3e, 0xc0, 0x77, 0x2a, 0xbd, 0xbb, 0x86, 0x96, 0xbc, 0x45, 0x2a, 0x06, 0x3e, 0xaf, 0x2d, 0x58, 0x3d, 0x7f, 0x30, 0x80, 0x3d, 0xaf, 0xe3, 0xc3, 0xbe, 0xc2, 0xab, 0xf7, 0x3d, 0x05, 0x7d, 0x0c, 0x3e, 0x1e, 0x35, 0x06, 0xbe, 0x3a, 0x93, 0x3f, 0x3e, 0xc0, 0x06, 0x3a, 0xbe, 0xde, 0x20, 0x36, 0x3d, 0x31, 0x1e, 0xa7, 0xbe, 0x78, 0x88, 0x76, 0x3c, 0xab, 0x8c, 0x61, 0xbe, 0x80, 0xbd, 0xcd, 0x3d, 0x6d, 0x3e, 0x85, 0x3e, 0x84, 0x52, 0x18, 0x3c, 0x14, 0x0a, 0x96, 0x3d, 0xa9, 0xe5, 0x94, 0x3e, 0xc8, 0xd3, 0xed, 0x3d, 0x14, 0x11, 0x04, 0x3e, 0x78, 0xc4, 0xac, 0xbd, 0x5f, 0x9a, 0xaf, 0x3e, 0xc7, 0x17, 0xe2, 0x3d, 0x0e, 0x39, 0x2c, 0x3e, 0xb4, 0xcf, 0x0c, 0xbd, 0xe0, 0xd9, 0x89, 0xbb, 0x4c, 0xc3, 0x47, 0x3e, 0x35, 0xad, 0x5a, 0xbe, 0x18, 0x6d, 0x2e, 0xbe, 0xb8, 0x96, 0x74, 0x3d, 0xdd, 0x1e, 0xdc, 0x3d, 0xf0, 0xc5, 0x17, 0x3e, 0x03, 0x6c, 0xcf, 0xbd, 0xc0, 0x64, 0x5b, 0xbc, 0x4a, 0x08, 0x0c, 0x3e, 0xc2, 0x7e, 0xe2, 0xbd, 0x58, 0x35, 0x1b, 0xbe, 0x80, 0xe2, 0x25, 0x3d, 0x1f, 0x1c, 0x34, 0x3e, 0x3c, 0x34, 0x0d, 0x3e, 0x30, 0x3e, 0x0f, 0xbc, 0x6c, 0x91, 0x86, 0xbd, 0xcb, 0x99, 0x07, 0xbe, 0xf8, 0x11, 0x54, 0xbd, 0xcd, 0x27, 0xf0, 0x3d, 0xbc, 0xcc, 0xe0, 0x3d, 0xd8, 0x5f, 0x66, 0x3d, 0x94, 0xe7, 0x56, 0xbe, 0x46, 0xde, 0xd9, 0x3c, 0xd0, 0x89, 0xfa, 0xbd, 0xf8, 0x00, 0x0e, 0x3d, 0xe1, 0x95, 0x6b, 0xbc, 0xd0, 0x93, 0x4a, 0x3c, 0x70, 0x12, 0xa9, 0x3d, 0x26, 0x1c, 0xb4, 0xbd, 0xb7, 0x3b, 0x79, 0x3e, 0x01, 0x5e, 0x47, 0xbe, 0x8c, 0x2a, 0x1f, 0xbd, 0x72, 0x3c, 0xaf, 0x3d, 0xcc, 0x27, 0x08, 0x3f, 0xaf, 0x08, 0xb3, 0x3d, 0x13, 0x76, 0x54, 0x3e, 0x4a, 0xeb, 0x48, 0x3e, 0x4f, 0x8a, 0x4f, 0x3e, 0x46, 0x53, 0x0f, 0xbe, 0xe5, 0x2c, 0x17, 0xbe, 0xab, 0x50, 0x51, 0xbe, 0xcb, 0x32, 0x44, 0x3e, 0x92, 0x7e, 0x87, 0x3e, 0x63, 0xd4, 0x40, 0xbe, 0x92, 0x06, 0x30, 0xbd, 0xe0, 0x3b, 0x46, 0xbe, 0x13, 0xb1, 0xb3, 0x3e, 0x42, 0xd5, 0x54, 0x3d, 0x72, 0x2d, 0x87, 0x3e, 0x32, 0x21, 0x7e, 0xbe, 0x70, 0x3a, 0xd6, 0x3e, 0x75, 0xd0, 0x43, 0xbe, 0xb9, 0x3f, 0x2c, 0x3e, 0x22, 0xfa, 0x9c, 0x3d, 0x6f, 0x41, 0x97, 0x3e, 0x3c, 0x5f, 0xd9, 0xbd, 0x1b, 0x4d, 0xbd, 0x3e, 0x51, 0x6a, 0xb9, 0x3e, 0x74, 0x1d, 0x17, 0xbd, 0xce, 0x61, 0xf2, 0x3d, 0xfc, 0xf2, 0x85, 0x3c, 0x60, 0x81, 0x1d, 0xbd, 0x84, 0xd1, 0xaa, 0x3d, 0x38, 0x64, 0xac, 0x3c, 0x3c, 0x19, 0x0a, 0xbe, 0x00, 0x46, 0x32, 0xbe, 0xb8, 0x84, 0xb1, 0xbd, 0x1f, 0xc6, 0x8e, 0x3b, 0xfc, 0x37, 0x02, 0xba, 0x18, 0xc7, 0xcc, 0x3d, 0xa1, 0xf1, 0x93, 0x3b, 0x17, 0xe0, 0x71, 0x3d, 0x00, 0x24, 0x20, 0x3d, 0xba, 0xba, 0xcc, 0x3d, 0x32, 0xda, 0xf2, 0xbc, 0x28, 0x9a, 0x17, 0xbd, 0x30, 0x03, 0xbd, 0xbc, 0x13, 0x5f, 0x53, 0xbe, 0x3e, 0xe9, 0xd9, 0xbd, 0xf1, 0x05, 0xdf, 0xbd, 0xaf, 0xce, 0x54, 0xbe, 0xcb, 0xd9, 0x3c, 0xbe, 0x5c, 0xda, 0x03, 0x3e, 0x88, 0xc3, 0x09, 0x3e, 0xc0, 0x49, 0xe0, 0xbd, 0x3d, 0x91, 0x08, 0xbe, 0x59, 0xbe, 0xba, 0x3d, 0x3f, 0x47, 0x2f, 0x3e, 0x07, 0x53, 0x16, 0xbe, 0x2e, 0x91, 0xcd, 0x3c, 0x78, 0x62, 0x4c, 0x3e, 0x09, 0x23, 0x06, 0x3e, 0x00, 0xf9, 0xb1, 0xbc, 0x5d, 0x42, 0x01, 0xbe, 0x6b, 0xd0, 0x4d, 0xbe, 0xcb, 0xd9, 0x81, 0xbd, 0xa4, 0xd2, 0x99, 0x3d, 0x4f, 0x28, 0x1e, 0xbd, 0x82, 0x92, 0x96, 0xbc, 0x65, 0xbc, 0x05, 0x3e, 0xbf, 0xf3, 0xad, 0x3d, 0x3d, 0x9c, 0x65, 0xbe, 0x96, 0x7d, 0xb5, 0x3b, 0x77, 0x64, 0x27, 0x3e, 0x01, 0x58, 0x88, 0xbd, 0xda, 0x92, 0x1f, 0x3e, 0xf2, 0xd9, 0x1b, 0x3e, 0x71, 0x41, 0x85, 0xbd, 0xd9, 0xb0, 0xda, 0xbd, 0xf2, 0x4c, 0xaa, 0xbd, 0x31, 0x1b, 0x34, 0xbd, 0x29, 0x69, 0xa2, 0x3d, 0xbc, 0xc3, 0xb4, 0xbd, 0xab, 0xf2, 0xc5, 0x3d, 0x83, 0x49, 0x52, 0xbe, 0x5a, 0xaf, 0xa9, 0xbd, 0x9b, 0xd9, 0xe4, 0x3d, 0x76, 0x6a, 0x34, 0x3e, 0x2a, 0x4c, 0x97, 0xbd, 0xcf, 0x0b, 0x39, 0x3e, 0xbd, 0xc8, 0xc4, 0xbd, 0x60, 0x3c, 0x1b, 0xbe, 0xeb, 0xab, 0x71, 0xbe, 0xf2, 0x60, 0xf4, 0x3d, 0xe6, 0x13, 0x89, 0xbe, 0x00, 0x18, 0x2e, 0xbe, 0xaf, 0x0e, 0x3a, 0xbd, 0x12, 0xf4, 0xd7, 0x3d, 0x19, 0x23, 0x35, 0x3e, 0x9c, 0xee, 0xe0, 0x3d, 0x1c, 0x3b, 0x30, 0xbc, 0x24, 0xfc, 0x18, 0x3d, 0x78, 0x0c, 0x4e, 0x3e, 0x80, 0x12, 0x17, 0xbd, 0xf6, 0xc9, 0x09, 0xbb, 0xc2, 0x53, 0x2e, 0xbe, 0xb5, 0x77, 0xb2, 0xbd, 0x0b, 0x49, 0xd1, 0xbc, 0xdc, 0x96, 0x20, 0xbd, 0xae, 0x9c, 0x39, 0xbe, 0x4a, 0x86, 0xb0, 0xbd, 0x8d, 0xb4, 0x23, 0x3d, 0x00, 0x73, 0x7c, 0xbb, 0x43, 0x99, 0x43, 0x3d, 0xfc, 0x17, 0xea, 0x3d, 0xb2, 0xbd, 0x38, 0xbe, 0xee, 0xd5, 0xbc, 0xbd, 0x74, 0x42, 0x14, 0x3d, 0xbb, 0x8c, 0x3f, 0x3e, 0x19, 0x14, 0x70, 0xbd, 0x0d, 0x1d, 0x57, 0xbe, 0x64, 0x68, 0xa8, 0xbd, 0x00, 0x68, 0x81, 0xba, 0xa0, 0xcd, 0x43, 0xbd, 0x7e, 0xcc, 0x8a, 0xbc, 0xa3, 0xee, 0x41, 0xbe, 0xfa, 0x08, 0x21, 0x3e, 0x69, 0x59, 0x44, 0xbe, 0xd8, 0xc1, 0xa8, 0xbd, 0x4a, 0xfa, 0x82, 0x3e, 0xb6, 0x4b, 0x54, 0xbd, 0x4f, 0x4c, 0x75, 0xbd, 0xaa, 0x39, 0x4b, 0x3e, 0x2a, 0x0b, 0x13, 0x3e, 0x38, 0xe7, 0xcf, 0xbd, 0x76, 0x96, 0x08, 0x3e, 0x3a, 0x05, 0x0c, 0x3e, 0xc8, 0xf2, 0x69, 0xbd, 0x1e, 0x1e, 0xb5, 0x3d, 0x56, 0x19, 0xd5, 0xbe, 0x6e, 0xba, 0xd1, 0xbb, 0x9f, 0x7b, 0x0d, 0x3c, 0xbb, 0xc4, 0xc5, 0x3d, 0x51, 0x25, 0x60, 0x3e, 0x2d, 0x28, 0x65, 0xbe, 0x8c, 0xf9, 0x41, 0xbd, 0x9d, 0x94, 0xa5, 0xbe, 0x5c, 0x64, 0x6c, 0x3e, 0xa8, 0xda, 0x5e, 0xbe, 0x79, 0x8a, 0x67, 0xbd, 0x59, 0xa0, 0x63, 0xbc, 0x0b, 0x03, 0x8b, 0x3d, 0x31, 0x03, 0xd8, 0x3d, 0xad, 0x66, 0x79, 0x3e, 0x3d, 0x13, 0x39, 0x3e, 0xcf, 0x91, 0x63, 0x3d, 0xc1, 0xfe, 0xd6, 0xbd, 0x2f, 0xb4, 0x44, 0x3e, 0xc1, 0x3f, 0xd6, 0xbd, 0x99, 0xa5, 0xbb, 0x3e, 0x84, 0xf0, 0x2d, 0xbe, 0x20, 0xa5, 0x2a, 0xbe, 0x45, 0x5f, 0x63, 0xbc, 0xf4, 0x40, 0x3e, 0x3e, 0x37, 0xc4, 0x55, 0xbe, 0x72, 0xd6, 0x1e, 0xbe, 0x81, 0xb8, 0x3d, 0x3e, 0x82, 0x02, 0x8a, 0x3e, 0xde, 0x77, 0x13, 0x3e, 0x02, 0xe0, 0x02, 0xbe, 0x3f, 0x2b, 0x44, 0x3d, 0x9b, 0xd7, 0xe8, 0x3e, 0xa7, 0x4a, 0xb2, 0x3e, 0x51, 0x68, 0xe6, 0x3c, 0x81, 0x07, 0x6f, 0xbd, 0x7f, 0xc8, 0x03, 0xbd, 0x43, 0x66, 0xe4, 0x3e, 0x56, 0x7b, 0x90, 0xbd, 0xf1, 0x82, 0x5c, 0x3e, 0xfe, 0x5d, 0xe8, 0xbd, 0xdb, 0x94, 0x03, 0x3e, 0xb9, 0xcc, 0x36, 0xbe, 0x1f, 0x7b, 0x42, 0x3e, 0x9c, 0x7a, 0x49, 0xbd, 0x96, 0x54, 0x76, 0x3e, 0xa4, 0x06, 0xcd, 0xbd, 0x41, 0x20, 0x83, 0x3e, 0x9a, 0xf2, 0x85, 0x3e, 0x06, 0xa5, 0x46, 0xbe, 0x9e, 0x83, 0x8b, 0x3d, 0xcf, 0x8f, 0x92, 0xbc, 0xb2, 0x81, 0x59, 0xbe, 0xfd, 0xcd, 0xfd, 0x3d, 0x49, 0x5a, 0x10, 0xbd, 0xa3, 0xe0, 0x4a, 0xbd, 0xb7, 0x4d, 0x5a, 0xbe, 0x2c, 0x1e, 0x04, 0xbe, 0x78, 0x08, 0x25, 0x3c, 0xe1, 0x55, 0x92, 0xbd, 0xb4, 0x0d, 0x6e, 0xbe, 0x29, 0xf7, 0x98, 0x3e, 0xa6, 0xdb, 0x82, 0x3e, 0x07, 0x2c, 0x28, 0xbe, 0x38, 0x0c, 0x26, 0x3e, 0x77, 0xe5, 0xc4, 0xbe, 0x47, 0x7a, 0xa7, 0x3c, 0x37, 0xec, 0x42, 0xbe, 0xd4, 0xcb, 0x5b, 0x3d, 0x71, 0xd8, 0x36, 0xbd, 0x4a, 0xa7, 0xb7, 0x3d, 0x0c, 0xbe, 0x77, 0x3e, 0x33, 0x4b, 0x93, 0xbd, 0xaa, 0x75, 0x27, 0xbe, 0x56, 0xba, 0xa0, 0x3d, 0xa0, 0xf8, 0x10, 0x3e, 0x12, 0xcd, 0xae, 0x3c, 0x80, 0x96, 0x85, 0xbe, 0x8c, 0x01, 0x33, 0x3e, 0x50, 0xe7, 0x7a, 0xbd, 0x6c, 0xe8, 0xac, 0xbe, 0xd0, 0x34, 0x10, 0xbc, 0xa5, 0x9a, 0x69, 0x3e, 0x26, 0xf8, 0x2c, 0x3e, 0x2f, 0x53, 0x2e, 0xbe, 0xcc, 0xf6, 0x1b, 0x3e, 0x28, 0xd1, 0xdf, 0xbc, 0xb6, 0x24, 0x01, 0x3e, 0x00, 0x8f, 0x50, 0xbc, 0x50, 0x7b, 0x4b, 0x3d, 0xb0, 0xa1, 0x04, 0xbd, 0x01, 0x50, 0x1c, 0xbe, 0x56, 0x48, 0x06, 0xbe, 0x0d, 0x1b, 0x6e, 0x3e, 0x9b, 0x94, 0x1d, 0x3e, 0xc3, 0x8d, 0xae, 0x3c, 0xc3, 0x46, 0x9f, 0xbd, 0x89, 0xd6, 0x45, 0xbe, 0x36, 0x0c, 0x33, 0x3e, 0x94, 0x97, 0x49, 0xbe, 0x11, 0x1f, 0x78, 0x3e, 0xe2, 0x8e, 0x65, 0xbe, 0x3e, 0xf1, 0x2b, 0x3e, 0xa7, 0xec, 0x41, 0xbe, 0xb6, 0xae, 0x3f, 0x3e, 0xe0, 0xbb, 0x13, 0xbc, 0x5d, 0x06, 0x9b, 0x3e, 0x9d, 0xa6, 0x0e, 0x3e, 0xe7, 0xbf, 0xa5, 0xbd, 0xa4, 0xcd, 0x62, 0xbd, 0x2f, 0xa4, 0x0e, 0xbe, 0xaa, 0xdc, 0x1e, 0xbe, 0x78, 0x48, 0xb1, 0xbc, 0x32, 0x52, 0x50, 0x3e, 0x0a, 0x1b, 0x23, 0xbe, 0x9f, 0xf2, 0x3b, 0x3e, 0xa8, 0xcb, 0x9e, 0x3e, 0xdd, 0xcd, 0x22, 0xbe, 0x93, 0x6e, 0x8c, 0x3d, 0xd1, 0xb9, 0x6d, 0xbe, 0x9d, 0x24, 0x61, 0xbe, 0x90, 0xe5, 0x18, 0xbe, 0xb4, 0x8d, 0xd5, 0x3c, 0xac, 0x58, 0x37, 0x3d, 0x28, 0x0e, 0xb6, 0x3e, 0xad, 0x0d, 0x1e, 0xbd, 0xa8, 0x81, 0x18, 0xbd, 0x92, 0xeb, 0x3b, 0x3e, 0xa4, 0xa4, 0x80, 0x3e, 0xdb, 0xfc, 0xac, 0x3e, 0xa4, 0xeb, 0x22, 0xbe, 0xe8, 0x86, 0x45, 0xbe, 0x7c, 0x42, 0x71, 0xbd, 0x87, 0x0e, 0xb8, 0x3e, 0x96, 0x87, 0x34, 0xbe, 0xba, 0x8d, 0xc0, 0x3e, 0xc6, 0xb4, 0xae, 0xbe, 0xdf, 0xe7, 0x45, 0x3e, 0x2a, 0x22, 0x50, 0xbe, 0xd0, 0x58, 0x87, 0xbe, 0xd3, 0x40, 0x98, 0xbe, 0xf7, 0x6c, 0xa9, 0x3e, 0xe7, 0x6c, 0xc2, 0xbd, 0x7d, 0x7b, 0x70, 0x3e, 0x09, 0xf7, 0xa7, 0x3e, 0x56, 0xc0, 0x13, 0x3e, 0x7e, 0x9e, 0xc2, 0x3d, 0x40, 0xb9, 0xb8, 0xbd, 0x73, 0xf9, 0x8c, 0x3e, 0xcc, 0x05, 0xe5, 0xbd, 0x85, 0xb0, 0x2b, 0xbe, 0x4a, 0xb6, 0x82, 0xbd, 0x99, 0xb8, 0xb8, 0x3d, 0x61, 0x67, 0x02, 0x3e, 0x40, 0xc1, 0x28, 0x3d, 0x45, 0xc4, 0x54, 0x3e, 0xd9, 0x56, 0x7f, 0x3e, 0x11, 0x21, 0x07, 0xbe, 0x44, 0x4c, 0x62, 0x3c, 0xf8, 0xc8, 0x4c, 0xbe, 0xa7, 0x93, 0x97, 0x3e, 0x14, 0x75, 0xb3, 0x3e, 0x06, 0x84, 0x18, 0xbd, 0xf7, 0x12, 0x6f, 0x3e, 0x1b, 0x7d, 0x22, 0x3e, 0x44, 0x31, 0x7a, 0x3e, 0xb5, 0x75, 0xe2, 0xbc, 0x80, 0xf5, 0xf0, 0x3e, 0x6d, 0x5d, 0x09, 0xbe, 0x70, 0xe7, 0x8a, 0x3e, 0x64, 0x56, 0xe4, 0x3d, 0xf0, 0xc8, 0x27, 0xbe, 0x9e, 0xa8, 0x97, 0xbe, 0x96, 0x1e, 0x8e, 0x3e, 0x52, 0xa7, 0x84, 0xbd, 0xe2, 0xc9, 0x23, 0x3e, 0x90, 0xc0, 0xc3, 0x3e, 0x36, 0xa0, 0x18, 0x3d, 0xb0, 0x59, 0xc2, 0xbd, 0x48, 0x7d, 0x3c, 0xbe, 0xad, 0x10, 0x33, 0x3e, 0x82, 0x83, 0x2e, 0xbd, 0xb2, 0x60, 0x81, 0x3e, 0xa4, 0x39, 0x1a, 0x3e, 0x4b, 0x5e, 0x41, 0x3f, 0x87, 0xd1, 0x38, 0x3e, 0x57, 0x7b, 0x9e, 0x3d, 0x98, 0xaa, 0x9b, 0x3e, 0xc1, 0x9b, 0x94, 0x3e, 0x91, 0xe3, 0xd3, 0x3c, 0xcd, 0xe7, 0x6a, 0x3c, 0xa1, 0x73, 0x6b, 0x3e, 0xcd, 0x3c, 0x32, 0xbe, 0x38, 0xa2, 0x95, 0x3e, 0x43, 0x19, 0x63, 0x3e, 0xd1, 0xa5, 0x8a, 0x3b, 0xc9, 0x84, 0x20, 0x3e, 0xa3, 0x99, 0x85, 0x3e, 0x11, 0x71, 0xad, 0x3d, 0x81, 0x02, 0x43, 0x3e, 0x64, 0x50, 0x07, 0x3e, 0x69, 0x45, 0x67, 0x3e, 0x53, 0x0e, 0x99, 0xbc, 0x3b, 0x23, 0xd1, 0x3c, 0x64, 0xb2, 0x4c, 0x3e, 0xcd, 0x46, 0xbe, 0x3e, 0x36, 0x32, 0xd8, 0x3c, 0x58, 0x80, 0x6c, 0x3e, 0x8f, 0xaa, 0x5b, 0x3c, 0x72, 0x4e, 0x5a, 0x3e, 0x29, 0x0b, 0x8f, 0x3d, 0xca, 0xa9, 0xd8, 0xbc, 0x85, 0xe0, 0xd1, 0x3d, 0x2b, 0x94, 0xe0, 0x3d, 0xa0, 0x2f, 0x9f, 0x3e, 0xac, 0x40, 0x3e, 0x3e, 0x9e, 0x84, 0x03, 0x3f, 0x7b, 0x24, 0x6c, 0x3d, 0xd8, 0x96, 0xe3, 0x3c, 0x5c, 0x86, 0xa9, 0x3e, 0x2c, 0xc5, 0x7f, 0x3e, 0x77, 0xeb, 0x74, 0xbe, 0x8f, 0x5e, 0x6b, 0x3e, 0xef, 0x00, 0xb7, 0x3e, 0x31, 0x9b, 0xe9, 0xbc, 0x86, 0x30, 0x9d, 0x3e, 0xdf, 0x4b, 0x6f, 0x3e, 0xc1, 0x7d, 0x53, 0xbd, 0x15, 0x6b, 0x98, 0x3d, 0xb1, 0xbe, 0x8b, 0x3d, 0xf4, 0x1f, 0xa5, 0x3e, 0xc1, 0x2e, 0xe7, 0xbc, 0x03, 0x3b, 0xfa, 0x3d, 0x98, 0xfb, 0x93, 0x3d, 0x3a, 0xab, 0xdf, 0xbb, 0x91, 0x41, 0x95, 0x3e, 0x1a, 0x9f, 0xac, 0x3e, 0xe1, 0x35, 0x79, 0x3d, 0xda, 0xee, 0xb6, 0x3e, 0x1e, 0x78, 0x35, 0x3b, 0x83, 0xb2, 0x5e, 0xbd, 0x9e, 0x7f, 0x52, 0x3e, 0x93, 0x24, 0xfc, 0x3b, 0xd8, 0x4c, 0x2f, 0x3e, 0x9d, 0xda, 0x6b, 0xbb, 0x50, 0x7c, 0x77, 0xbe, 0x27, 0x65, 0x7f, 0xbe, 0xf6, 0xba, 0x79, 0xbd, 0x4f, 0x7c, 0x33, 0xbf, 0x8a, 0xf2, 0x51, 0x3e, 0x5e, 0x62, 0x8f, 0x3e, 0xb9, 0x8a, 0x27, 0xbe, 0xd7, 0x01, 0x8e, 0x3d, 0x2e, 0x99, 0xfc, 0xbb, 0x9e, 0x21, 0x80, 0xbc, 0x8f, 0x32, 0xd0, 0xbd, 0xf5, 0xa6, 0x5b, 0x3e, 0x0d, 0x05, 0x5b, 0xbe, 0x80, 0xeb, 0xb3, 0xbc, 0x09, 0xce, 0x27, 0xbe, 0x7b, 0xfa, 0x56, 0xbe, 0xce, 0x0c, 0xb6, 0x3d, 0x7d, 0xe5, 0xa7, 0xbd, 0x08, 0x73, 0x87, 0x3e, 0x11, 0xf0, 0x91, 0xbe, 0x72, 0x89, 0x37, 0xbc, 0xa7, 0x1b, 0xcb, 0xbe, 0xd5, 0xaf, 0x51, 0x3e, 0xb4, 0xc7, 0x82, 0x3c, 0x91, 0x4a, 0x3f, 0xbe, 0xb7, 0x1f, 0x31, 0x3e, 0x3f, 0xe1, 0xa3, 0xbe, 0x59, 0xc7, 0xa3, 0x3d, 0x1d, 0xde, 0xc6, 0xbe, 0x85, 0xc6, 0x52, 0x3d, 0x0a, 0x1e, 0x08, 0xbe, 0xe6, 0xf7, 0xff, 0xff, 0x04, 0x00, 0x00, 0x00, 0x40, 0x06, 0x00, 0x00, 0x18, 0x1b, 0x80, 0x3c, 0x22, 0x0e, 0x4f, 0x3d, 0x0a, 0xf3, 0x6b, 0x3e, 0x72, 0x94, 0x39, 0xbe, 0xe0, 0x25, 0x26, 0xbf, 0x42, 0x15, 0x13, 0xbf, 0x8c, 0xcf, 0x6d, 0x3d, 0x2e, 0xbb, 0x34, 0xbf, 0xed, 0x16, 0xd1, 0xbd, 0x85, 0x30, 0xe6, 0xbe, 0x77, 0xd8, 0x83, 0x3d, 0x1e, 0x2f, 0x3c, 0x3e, 0x8f, 0x63, 0x9a, 0x3d, 0x7a, 0x3c, 0x31, 0x3e, 0x7d, 0x01, 0xa1, 0x3c, 0xb8, 0x3c, 0x40, 0xbe, 0x09, 0xb6, 0xc2, 0x3d, 0xb7, 0xcd, 0x2e, 0xbf, 0x6f, 0xab, 0xa1, 0x3d, 0x98, 0x31, 0x3a, 0xbf, 0x91, 0xee, 0x90, 0xbe, 0x42, 0xeb, 0xb1, 0x3e, 0x14, 0x48, 0x3b, 0xbd, 0x73, 0x42, 0xe7, 0xbd, 0xeb, 0xf2, 0x40, 0x3e, 0xf4, 0x0c, 0x15, 0xbf, 0x21, 0xea, 0xc2, 0xbd, 0x7c, 0x9b, 0x68, 0x3e, 0x54, 0xcb, 0x63, 0x3e, 0x28, 0x57, 0x43, 0xbe, 0x8a, 0x41, 0xd6, 0xbe, 0xff, 0x5b, 0x4a, 0xbe, 0xa3, 0xe6, 0xe2, 0xbd, 0x3d, 0xd3, 0xea, 0xbe, 0x34, 0x6e, 0xe2, 0x3d, 0x30, 0xbe, 0x36, 0x3d, 0x0c, 0x4e, 0x3b, 0xbe, 0x8d, 0xec, 0x11, 0x3e, 0x93, 0x69, 0x07, 0x3e, 0x8e, 0x9c, 0xe8, 0xbc, 0x1c, 0xf1, 0x1d, 0xbf, 0x2a, 0xac, 0x3e, 0x3e, 0x52, 0xec, 0xda, 0x3e, 0x7e, 0xd9, 0x26, 0xbe, 0x0a, 0xff, 0x0d, 0xbf, 0x18, 0x9b, 0x10, 0xbf, 0x56, 0x68, 0x16, 0xbe, 0x48, 0xb7, 0x5b, 0x3e, 0x20, 0xde, 0xd5, 0x3c, 0xc5, 0x04, 0x22, 0x3e, 0xee, 0xc7, 0xb4, 0x3d, 0x20, 0x38, 0xdf, 0x3b, 0x9b, 0xc1, 0xbd, 0x3d, 0x42, 0x48, 0x95, 0xbd, 0x97, 0xa4, 0x33, 0xbe, 0xc1, 0x8a, 0x27, 0xbd, 0x10, 0xb0, 0x89, 0x3c, 0x64, 0x09, 0x2e, 0xbe, 0x13, 0x99, 0xac, 0x3d, 0x6e, 0x0c, 0x64, 0xbe, 0xf2, 0x32, 0x37, 0xbe, 0x75, 0xb9, 0xae, 0x3d, 0xc5, 0x0a, 0xbd, 0x3e, 0x30, 0xad, 0x23, 0xbc, 0x27, 0x59, 0xa3, 0x3e, 0x5c, 0x5e, 0x30, 0xbe, 0xcc, 0x82, 0x0c, 0x3e, 0xc9, 0x17, 0xde, 0xbe, 0xce, 0x2c, 0xb2, 0xbe, 0x39, 0xe8, 0x86, 0x3e, 0x66, 0x1b, 0x1e, 0xbf, 0x48, 0x77, 0x25, 0x3e, 0xcb, 0xd2, 0xdf, 0x3d, 0xf6, 0x49, 0x03, 0xbe, 0x97, 0xe3, 0x62, 0xbe, 0x25, 0x60, 0xfa, 0xbe, 0xed, 0x18, 0x77, 0xbc, 0xd0, 0xba, 0xe4, 0xbd, 0x50, 0x07, 0x71, 0xbe, 0x27, 0x12, 0x0c, 0xbe, 0xf6, 0x79, 0x59, 0x3c, 0x26, 0x24, 0x10, 0xbf, 0x92, 0x15, 0xd6, 0xbe, 0x6a, 0xb9, 0xee, 0xbc, 0xc9, 0x49, 0xc8, 0x3e, 0x48, 0x20, 0x00, 0xbf, 0xe2, 0xad, 0x47, 0x3e, 0x8e, 0xc5, 0xf9, 0xbd, 0x42, 0x21, 0xde, 0xbd, 0x6d, 0xd3, 0x9a, 0xbe, 0x53, 0x08, 0x26, 0x3e, 0x76, 0x83, 0x98, 0x3d, 0xc5, 0xaa, 0x45, 0x3e, 0x07, 0x6d, 0x25, 0xbf, 0xa0, 0xfb, 0x9c, 0xbe, 0x51, 0x2b, 0x23, 0x3d, 0x24, 0x2d, 0xe6, 0x3d, 0xd7, 0x96, 0x78, 0xbe, 0x99, 0x94, 0xd7, 0xbe, 0x46, 0xaa, 0x62, 0x3e, 0x13, 0x19, 0x1d, 0x3e, 0xde, 0xe5, 0x7d, 0x3d, 0x7c, 0x8b, 0x29, 0xbf, 0x38, 0x26, 0xdc, 0xbc, 0x46, 0xee, 0x32, 0x3e, 0xa9, 0x6b, 0x54, 0x3e, 0xe5, 0x42, 0x2a, 0xbe, 0x31, 0x32, 0x95, 0x3e, 0x88, 0x28, 0x28, 0x3e, 0xa5, 0x9b, 0x60, 0x3e, 0x04, 0x40, 0x2b, 0xbd, 0x80, 0xe2, 0x96, 0x3c, 0xc2, 0x72, 0x15, 0xbf, 0x08, 0xa7, 0x66, 0x3e, 0x6c, 0x15, 0x07, 0xbf, 0x8e, 0xda, 0xb8, 0x3d, 0x00, 0x7e, 0x94, 0x3d, 0x09, 0x65, 0x2e, 0x3e, 0x63, 0xbd, 0x49, 0x3e, 0xd5, 0x14, 0x42, 0x3d, 0x7d, 0xf1, 0xb7, 0xbe, 0x03, 0x21, 0x58, 0xbf, 0xd2, 0x62, 0x91, 0x3e, 0x4c, 0xb6, 0x44, 0xbe, 0x94, 0xca, 0x3d, 0x3d, 0xdd, 0x68, 0xcd, 0x3d, 0xf4, 0x4d, 0xd0, 0x3d, 0x9a, 0x7e, 0x50, 0x3e, 0x50, 0x64, 0x5c, 0xbd, 0xa9, 0x3a, 0x4b, 0x3e, 0x35, 0xd6, 0xef, 0xbd, 0x57, 0x98, 0x87, 0xbe, 0x8e, 0x58, 0x2a, 0x3e, 0x77, 0x72, 0x94, 0xbd, 0xd1, 0x32, 0x0d, 0xbf, 0x00, 0xc9, 0xd1, 0x3a, 0xb0, 0x84, 0xa1, 0x3e, 0xd9, 0x8c, 0x39, 0xbf, 0xa4, 0x1f, 0xac, 0xbc, 0x21, 0x4c, 0xa2, 0xbc, 0xdd, 0x2a, 0x0f, 0x3e, 0x82, 0xbe, 0x13, 0x3e, 0x76, 0x77, 0x59, 0xbf, 0x2c, 0xf7, 0x9a, 0x3d, 0x55, 0xf5, 0x3a, 0x3e, 0x4f, 0xef, 0x66, 0x3e, 0x32, 0x37, 0x00, 0xbd, 0x00, 0x29, 0x24, 0xbf, 0xd4, 0x02, 0xc6, 0x3d, 0x4d, 0xf3, 0xd9, 0xbe, 0xf8, 0x75, 0xc4, 0xbd, 0xe0, 0x0e, 0x80, 0x3d, 0x09, 0xc7, 0xd6, 0xbe, 0x5d, 0x9e, 0xec, 0xbc, 0xaf, 0x1d, 0xc0, 0xbd, 0x27, 0x68, 0x95, 0xbd, 0x10, 0xb7, 0x65, 0xbe, 0x00, 0xf1, 0xe8, 0x3a, 0xd7, 0x1d, 0xe7, 0x38, 0x20, 0x4e, 0x69, 0x3e, 0xa4, 0x3f, 0x91, 0xbe, 0xc4, 0xa7, 0x1e, 0xbe, 0x41, 0x2a, 0x54, 0xbf, 0x77, 0xb8, 0x53, 0x3e, 0x46, 0xde, 0x23, 0xbf, 0x02, 0x8d, 0xe2, 0xbd, 0x34, 0xe9, 0x40, 0x3e, 0x06, 0x21, 0xa8, 0x3d, 0x80, 0x4d, 0x92, 0xbb, 0x0b, 0x23, 0x6b, 0xbd, 0x14, 0x8d, 0x7e, 0xbc, 0x56, 0x24, 0xb0, 0xbd, 0x03, 0x2d, 0x31, 0xbf, 0x6d, 0xd3, 0xfe, 0xbe, 0x81, 0x78, 0x93, 0xbc, 0xb3, 0x86, 0x4b, 0x3e, 0x0e, 0x04, 0x40, 0xbe, 0x30, 0x13, 0x29, 0xbd, 0x62, 0xd5, 0x61, 0x3e, 0x0d, 0x33, 0x3e, 0xbb, 0xeb, 0x18, 0x67, 0xbe, 0x1c, 0x93, 0x60, 0x3e, 0x20, 0xc2, 0xbb, 0x3d, 0x4b, 0x57, 0xa0, 0xbd, 0x50, 0xd8, 0x5f, 0xbf, 0x5f, 0xff, 0x9f, 0x3e, 0x27, 0x60, 0x4a, 0xbe, 0x77, 0xa8, 0xfc, 0xbe, 0x69, 0x4b, 0x06, 0xbd, 0x69, 0x5a, 0x76, 0xbd, 0xa8, 0xad, 0xbb, 0x3c, 0x62, 0x91, 0x8a, 0x3e, 0xda, 0xd7, 0x00, 0xbf, 0xfd, 0x07, 0xa8, 0xbd, 0x93, 0x70, 0x57, 0xbb, 0x4d, 0xe2, 0x0e, 0xbe, 0xcc, 0x6b, 0x9c, 0xbe, 0x86, 0xf3, 0x06, 0xbd, 0x59, 0x1d, 0x99, 0x3d, 0xcb, 0xa5, 0x25, 0xbf, 0x4b, 0x98, 0xf9, 0xbd, 0x01, 0x24, 0x37, 0xbe, 0x31, 0x19, 0x0a, 0xbe, 0x28, 0xa5, 0x71, 0x3d, 0x72, 0xfb, 0x83, 0x3e, 0xb4, 0x37, 0xf2, 0xbc, 0x92, 0x4f, 0x10, 0xbe, 0x2b, 0x1f, 0x7c, 0x3e, 0x2c, 0x35, 0x4a, 0xbe, 0xd7, 0xde, 0xd3, 0x3c, 0x5f, 0x42, 0x15, 0xbe, 0x82, 0x4d, 0x90, 0xbd, 0xe8, 0x92, 0xf7, 0x3d, 0x58, 0x3b, 0x5d, 0x3e, 0x0d, 0x76, 0x11, 0x3f, 0x23, 0x3c, 0x04, 0x3e, 0x82, 0xaf, 0x35, 0x3c, 0x5f, 0x6a, 0x4b, 0x3c, 0x0d, 0x1e, 0xc2, 0xbc, 0x25, 0xc3, 0x08, 0xbd, 0x6b, 0x9d, 0x7b, 0xbd, 0x65, 0x18, 0x3a, 0xbe, 0x07, 0xda, 0x1a, 0xbd, 0x30, 0xbc, 0x49, 0x3e, 0x89, 0x06, 0xef, 0x3d, 0xd1, 0xe2, 0x03, 0xbe, 0xa8, 0x2c, 0x4b, 0x3e, 0xe0, 0x22, 0x63, 0xbd, 0x40, 0x38, 0x4b, 0x3c, 0x8b, 0x79, 0x32, 0x3d, 0xc1, 0xc8, 0x86, 0x3e, 0x20, 0x21, 0xe2, 0x3d, 0x2e, 0x3d, 0xe2, 0xbd, 0xb5, 0xa2, 0x18, 0x3e, 0x99, 0x96, 0xe6, 0xba, 0x7e, 0x56, 0x31, 0x3e, 0xf1, 0xf1, 0x27, 0xbe, 0x2f, 0xe3, 0xaa, 0x3e, 0x75, 0xe6, 0x46, 0xbd, 0x02, 0x09, 0x7d, 0xbe, 0x55, 0xc2, 0x45, 0xbe, 0xfc, 0xd6, 0xee, 0x3d, 0xb9, 0x03, 0xaf, 0x3d, 0x1e, 0x34, 0xa5, 0x3e, 0xb2, 0xee, 0x36, 0xbd, 0xb4, 0x34, 0xb4, 0xbd, 0x13, 0xab, 0x52, 0x3e, 0x66, 0x7d, 0x73, 0x3e, 0xa4, 0x82, 0x87, 0x3d, 0x62, 0xce, 0x5b, 0x3e, 0xdd, 0xaf, 0x85, 0xbe, 0x3a, 0x39, 0x12, 0x3e, 0xdf, 0x68, 0xc3, 0x3e, 0x66, 0xa3, 0xcb, 0x3e, 0xc8, 0x98, 0x43, 0xbe, 0x1f, 0x0c, 0xaa, 0xbd, 0x00, 0x60, 0xf8, 0x37, 0x56, 0xa3, 0x47, 0xbe, 0xa1, 0x89, 0x20, 0xbd, 0xa8, 0x48, 0x0e, 0xbe, 0x9a, 0x97, 0x8b, 0x3e, 0xb8, 0xee, 0x62, 0x3e, 0xff, 0xbc, 0xe7, 0xbd, 0x5e, 0xa8, 0x2f, 0xbe, 0xfd, 0xda, 0xb4, 0xbe, 0xe9, 0xb8, 0x63, 0x3e, 0xa0, 0xde, 0xdb, 0xbb, 0x29, 0x34, 0xa0, 0x3d, 0xef, 0xc0, 0xb0, 0x3e, 0xfd, 0x31, 0xac, 0x3e, 0x66, 0x93, 0x63, 0x3d, 0x60, 0x4f, 0x79, 0xbc, 0xeb, 0xef, 0x10, 0xbe, 0xdb, 0x13, 0xf0, 0x3d, 0x4f, 0x72, 0x88, 0x3e, 0xb2, 0x06, 0x8b, 0x3e, 0xc0, 0x7a, 0x05, 0x3e, 0x68, 0xd7, 0x18, 0xbe, 0xc2, 0x3b, 0x16, 0xbe, 0x03, 0x42, 0x8b, 0x3e, 0x16, 0x06, 0xc0, 0x3d, 0x5f, 0x40, 0x38, 0x3e, 0x9d, 0x78, 0x4e, 0x3e, 0xf4, 0xf2, 0x19, 0xbe, 0xa4, 0xa3, 0x10, 0xbe, 0xeb, 0xe3, 0x62, 0xbd, 0x42, 0xaf, 0x41, 0xbe, 0x2a, 0x6c, 0xc8, 0x3c, 0x3c, 0xc0, 0x09, 0xbe, 0x95, 0xa0, 0x43, 0xbe, 0x11, 0x71, 0x81, 0xbd, 0x05, 0x25, 0x34, 0x3d, 0x96, 0x4d, 0x63, 0x3e, 0xc6, 0xdb, 0xc5, 0x3d, 0x7f, 0xe6, 0x72, 0x3e, 0x63, 0x30, 0xc5, 0xbc, 0x08, 0xfa, 0x68, 0x3d, 0x33, 0x2a, 0x1f, 0x3e, 0x40, 0xd9, 0x52, 0x3e, 0x83, 0xa0, 0x98, 0xbe, 0x71, 0x59, 0xc6, 0xbe, 0x7b, 0x5f, 0xda, 0xbe, 0xfa, 0x68, 0xb6, 0x3e, 0xe4, 0x65, 0x98, 0x3d, 0xd7, 0x89, 0xd9, 0x3d, 0xb5, 0xd9, 0x25, 0x3e, 0x35, 0x26, 0xa6, 0x3c, 0x1b, 0xd8, 0x34, 0xbe, 0x4c, 0x57, 0x2a, 0xbe, 0xf6, 0x0c, 0x4d, 0x3e, 0xd9, 0x33, 0xc2, 0xbb, 0x08, 0x08, 0x3b, 0x3d, 0x91, 0x69, 0xa9, 0xbe, 0xf4, 0xb5, 0x58, 0x3e, 0x8f, 0x48, 0x0a, 0xbe, 0x48, 0x25, 0x26, 0xbd, 0x40, 0xb9, 0xab, 0xbe, 0x48, 0x67, 0x1f, 0xbe, 0x93, 0xc7, 0xab, 0xbe, 0xf6, 0x04, 0xcf, 0x3e, 0x96, 0x73, 0xeb, 0xbd, 0x9d, 0x67, 0xd6, 0x3e, 0x42, 0xa2, 0xf6, 0xbe, 0xf7, 0x2e, 0x4b, 0xbe, 0x6f, 0x75, 0x28, 0xbd, 0x55, 0x55, 0x9d, 0x3e, 0x00, 0x0f, 0xba, 0x3d, 0xaa, 0x74, 0xe7, 0xbd, 0x8c, 0x4b, 0x94, 0x3d, 0x38, 0x04, 0x82, 0xbe, 0x5b, 0xc8, 0x35, 0x3d, 0xc8, 0xf7, 0x79, 0x3d, 0xd0, 0x9b, 0xfc, 0xbc, 0xa7, 0xfc, 0x0b, 0x3e, 0x86, 0xa8, 0xc4, 0xbe, 0x38, 0x05, 0x46, 0x3d, 0xd4, 0x69, 0x72, 0xbe, 0x72, 0x09, 0xf4, 0xbd, 0x1a, 0xad, 0x20, 0xbd, 0x2a, 0x9f, 0xa7, 0x3e, 0xbd, 0x54, 0x88, 0x3e, 0xa6, 0xe7, 0xd8, 0x3d, 0x3b, 0x39, 0x35, 0xbe, 0xdd, 0xc5, 0x20, 0x3e, 0x1c, 0x84, 0xb4, 0x3e, 0x57, 0xd4, 0xc4, 0xbd, 0x75, 0xdd, 0x93, 0xbe, 0xee, 0xa0, 0xdb, 0x3d, 0x54, 0xd4, 0xfa, 0x3d, 0x06, 0xd5, 0xab, 0xbe, 0x37, 0x26, 0x81, 0x3e, 0x90, 0x0d, 0x6c, 0x3e, 0xe7, 0x1d, 0xb2, 0xbe, 0x2e, 0xfb, 0x51, 0xbe, 0xa9, 0x8a, 0x12, 0x3e, 0x3c, 0x5b, 0x96, 0xbd, 0xf8, 0xde, 0xa4, 0xbd, 0x00, 0xa1, 0x67, 0xbc, 0x9a, 0x1c, 0x61, 0x3c, 0xbf, 0x75, 0x66, 0xbe, 0x1c, 0xc4, 0xb5, 0xbc, 0x7f, 0x5e, 0x93, 0x3d, 0x22, 0x1e, 0xc4, 0x3e, 0xaa, 0x41, 0x83, 0x3e, 0x29, 0x03, 0xcf, 0x3e, 0x95, 0xc6, 0xaa, 0xbe, 0x2e, 0xec, 0x2e, 0x3e, 0x02, 0xa0, 0x8c, 0x3e, 0xe8, 0x14, 0x51, 0xbe, 0x3b, 0xd0, 0x40, 0xbe, 0x19, 0xba, 0x9c, 0xbd, 0x80, 0x16, 0x19, 0xbc, 0xdc, 0x8a, 0xf2, 0x3d, 0x98, 0x65, 0xc4, 0x3c, 0xb8, 0x80, 0x81, 0xbd, 0x4a, 0x47, 0xbd, 0xbe, 0xc8, 0x18, 0x30, 0xbe, 0xa8, 0x7c, 0x73, 0x3d, 0x40, 0xdd, 0x87, 0x3b, 0x85, 0xff, 0xb0, 0xbe, 0xe3, 0xd0, 0xe1, 0xbe, 0xb8, 0x04, 0xcb, 0xbe, 0x9a, 0x6f, 0xed, 0xbd, 0x8f, 0xeb, 0x54, 0xbe, 0x55, 0xc0, 0xc7, 0x3e, 0xe5, 0x74, 0xb8, 0xbe, 0x4c, 0xad, 0xf7, 0x3d, 0xd5, 0x27, 0x86, 0xbe, 0x51, 0x72, 0x45, 0xbb, 0x0b, 0xe7, 0xb7, 0x3d, 0x8d, 0x39, 0x3a, 0xbe, 0x83, 0x7e, 0xa7, 0xbe, 0xd0, 0xeb, 0x0f, 0xbd, 0xe4, 0xc0, 0x32, 0x3e, 0xf8, 0x42, 0xea, 0xbe, 0x04, 0x43, 0xc9, 0xbe, 0x21, 0x9b, 0xe4, 0xbe, 0x79, 0x87, 0x8f, 0xbe, 0x6d, 0xfa, 0x88, 0xbd, 0x72, 0x4e, 0xd9, 0x3e, 0x32, 0xfe, 0xff, 0xff, 0x04, 0x00, 0x00, 0x00, 0x80, 0x00, 0x00, 0x00, 0x00, 0x00, 0x00, 0x00, 0x00, 0x00, 0x00, 0x00, 0x00, 0x00, 0x00, 0x00, 0x00, 0x00, 0x00, 0x00, 0x00, 0x00, 0x00, 0x00, 0x00, 0x00, 0x00, 0x00, 0x00, 0x00, 0x00, 0x00, 0x00, 0x00, 0x00, 0x00, 0x00, 0x00, 0x00, 0x00, 0x00, 0x00, 0x00, 0x00, 0x00, 0x00, 0x00, 0x00, 0x00, 0x00, 0x00, 0x00, 0x00, 0x00, 0x00, 0x00, 0x00, 0x00, 0x00, 0x00, 0x00, 0x00, 0x00, 0x00, 0x00, 0x00, 0x00, 0x00, 0x00, 0x00, 0x00, 0x00, 0x00, 0x00, 0x00, 0x00, 0x00, 0x00, 0x00, 0x00, 0x00, 0x00, 0x00, 0x00, 0x00, 0x00, 0x00, 0x00, 0x00, 0x00, 0x00, 0x00, 0x00, 0x00, 0x00, 0x00, 0x00, 0x00, 0x00, 0x00, 0x00, 0x00, 0x00, 0x00, 0x00, 0x00, 0x00, 0x00, 0x00, 0x00, 0x00, 0x00, 0x00, 0x00, 0x00, 0x00, 0x00, 0x00, 0x00, 0x00, 0x00, 0x00, 0x00, 0x00, 0x00, 0x00, 0x00, 0x00, 0x00, 0x00, 0x00, 0x00, 0xbe, 0xfe, 0xff, 0xff, 0x04, 0x00, 0x00, 0x00, 0x80, 0x00, 0x00, 0x00, 0x86, 0xba, 0xf5, 0xbe, 0x70, 0x42, 0xba, 0x3e, 0xbb, 0x79, 0x03, 0x3f, 0x71, 0x7c, 0xa4, 0x3e, 0x34, 0xe4, 0xf6, 0xbe, 0xf2, 0xf0, 0x19, 0xbb, 0x13, 0xc9, 0x5a, 0x3e, 0xef, 0x0f, 0x00, 0xbf, 0x6c, 0x32, 0xd7, 0xbe, 0xe2, 0xec, 0x83, 0x3e, 0xc1, 0x55, 0x25, 0x3f, 0x3e, 0x00, 0xaf, 0x3e, 0x20, 0x2f, 0x5f, 0xbe, 0x3c, 0x8b, 0x17, 0xbf, 0x52, 0x81, 0xb0, 0x3e, 0x5c, 0xfc, 0x86, 0xbb, 0x9a, 0x49, 0x40, 0x3e, 0x32, 0x3f, 0x6c, 0xbe, 0x1c, 0xde, 0xd3, 0x3e, 0xc1, 0x65, 0x5f, 0xbe, 0x86, 0xae, 0x05, 0x3f, 0x5d, 0xd0, 0xc2, 0xbe, 0x7e, 0x21, 0x94, 0x3e, 0x6e, 0x09, 0x1e, 0x3f, 0x9c, 0x69, 0x04, 0x3f, 0xeb, 0x59, 0xbb, 0xbe, 0x90, 0x9b, 0x84, 0x3e, 0x92, 0x99, 0xbe, 0xbe, 0xd2, 0x38, 0x15, 0xbf, 0x6e, 0x7e, 0x5c, 0x3e, 0x72, 0x2c, 0x57, 0x3e, 0x6c, 0xdb, 0xcd, 0x3e, 0x4a, 0xff, 0xff, 0xff, 0x04, 0x00, 0x00, 0x00, 0x0c, 0x00, 0x00, 0x00, 0xff, 0xff, 0xff, 0xff, 0x01, 0x00, 0x00, 0x00, 0x20, 0x00, 0x00, 0x00, 0xa4, 0xf4, 0xff, 0xff, 0xa8, 0xf4, 0xff, 0xff, 0x0f, 0x00, 0x00, 0x00, 0x4d, 0x4c, 0x49, 0x52, 0x20, 0x43, 0x6f, 0x6e, 0x76, 0x65, 0x72, 0x74, 0x65, 0x64, 0x2e, 0x00, 0x01, 0x00, 0x00, 0x00, 0x14, 0x00, 0x00, 0x00, 0x00, 0x00, 0x0e, 0x00, 0x18, 0x00, 0x14, 0x00, 0x10, 0x00, 0x0c, 0x00, 0x08, 0x00, 0x04, 0x00, 0x0e, 0x00, 0x00, 0x00, 0x14, 0x00, 0x00, 0x00, 0x1c, 0x00, 0x00, 0x00, 0x8c, 0x02, 0x00, 0x00, 0x90, 0x02, 0x00, 0x00, 0x94, 0x02, 0x00, 0x00, 0x04, 0x00, 0x00, 0x00, 0x6d, 0x61, 0x69, 0x6e, 0x00, 0x00, 0x00, 0x00, 0x0a, 0x00, 0x00, 0x00, 0x44, 0x02, 0x00, 0x00, 0xe4, 0x01, 0x00, 0x00, 0xac, 0x01, 0x00, 0x00, 0x60, 0x01, 0x00, 0x00, 0x30, 0x01, 0x00, 0x00, 0xdc, 0x00, 0x00, 0x00, 0xb4, 0x00, 0x00, 0x00, 0x78, 0x00, 0x00, 0x00, 0x40, 0x00, 0x00, 0x00, 0x04, 0x00, 0x00, 0x00, 0x4e, 0xfe, 0xff, 0xff, 0x1c, 0x00, 0x00, 0x00, 0x00, 0x00, 0x00, 0x09, 0x1c, 0x00, 0x00, 0x00, 0x20, 0x00, 0x00, 0x00, 0x06, 0x00, 0x00, 0x00, 0x00, 0x00, 0x06, 0x00, 0x08, 0x00, 0x04, 0x00, 0x06, 0x00, 0x00, 0x00, 0x00, 0x00, 0x80, 0x3f, 0x01, 0x00, 0x00, 0x00, 0x15, 0x00, 0x00, 0x00, 0x01, 0x00, 0x00, 0x00, 0x14, 0x00, 0x00, 0x00, 0x86, 0xfe, 0xff, 0xff, 0x14, 0x00, 0x00, 0x00, 0x00, 0x00, 0x00, 0x08, 0x10, 0x00, 0x00, 0x00, 0x14, 0x00, 0x00, 0x00, 0x05, 0x00, 0x00, 0x00, 0x78, 0xf5, 0xff, 0xff, 0x01, 0x00, 0x00, 0x00, 0x14, 0x00, 0x00, 0x00, 0x03, 0x00, 0x00, 0x00, 0x13, 0x00, 0x00, 0x00, 0x04, 0x00, 0x00, 0x00, 0x08, 0x00, 0x00, 0x00, 0xba, 0xfe, 0xff, 0xff, 0x14, 0x00, 0x00, 0x00, 0x00, 0x00, 0x00, 0x08, 0x14, 0x00, 0x00, 0x00, 0x18, 0x00, 0x00, 0x00, 0x05, 0x00, 0x00, 0x00, 0x26, 0xff, 0xff, 0xff, 0x00, 0x00, 0x00, 0x01, 0x01, 0x00, 0x00, 0x00, 0x13, 0x00, 0x00, 0x00, 0x03, 0x00, 0x00, 0x00, 0x12, 0x00, 0x00, 0x00, 0x05, 0x00, 0x00, 0x00, 0x07, 0x00, 0x00, 0x00, 0x22, 0xff, 0xff, 0xff, 0x0c, 0x00, 0x00, 0x00, 0x10, 0x00, 0x00, 0x00, 0x02, 0x00, 0x00, 0x00, 0x01, 0x00, 0x00, 0x00, 0x12, 0x00, 0x00, 0x00, 0x02, 0x00, 0x00, 0x00, 0x11, 0x00, 0x00, 0x00, 0x0a, 0x00, 0x00, 0x00, 0x16, 0xff, 0xff, 0xff, 0x24, 0x00, 0x00, 0x00, 0x00, 0x00, 0x00, 0x05, 0x34, 0x00, 0x00, 0x00, 0x38, 0x00, 0x00, 0x00, 0x04, 0x00, 0x00, 0x00, 0x00, 0x00, 0x0e, 0x00, 0x18, 0x00, 0x17, 0x00, 0x10, 0x00, 0x0c, 0x00, 0x08, 0x00, 0x04, 0x00, 0x0e, 0x00, 0x00, 0x00, 0x01, 0x00, 0x00, 0x00, 0x01, 0x00, 0x00, 0x00, 0x01, 0x00, 0x00, 0x00, 0x01, 0x00, 0x00, 0x00, 0x00, 0x00, 0x00, 0x01, 0x01, 0x00, 0x00, 0x00, 0x11, 0x00, 0x00, 0x00, 0x01, 0x00, 0x00, 0x00, 0x10, 0x00, 0x00, 0x00, 0x0a, 0xff, 0xff, 0xff, 0x10, 0x00, 0x00, 0x00, 0x00, 0x00, 0x00, 0x34, 0x0c, 0x00, 0x00, 0x00, 0x10, 0x00, 0x00, 0x00, 0x54, 0xf6, 0xff, 0xff, 0x01, 0x00, 0x00, 0x00, 0x10, 0x00, 0x00, 0x00, 0x02, 0x00, 0x00, 0x00, 0x0f, 0x00, 0x00, 0x00, 0x09, 0x00, 0x00, 0x00, 0x92, 0xff, 0xff, 0xff, 0x1c, 0x00, 0x00, 0x00, 0x00, 0x00, 0x00, 0x0b, 0x1c, 0x00, 0x00, 0x00, 0x20, 0x00, 0x00, 0x00, 0x03, 0x00, 0x00, 0x00, 0x00, 0x00, 0x06, 0x00, 0x08, 0x00, 0x07, 0x00, 0x06, 0x00, 0x00, 0x00, 0x00, 0x00, 0x00, 0x01, 0x01, 0x00, 0x00, 0x00, 0x0f, 0x00, 0x00, 0x00, 0x02, 0x00, 0x00, 0x00, 0x0e, 0x00, 0x00, 0x00, 0x06, 0x00, 0x00, 0x00, 0x00, 0x00, 0x0a, 0x00, 0x10, 0x00, 0x0c, 0x00, 0x08, 0x00, 0x04, 0x00, 0x0a, 0x00, 0x00, 0x00, 0x0c, 0x00, 0x00, 0x00, 0x10, 0x00, 0x00, 0x00, 0x02, 0x00, 0x00, 0x00, 0x01, 0x00, 0x00, 0x00, 0x0e, 0x00, 0x00, 0x00, 0x02, 0x00, 0x00, 0x00, 0x0d, 0x00, 0x00, 0x00, 0x01, 0x00, 0x00, 0x00, 0x00, 0x00, 0x0e, 0x00, 0x1a, 0x00, 0x14, 0x00, 0x10, 0x00, 0x0c, 0x00, 0x0b, 0x00, 0x04, 0x00, 0x0e, 0x00, 0x00, 0x00, 0x20, 0x00, 0x00, 0x00, 0x00, 0x00, 0x00, 0x01, 0x28, 0x00, 0x00, 0x00, 0x2c, 0x00, 0x00, 0x00, 0x01, 0x00, 0x00, 0x00, 0x00, 0x00, 0x0a, 0x00, 0x10, 0x00, 0x0f, 0x00, 0x08, 0x00, 0x04, 0x00, 0x0a, 0x00, 0x00, 0x00, 0x01, 0x00, 0x00, 0x00, 0x01, 0x00, 0x00, 0x00, 0x00, 0x00, 0x00, 0x01, 0x01, 0x00, 0x00, 0x00, 0x0d, 0x00, 0x00, 0x00, 0x03, 0x00, 0x00, 0x00, 0x0c, 0x00, 0x00, 0x00, 0x02, 0x00, 0x00, 0x00, 0x03, 0x00, 0x00, 0x00, 0x00, 0x00, 0x0e, 0x00, 0x14, 0x00, 0x00, 0x00, 0x10, 0x00, 0x0c, 0x00, 0x0b, 0x00, 0x04, 0x00, 0x0e, 0x00, 0x00, 0x00, 0x10, 0x00, 0x00, 0x00, 0x00, 0x00, 0x00, 0x34, 0x0c, 0x00, 0x00, 0x00, 0x10, 0x00, 0x00, 0x00, 0x58, 0xf7, 0xff, 0xff, 0x01, 0x00, 0x00, 0x00, 0x0c, 0x00, 0x00, 0x00, 0x02, 0x00, 0x00, 0x00, 0x00, 0x00, 0x00, 0x00, 0x0b, 0x00, 0x00, 0x00, 0x01, 0x00, 0x00, 0x00, 0x15, 0x00, 0x00, 0x00, 0x01, 0x00, 0x00, 0x00, 0x00, 0x00, 0x00, 0x00, 0x16, 0x00, 0x00, 0x00, 0xd4, 0x07, 0x00, 0x00, 0x7c, 0x07, 0x00, 0x00, 0x1c, 