#ifndef MODELO_ENTRENADO_H
#define MODELO_ENTRENADO_H
unsigned char modelo_entrenado_tflite[] = {
    0x1c, 0x00, 0x00, 0x00, 0x54, 0x46, 0x4c, 0x33, 0x14, 0x00, 0x20, 0x00, 
    0x1c, 0x00, 0x18, 0x00, 0x14, 0x00, 0x10, 0x00, 0x0c, 0x00, 0x00, 0x00, 
    0x08, 0x00, 0x04, 0x00, 0x14, 0x00, 0x00, 0x00, 0x1c, 0x00, 0x00, 0x00, 
    0x88, 0x00, 0x00, 0x00, 0xe0, 0x00, 0x00, 0x00, 0x90, 0x3f, 0x00, 0x00, 
    0xa0, 0x3f, 0x00, 0x00, 0x98, 0x4a, 0x00, 0x00, 0x03, 0x00, 0x00, 0x00, 
    0x01, 0x00, 0x00, 0x00, 0x04, 0x00, 0x00, 0x00, 0x8a, 0xbe, 0xff, 0xff, 
    0x0c, 0x00, 0x00, 0x00, 0x1c, 0x00, 0x00, 0x00, 0x3c, 0x00, 0x00, 0x00, 
    0x0f, 0x00, 0x00, 0x00, 0x73, 0x65, 0x72, 0x76, 0x69, 0x6e, 0x67, 0x5f, 
    0x64, 0x65, 0x66, 0x61, 0x75, 0x6c, 0x74, 0x00, 0x01, 0x00, 0x00, 0x00, 
    0x04, 0x00, 0x00, 0x00, 0x94, 0xff, 0xff, 0xff, 0x15, 0x00, 0x00, 0x00, 
    0x04, 0x00, 0x00, 0x00, 0x08, 0x00, 0x00, 0x00, 0x6f, 0x75, 0x74, 0x70, 
    0x75, 0x74, 0x5f, 0x30, 0x00, 0x00, 0x00, 0x00, 0x01, 0x00, 0x00, 0x00, 
    0x04, 0x00, 0x00, 0x00, 0x42, 0xc0, 0xff, 0xff, 0x04, 0x00, 0x00, 0x00, 
    0x0b, 0x00, 0x00, 0x00, 0x69, 0x6e, 0x70, 0x75, 0x74, 0x5f, 0x6c, 0x61, 
    0x79, 0x65, 0x72, 0x00, 0x02, 0x00, 0x00, 0x00, 0x34, 0x00, 0x00, 0x00, 
    0x04, 0x00, 0x00, 0x00, 0xdc, 0xff, 0xff, 0xff, 0x18, 0x00, 0x00, 0x00, 
    0x04, 0x00, 0x00, 0x00, 0x13, 0x00, 0x00, 0x00, 0x43, 0x4f, 0x4e, 0x56, 
    0x45, 0x52, 0x53, 0x49, 0x4f, 0x4e, 0x5f, 0x4d, 0x45, 0x54, 0x41, 0x44, 
    0x41, 0x54, 0x41, 0x00, 0x08, 0x00, 0x0c, 0x00, 0x08, 0x00, 0x04, 0x00, 
    0x08, 0x00, 0x00, 0x00, 0x17, 0x00, 0x00, 0x00, 0x04, 0x00, 0x00, 0x00, 
    0x13, 0x00, 0x00, 0x00, 0x6d, 0x69, 0x6e, 0x5f, 0x72, 0x75, 0x6e, 0x74, 
    0x69, 0x6d, 0x65, 0x5f, 0x76, 0x65, 0x72, 0x73, 0x69, 0x6f, 0x6e, 0x00, 
    0x19, 0x00, 0x00, 0x00, 0xac, 0x3e, 0x00, 0x00, 0xa4, 0x3e, 0x00, 0x00, 
    0x88, 0x3e, 0x00, 0x00, 0xf8, 0x3d, 0x00, 0x00, 0x68, 0x3d, 0x00, 0x00, 
    0x88, 0x35, 0x00, 0x00, 0x78, 0x03, 0x00, 0x00, 0xe8, 0x02, 0x00, 0x00, 
    0x48, 0x01, 0x00, 0x00, 0x24, 0x01, 0x00, 0x00, 0x10, 0x01, 0x00, 0x00, 
    0xf8, 0x00, 0x00, 0x00, 0xe4, 0x00, 0x00, 0x00, 0xdc, 0x00, 0x00, 0x00, 
    0xd4, 0x00, 0x00, 0x00, 0xcc, 0x00, 0x00, 0x00, 0xc4, 0x00, 0x00, 0x00, 
    0xbc, 0x00, 0x00, 0x00, 0xb4, 0x00, 0x00, 0x00, 0xac, 0x00, 0x00, 0x00, 
    0xa4, 0x00, 0x00, 0x00, 0x9c, 0x00, 0x00, 0x00, 0x94, 0x00, 0x00, 0x00, 
    0x74, 0x00, 0x00, 0x00, 0x04, 0x00, 0x00, 0x00, 0x1e, 0xc1, 0xff, 0xff, 
    0x04, 0x00, 0x00, 0x00, 0x60, 0x00, 0x00, 0x00, 0x10, 0x00, 0x00, 0x00, 
    0x00, 0x00, 0x00, 0x00, 0x08, 0x00, 0x0e, 0x00, 0x08, 0x00, 0x04, 0x00, 
    0x08, 0x00, 0x00, 0x00, 0x10, 0x00, 0x00, 0x00, 0x24, 0x00, 0x00, 0x00, 
    0x00, 0x00, 0x06, 0x00, 0x08, 0x00, 0x04, 0x00, 0x06, 0x00, 0x00, 0x00, 
    0x04, 0x00, 0x00, 0x00, 0x00, 0x00, 0x00, 0x00, 0x0c, 0x00, 0x18, 0x00, 
    0x14, 0x00, 0x10, 0x00, 0x0c, 0x00, 0x04, 0x00, 0x0c, 0x00, 0x00, 0x00, 
    0x81, 0x83, 0xef, 0xb1, 0xee, 0x3f, 0x53, 0x53, 0x02, 0x00, 0x00, 0x00, 
    0x02, 0x00, 0x00, 0x00, 0x04, 0x00, 0x00, 0x00, 0x06, 0x00, 0x00, 0x00, 
    0x32, 0x2e, 0x31, 0x37, 0x2e, 0x30, 0x00, 0x00, 0x8a, 0xc1, 0xff, 0xff, 
    0x04, 0x00, 0x00, 0x00, 0x10, 0x00, 0x00, 0x00, 0x31, 0x2e, 0x31, 0x30, 
    0x2e, 0x30, 0x00, 0x00, 0x00, 0x00, 0x00, 0x00, 0x00, 0x00, 0x00, 0x00, 
    0xe8, 0xb6, 0xff, 0xff, 0xec, 0xb6, 0xff, 0xff, 0xf0, 0xb6, 0xff, 0xff, 
    0xf4, 0xb6, 0xff, 0xff, 0xf8, 0xb6, 0xff, 0xff, 0xfc, 0xb6, 0xff, 0xff, 
    0x00, 0xb7, 0xff, 0xff, 0x04, 0xb7, 0xff, 0xff, 0x08, 0xb7, 0xff, 0xff, 
    0x0c, 0xb7, 0xff, 0xff, 0xce, 0xc1, 0xff, 0xff, 0x04, 0x00, 0x00, 0x00, 
    0x04, 0x00, 0x00, 0x00, 0xfd, 0xff, 0xff, 0xff, 0xde, 0xc1, 0xff, 0xff, 
    0x04, 0x00, 0x00, 0x00, 0x08, 0x00, 0x00, 0x00, 0xff, 0xff, 0xff, 0xff, 
    0x20, 0x00, 0x00, 0x00, 0xf2, 0xc1, 0xff, 0xff, 0x04, 0x00, 0x00, 0x00, 
    0x04, 0x00, 0x00, 0x00, 0x01, 0x00, 0x00, 0x00, 0x02, 0xc2, 0xff, 0xff, 
    0x04, 0x00, 0x00, 0x00, 0x14, 0x00, 0x00, 0x00, 0xa0, 0xf2, 0x5c, 0x3d, 
    0x20, 0x67, 0xd1, 0xbd, 0xad, 0x7e, 0xee, 0xbd, 0x50, 0x45, 0xdd, 0x3d, 
    0x4e, 0xf2, 0xcd, 0x3d, 0x22, 0xc2, 0xff, 0xff, 0x04, 0x00, 0x00, 0x00, 
    0x90, 0x01, 0x00, 0x00, 0x00, 0x00, 0x00, 0x00, 0x2c, 0x02, 0x31, 0xbe, 
    0xb6, 0x64, 0x0d, 0x3e, 0x13, 0xdf, 0x76, 0x3d, 0x00, 0x00, 0x00, 0x00, 
    0x5a, 0x3d, 0x68, 0xbe, 0x85, 0xdc, 0x72, 0x3e, 0x47, 0x95, 0x02, 0xbe, 
    0xe3, 0x85, 0x7c, 0xbd, 0x00, 0x00, 0x00, 0x00, 0x27, 0x59, 0x12, 0x3e, 
    0x00, 0x00, 0x00, 0x00, 0x40, 0x7c, 0x39, 0x3e, 0x06, 0x66, 0x00, 0xbd, 
    0xd7, 0x9f, 0xa5, 0x3d, 0xde, 0x5e, 0x3a, 0x3e, 0xb3, 0x7c, 0x86, 0x3e, 
    0x6d, 0x27, 0x0f, 0x3d, 0x4e, 0x21, 0x7f, 0x3e, 0xd7, 0x52, 0x09, 0xbe, 
    0xd0, 0x2a, 0x24, 0x3e, 0x70, 0x39, 0x7b, 0x3e, 0xab, 0x67, 0x6c, 0xbc, 
    0x65, 0x52, 0x05, 0x3e, 0xdb, 0x57, 0xfc, 0x3c, 0xe5, 0xb8, 0xa9, 0xbb, 
    0xde, 0x58, 0x6f, 0xbc, 0x54, 0xe6, 0x23, 0xbe, 0xc9, 0xd1, 0x22, 0x3e, 
    0x1c, 0x03, 0x17, 0x3e, 0x6b, 0xe7, 0x54, 0xbd, 0xf4, 0x0c, 0x65, 0x3e, 
    0x0e, 0x6f, 0x6d, 0x3e, 0xbd, 0x33, 0x45, 0xbe, 0xfb, 0x2c, 0xfc, 0x3d, 
    0x3a, 0x36, 0x04, 0x3e, 0x1d, 0x94, 0x9a, 0xbd, 0xc0, 0x94, 0x3d, 0x3e, 
    0x58, 0x80, 0x9e, 0xbc, 0xd4, 0x3e, 0x4b, 0x3e, 0xb7, 0x88, 0xa7, 0x3d, 
    0xd5, 0x94, 0x23, 0xbe, 0x67, 0x7a, 0x87, 0x3e, 0x36, 0x2f, 0x5b, 0xbe, 
    0xad, 0x67, 0xfd, 0x3d, 0x9f, 0x2f, 0xd3, 0x3d, 0x00, 0x00, 0x00, 0x00, 
    0x81, 0x19, 0x2c, 0x3e, 0x51, 0x53, 0x8c, 0xbe, 0x6f, 0x11, 0x79, 0xbc, 
    0x10, 0x63, 0x1a, 0xbd, 0x0c, 0xb6, 0x29, 0x3e, 0xbd, 0x5d, 0x75, 0xbc, 
    0xe0, 0x5b, 0x92, 0xbc, 0x79, 0xbf, 0xae, 0xbd, 0x45, 0x79, 0x0b, 0x3e, 
    0x4f, 0x98, 0x4e, 0xbc, 0x4e, 0x51, 0x65, 0x3c, 0x15, 0x9e, 0x62, 0x3d, 
    0x65, 0x8c, 0x84, 0x3e, 0xf4, 0x0b, 0xb4, 0xbc, 0xf8, 0xb5, 0x9d, 0xbc, 
    0x50, 0x3a, 0xc2, 0x3b, 0x2b, 0x52, 0x4b, 0xbd, 0x88, 0xbf, 0x61, 0xbc, 
    0xe2, 0x41, 0xfc, 0x3d, 0x89, 0xd1, 0x15, 0xbe, 0xe3, 0xfe, 0x10, 0x3e, 
    0x20, 0xdc, 0x64, 0xbc, 0x38, 0xef, 0xa8, 0xbb, 0xd6, 0xf2, 0xf3, 0xbd, 
    0x7a, 0x15, 0x5d, 0x3e, 0xde, 0x18, 0xd4, 0xbc, 0x81, 0x60, 0x32, 0xbe, 
    0x3d, 0xf9, 0xbb, 0xbd, 0xc4, 0x6a, 0x66, 0x3e, 0xa7, 0xfb, 0x21, 0xbe, 
    0xd5, 0xaa, 0xfd, 0xbc, 0x00, 0x00, 0x00, 0x00, 0x00, 0x00, 0x00, 0x00, 
    0x00, 0x00, 0x00, 0x00, 0x19, 0x36, 0x28, 0xbc, 0xb2, 0x36, 0x38, 0x3e, 
    0x1e, 0x5b, 0x82, 0xba, 0x7c, 0xc2, 0x53, 0x3e, 0x9a, 0x06, 0x26, 0x3e, 
    0xd9, 0x4b, 0x98, 0xbe, 0x0c, 0x15, 0xd9, 0xbc, 0xed, 0xc1, 0x93, 0xbc, 
    0xc1, 0x1b, 0xeb, 0x3d, 0xf9, 0x2e, 0x4a, 0xbe, 0x5b, 0x13, 0x05, 0x3d, 
    0xd3, 0xe5, 0x38, 0x3e, 0xa9, 0x37, 0x06, 0x3e, 0xd3, 0xb3, 0x00, 0x3e, 
    0xe3, 0x9e, 0xa2, 0xbc, 0x2d, 0x07, 0x6b, 0xbc, 0x52, 0xfb, 0x0f, 0x3e, 
    0x1a, 0xa8, 0x0b, 0x3e, 0x06, 0x18, 0x02, 0x3e, 0xbe, 0xc3, 0xff, 0xff, 
    0x04, 0x00, 0x00, 0x00, 0x80, 0x00, 0x00, 0x00, 0x3e, 0x38, 0xa5, 0xbd, 
    0x78, 0x8b, 0x58, 0xbe, 0x3a, 0xc9, 0xf0, 0x3d, 0xb7, 0xe9, 0x14, 0xbe, 
    0xce, 0x6c, 0x98, 0x3e, 0x1b, 0x81, 0x9b, 0x3e, 0xec, 0x8c, 0x8d, 0x3d, 
    0x66, 0x86, 0x9a, 0x3d, 0x27, 0xdc, 0x1e, 0x3e, 0xd4, 0x1b, 0x8e, 0x3d, 
    0xd9, 0x25, 0x2a, 0xbe, 0x20, 0x5f, 0x76, 0x3e, 0x84, 0xca, 0x2d, 0xbe, 
    0x57, 0xce, 0x08, 0xbe, 0xf4, 0xba, 0xc1, 0xbd, 0xc6, 0xc9, 0x24, 0xbe, 
    0xf4, 0x40, 0x80, 0xbd, 0x90, 0x62, 0x96, 0x3e, 0x2b, 0x07, 0x46, 0xbc, 
    0x5f, 0x87, 0x13, 0x3e, 0xe5, 0x39, 0x9f, 0x3e, 0x33, 0xd8, 0x1b, 0xbe, 
    0x6a, 0xad, 0x64, 0xbb, 0xcb, 0xb7, 0x13, 0xbe, 0x34, 0x81, 0x83, 0x3d, 
    0xa8, 0x88, 0xf2, 0x3d, 0xa1, 0x44, 0x28, 0xbe, 0xf2, 0x48, 0x84, 0x3d, 
    0x2e, 0x4f, 0x62, 0x3e, 0x74, 0x71, 0x2b, 0x3e, 0xc5, 0xf2, 0xb0, 0x3e, 
    0x08, 0x1e, 0x80, 0x3e, 0x4a, 0xc4, 0xff, 0xff, 0x04, 0x00, 0x00, 0x00, 
    0x00, 0x32, 0x00, 0x00, 0x10, 0x03, 0xa9, 0x3c, 0x6e, 0x8d, 0x3d, 0x3e, 
    0x10, 0xa4, 0x09, 0x3d, 0x3c, 0x71, 0x2c, 0xbd, 0xb0, 0x94, 0x92, 0xbd, 
    0x85, 0x10, 0x4f, 0xbe, 0x70, 0xc5, 0x3a, 0x3c, 0x16, 0x89, 0xab, 0xbd, 
    0x19, 0xbb, 0x54, 0xbe, 0xca, 0x6b, 0x00, 0xbe, 0xa1, 0xcc, 0x2b, 0xbe, 
    0x58, 0x80, 0xf7, 0x3d, 0x70, 0x37, 0x1d, 0x3d, 0xbd, 0xa4, 0x0e, 0xbe, 
    0xcd, 0x69, 0x1d, 0xbe, 0x64, 0x5d, 0x9f, 0x3d, 0x83, 0xdd, 0x3b, 0xbe, 
    0x70, 0x6a, 0x6e, 0xbc, 0x8c, 0x94, 0xcc, 0x3d, 0xc1, 0xe7, 0xb6, 0xbd, 
    0x7b, 0xf5, 0x25, 0xbe, 0xb1, 0x62, 0xd9, 0xbd, 0x52, 0xb9, 0xac, 0xbd, 
    0xc1, 0x54, 0x36, 0xbe, 0xf4, 0x8e, 0xd6, 0xbd, 0x5f, 0xa0, 0x35, 0xbe, 
    0x16, 0x0e, 0x41, 0x3e, 0x84, 0x35, 0x8a, 0x3d, 0xa4, 0x5b, 0x72, 0xbd, 
    0xa4, 0x83, 0x54, 0xbe, 0x97, 0x6d, 0xb5, 0xbd, 0xa6, 0xab, 0x47, 0x3e, 
    0xd8, 0x4c, 0x92, 0x3d, 0x5e, 0x13, 0x91, 0x3d, 0x94, 0x9a, 0x58, 0xbd, 
    0xa8, 0x65, 0x3c, 0x3e, 0x0f, 0xd1, 0x3c, 0x3d, 0x28, 0x8f, 0xc6, 0xbd, 
    0x50, 0xb9, 0xed, 0x3d, 0xd6, 0x2d, 0x59, 0xbe, 0x7d, 0xef, 0x9f, 0xbd, 
    0x60, 0x6b, 0x99, 0x3b, 0xf1, 0xbf, 0x7f, 0x3e, 0x24, 0x41, 0x6f, 0x3d, 
    0x43, 0xa0, 0x65, 0x3e, 0x8a, 0x27, 0x35, 0xbe, 0x22, 0x38, 0x85, 0x3e, 
    0x59, 0x44, 0x2c, 0x3e, 0x12, 0x64, 0xf4, 0xbd, 0xa7, 0x83, 0x6b, 0xbc, 
    0xf6, 0x6a, 0x5d, 0x3c, 0xeb, 0x64, 0xeb, 0xbd, 0x69, 0x71, 0x83, 0x3c, 
    0xe6, 0x41, 0xeb, 0xbd, 0x39, 0x2d, 0x71, 0xbd, 0xf0, 0x8b, 0x47, 0x3e, 
    0x14, 0xce, 0x38, 0x3e, 0x8c, 0xc2, 0x41, 0xbe, 0xf5, 0xbf, 0x1f, 0x3d, 
    0xb0, 0xb2, 0x2a, 0x3c, 0x38, 0x93, 0xe6, 0xbc, 0x85, 0x39, 0x17, 0x3e, 
    0xfd, 0xe6, 0xed, 0xbd, 0x94, 0x63, 0x18, 0xbd, 0x2d, 0x85, 0x22, 0xbe, 
    0xe2, 0x12, 0x97, 0xbe, 0xa2, 0x87, 0xe9, 0xbe, 0xe4, 0x0b, 0xf7, 0x3c, 
    0x5b, 0xbc, 0xa7, 0x3d, 0xda, 0x4d, 0xda, 0xbd, 0xd1, 0xa8, 0x32, 0xbe, 
    0xd9, 0xad, 0xa0, 0x3e, 0x38, 0x3f, 0x30, 0x3e, 0x88, 0x22, 0xf3, 0xbe, 
    0x55, 0x2e, 0x8b, 0xbe, 0xed, 0x49, 0x14, 0x3e, 0x7b, 0xb5, 0x1b, 0xbe, 
    0x1c, 0x2c, 0x32, 0x3d, 0xcc, 0x8d, 0x2e, 0xbe, 0xf8, 0x0b, 0xca, 0xbe, 
    0xfd, 0x89, 0x66, 0xbe, 0xc7, 0x69, 0x4b, 0x3e, 0x02, 0x99, 0x1b, 0xbe, 
    0xc9, 0x9e, 0x2b, 0xbe, 0xe4, 0x58, 0xd9, 0x3d, 0x4e, 0x69, 0x32, 0x3c, 
    0x61, 0xd2, 0x01, 0xbd, 0xcd, 0xb2, 0x94, 0xbe, 0xf5, 0xb5, 0x02, 0xbf, 
    0x27, 0x0e, 0xd9, 0xbe, 0xf0, 0x20, 0x8d, 0xbe, 0x35, 0x08, 0xef, 0xbe, 
    0x6f, 0x08, 0x71, 0x3e, 0xdc, 0x60, 0xa1, 0x3d, 0x2a, 0x03, 0x40, 0x3e, 
    0xf1, 0x30, 0x9b, 0xbd, 0x0a, 0xf8, 0xd0, 0x3d, 0x5e, 0xa1, 0x8f, 0xbe, 
    0xec, 0xe0, 0x3b, 0x3e, 0x17, 0xaa, 0xb7, 0xbd, 0xdf, 0xba, 0xc6, 0x3d, 
    0x7e, 0x32, 0x8e, 0x3d, 0xd1, 0x8d, 0x14, 0x3e, 0x69, 0xbb, 0x36, 0x3d, 
    0xcb, 0x42, 0x0f, 0xbe, 0x51, 0x5d, 0xff, 0xbc, 0xee, 0xd7, 0x8c, 0xbe, 
    0x63, 0x8c, 0xbd, 0x3e, 0x65, 0x7c, 0x91, 0xbe, 0x8f, 0x57, 0x42, 0x3d, 
    0x90, 0xf0, 0x8a, 0xbe, 0xcc, 0xdb, 0xd5, 0xbe, 0x69, 0x5d, 0x17, 0xbe, 
    0xe0, 0x51, 0xbc, 0xbd, 0x49, 0x88, 0x51, 0x3e, 0x28, 0x25, 0x50, 0x3e, 
    0x57, 0xc5, 0xaf, 0x3e, 0xc8, 0x80, 0x84, 0xbe, 0xd3, 0xed, 0xa8, 0x3d, 
    0x92, 0x0b, 0xc9, 0xbe, 0x0f, 0x3a, 0xf3, 0x3d, 0x9f, 0xec, 0x50, 0x3d, 
    0x23, 0xb9, 0xba, 0xbe, 0x8c, 0xa6, 0x23, 0x3d, 0xa1, 0x9b, 0x3c, 0x3e, 
    0x0a, 0xe6, 0x22, 0x3d, 0x42, 0x9f, 0x75, 0x3e, 0xca, 0xea, 0x75, 0x3e, 
    0x32, 0x87, 0x2e, 0xbe, 0xc2, 0x9d, 0x10, 0xbe, 0xe3, 0x1b, 0x3b, 0xbe, 
    0x26, 0x35, 0xdc, 0xbd, 0x68, 0x64, 0x31, 0xbe, 0xe4, 0x87, 0xf9, 0xbd, 
    0xfc, 0x89, 0x99, 0x3d, 0xe0, 0x28, 0xc2, 0xbc, 0x8e, 0x35, 0x1c, 0xbe, 
    0xe0, 0xb2, 0xcf, 0xbc, 0x38, 0x77, 0xa1, 0xbd, 0x60, 0xf6, 0x18, 0x3e, 
    0x59, 0x5f, 0xcb, 0xbd, 0xf0, 0xc1, 0x03, 0x3e, 0x6a, 0x84, 0x37, 0x3e, 
    0x68, 0x7b, 0xa9, 0xbc, 0x80, 0xd5, 0xb9, 0xbd, 0x98, 0x93, 0xe0, 0xbc, 
    0xc0, 0x6b, 0x3b, 0x3d, 0xc9, 0xac, 0x2e, 0xbe, 0xc4, 0x7c, 0x44, 0xbd, 
    0x12, 0x23, 0x89, 0xbd, 0x50, 0x4d, 0x3d, 0x3e, 0xc8, 0x6f, 0xa3, 0x3d, 
    0x40, 0xd1, 0xa3, 0xbd, 0x28, 0xc4, 0xbe, 0x3d, 0x3c, 0x07, 0xb9, 0x3d, 
    0xc4, 0xfe, 0xe9, 0xbd, 0xf9, 0x49, 0x58, 0xbe, 0xa4, 0x8e, 0x2d, 0x3e, 
    0xae, 0x7e, 0x17, 0x3e, 0x28, 0x4c, 0xc2, 0x3c, 0x1e, 0xbf, 0x2b, 0x3e, 
    0xb1, 0x7b, 0x80, 0x3e, 0xff, 0x98, 0x04, 0x3e, 0xfd, 0x61, 0xd0, 0x3e, 
    0x7e, 0x5b, 0x1e, 0xbd, 0x93, 0x7d, 0x88, 0xbd, 0x15, 0x83, 0x94, 0x3e, 
    0x27, 0x41, 0x90, 0xbd, 0x4b, 0xd5, 0x40, 0x3e, 0x33, 0xdb, 0xf9, 0x3c, 
    0x78, 0xd2, 0x21, 0x3e, 0xe9, 0x23, 0x0b, 0xbe, 0x28, 0x21, 0x2c, 0x3e, 
    0xac, 0x43, 0xc7, 0x3e, 0x5f, 0xfe, 0x36, 0x3e, 0xf9, 0x15, 0xa7, 0x3d, 
    0xd5, 0xb8, 0xc4, 0x3e, 0x3d, 0xef, 0x34, 0x3e, 0x34, 0x60, 0x4a, 0xbe, 
    0x69, 0x94, 0x9e, 0x3e, 0x41, 0xcb, 0xde, 0xbc, 0x43, 0xc4, 0x10, 0x3e, 
    0xb7, 0xc7, 0x9b, 0x3e, 0x91, 0xf0, 0xba, 0x3e, 0x0f, 0x9d, 0x17, 0xbd, 
    0x0c, 0x25, 0xbd, 0x3d, 0x80, 0xe9, 0x4e, 0x3d, 0x91, 0x39, 0x19, 0x3d, 
    0xba, 0x9f, 0x38, 0x3e, 0x07, 0x44, 0x94, 0xbd, 0x14, 0x82, 0xc9, 0xbe, 
    0x7a, 0x5f, 0x83, 0xbc, 0x3d, 0xf7, 0x99, 0x3a, 0xf8, 0xb1, 0xb0, 0xbe, 
    0x3d, 0x26, 0x8d, 0x3e, 0x1e, 0x55, 0xfe, 0x3b, 0x2d, 0xc8, 0x16, 0x3e, 
    0x8c, 0x72, 0x92, 0x3e, 0x6b, 0xdb, 0x6f, 0x3d, 0x74, 0x78, 0x1b, 0xbd, 
    0x01, 0xeb, 0xfb, 0x3c, 0x8a, 0x2e, 0x1a, 0x3e, 0x25, 0x7c, 0xcd, 0xbe, 
    0x41, 0x10, 0xfc, 0x3d, 0xb6, 0x53, 0xa1, 0xb9, 0x99, 0xd3, 0x3e, 0x3e, 
    0x06, 0x2a, 0xae, 0xbe, 0x56, 0xdc, 0xcf, 0xbd, 0x2d, 0x79, 0xd2, 0x3c, 
    0x80, 0xfd, 0xbc, 0x3d, 0xe0, 0xac, 0x15, 0x3d, 0x35, 0x0c, 0x99, 0x3e, 
    0x07, 0xa0, 0x83, 0xbd, 0x79, 0x5d, 0x60, 0xbe, 0x68, 0xe2, 0x3e, 0xbd, 
    0x69, 0x21, 0x6d, 0xbe, 0x95, 0x35, 0x73, 0x3e, 0x95, 0xee, 0xb0, 0x3e, 
    0x3e, 0x2b, 0xc1, 0xbe, 0x36, 0xef, 0x9f, 0x3e, 0x44, 0x98, 0x77, 0xbc, 
    0x68, 0x88, 0x83, 0x3d, 0x17, 0xe4, 0xf1, 0x3e, 0xa7, 0x43, 0x00, 0x3e, 
    0x47, 0xc6, 0x6f, 0x3d, 0xdb, 0xc3, 0xbf, 0x3e, 0x1b, 0x40, 0xb5, 0x3e, 
    0xab, 0x48, 0x42, 0x3e, 0xac, 0x7d, 0x46, 0xbd, 0x2c, 0x10, 0x54, 0x3e, 
    0x22, 0xdc, 0xac, 0x3e, 0x96, 0x8b, 0x51, 0x3d, 0x6c, 0x95, 0x94, 0x3e, 
    0x0b, 0x4f, 0x0f, 0x3d, 0x13, 0xdc, 0x0f, 0x3e, 0x8f, 0x0a, 0x6f, 0x3e, 
    0x53, 0x34, 0xd1, 0x3e, 0x28, 0x9a, 0x17, 0x3f, 0x1d, 0xaf, 0x99, 0x3e, 
    0x17, 0x61, 0x00, 0x3f, 0xe6, 0xef, 0x1a, 0x3e, 0xef, 0xbd, 0x05, 0x3d, 
    0xf3, 0x64, 0xc2, 0x3d, 0xe3, 0xcd, 0x96, 0x3e, 0x84, 0x3f, 0x10, 0xbc, 
    0xf3, 0xa7, 0xe8, 0x3d, 0x0b, 0xb9, 0x69, 0x3e, 0xd1, 0x77, 0xf2, 0x3e, 
    0x7a, 0x07, 0xb5, 0x3e, 0x26, 0x3c, 0x96, 0x3c, 0x12, 0xa5, 0xf3, 0x3c, 
    0x1e, 0x36, 0x38, 0x3e, 0x9d, 0x9b, 0x39, 0xbd, 0xdc, 0x6d, 0x44, 0x3c, 
    0xb7, 0x25, 0xf8, 0xbd, 0x78, 0x1f, 0x38, 0xbd, 0x67, 0x23, 0x1f, 0x3d, 
    0xe6, 0x54, 0x9c, 0x3e, 0x59, 0x39, 0x16, 0xbd, 0x1c, 0x39, 0x2e, 0xbe, 
    0xc4, 0x1c, 0x3f, 0x3e, 0x81, 0x24, 0xb7, 0x3d, 0xfa, 0x8b, 0xda, 0xbc, 
    0xd0, 0xe7, 0x67, 0x3e, 0x4b, 0x8d, 0x40, 0x3e, 0xcf, 0xb5, 0x1b, 0xbe, 
    0x17, 0x11, 0x6d, 0x3e, 0x0d, 0x52, 0x83, 0x3e, 0x44, 0xed, 0xb7, 0x3e, 
    0x10, 0x48, 0x16, 0x3c, 0x42, 0xdb, 0x05, 0x3e, 0x6d, 0xde, 0x42, 0x3e, 
    0xa1, 0xb0, 0x11, 0xbe, 0x2b, 0xa8, 0xc1, 0x3d, 0x8b, 0x4a, 0xac, 0xbd, 
    0x92, 0x4e, 0x2f, 0xbe, 0xe6, 0x95, 0x0a, 0x3e, 0xf7, 0xd3, 0xd8, 0x3d, 
    0xdc, 0x22, 0x0d, 0x3e, 0xe7, 0x51, 0x87, 0x3e, 0xb1, 0xe4, 0x0e, 0xbe, 
    0xf6, 0xc9, 0x90, 0xbc, 0x27, 0x13, 0xd5, 0x3e, 0x3d, 0xe7, 0xa4, 0xbd, 
    0xe6, 0x00, 0x57, 0xbd, 0x5e, 0x31, 0x50, 0x3b, 0x8e, 0xde, 0x1b, 0xbe, 
    0xd0, 0x74, 0x24, 0xbd, 0xb8, 0xb9, 0xc7, 0x3d, 0x56, 0x81, 0x43, 0x3e, 
    0xf5, 0xc6, 0xc0, 0xbd, 0xa0, 0x12, 0xb2, 0x3b, 0x80, 0xaa, 0xba, 0x3c, 
    0x28, 0xa4, 0x49, 0xbe, 0x60, 0xe8, 0x54, 0x3e, 0x80, 0x39, 0x59, 0x3e, 
    0xb0, 0x5d, 0x1b, 0xbe, 0xfe, 0x73, 0x50, 0xbe, 0x6c, 0x13, 0x2a, 0x3e, 
    0xdc, 0x70, 0xcd, 0x3d, 0x5c, 0xbe, 0x86, 0x3d, 0x4c, 0xe6, 0x9a, 0x3d, 
    0xf8, 0x32, 0xc3, 0xbd, 0xd0, 0x60, 0x37, 0xbe, 0x1c, 0x13, 0x10, 0x3e, 
    0x53, 0x1d, 0x4a, 0xbe, 0xe8, 0xfb, 0x64, 0xbd, 0x69, 0xab, 0x2b, 0xbe, 
    0x70, 0x93, 0x11, 0x3d, 0xe8, 0xaf, 0x9e, 0xbc, 0x6d, 0x77, 0xb7, 0xbd, 
    0xc7, 0xf7, 0x1c, 0xbe, 0x0e, 0x08, 0x34, 0xbe, 0x90, 0x12, 0x10, 0xbe, 
    0x08, 0x85, 0x39, 0x3d, 0xa8, 0x14, 0x6f, 0xbd, 0x46, 0xe5, 0x93, 0xbd, 
    0xcc, 0x67, 0x16, 0xbe, 0x40, 0x2d, 0x3a, 0x3e, 0xc2, 0xe2, 0x82, 0xbd, 
    0xf5, 0x1e, 0x50, 0xbd, 0x4d, 0x8e, 0xcf, 0x3b, 0xc8, 0x03, 0x34, 0xbc, 
    0x43, 0xf9, 0x2e, 0x3c, 0xb2, 0x94, 0x74, 0x3e, 0x31, 0xa9, 0x1a, 0xbe, 
    0x0c, 0xd9, 0x10, 0xbe, 0x91, 0x7f, 0x26, 0x3e, 0x05, 0x84, 0x7e, 0x3e, 
    0xd1, 0xe3, 0xb7, 0xbe, 0xc6, 0x93, 0x82, 0xbe, 0x13, 0x34, 0x68, 0x3e, 
    0x63, 0xf4, 0x12, 0xbe, 0xfa, 0xee, 0x1c, 0xbe, 0x8d, 0x55, 0x81, 0xbe, 
    0x71, 0x19, 0x7d, 0xbe, 0xb3, 0xcd, 0xb4, 0xbd, 0xa7, 0xc2, 0x51, 0xbd, 
    0x74, 0x02, 0x19, 0x3e, 0xd7, 0xe7, 0x38, 0xbc, 0xfe, 0x78, 0x93, 0x3e, 
    0x3d, 0x87, 0xdf, 0xbd, 0x05, 0x53, 0x7f, 0xbd, 0xc1, 0x82, 0x89, 0xbe, 
    0x8f, 0x22, 0x4f, 0xbd, 0xdb, 0x28, 0x91, 0xbe, 0x48, 0xff, 0xea, 0xbd, 
    0x66, 0x93, 0x16, 0xbe, 0xbf, 0x9b, 0x87, 0x3d, 0x59, 0x21, 0xf0, 0x3d, 
    0x65, 0x97, 0xec, 0xbc, 0x39, 0xaa, 0x4e, 0xbe, 0x87, 0x24, 0x44, 0xbe, 
    0xa4, 0x3a, 0x12, 0xbd, 0xae, 0x55, 0x3d, 0x3e, 0x2c, 0x5c, 0x56, 0x3e, 
    0x00, 0x98, 0x31, 0xbe, 0x4c, 0x89, 0x56, 0xbd, 0x39, 0xdf, 0x0f, 0xbe, 
    0x10, 0xdc, 0x44, 0xbd, 0x41, 0xd1, 0xce, 0xbd, 0xc7, 0xa5, 0x0c, 0xbe, 
    0x42, 0x40, 0x55, 0xbe, 0x30, 0xb5, 0x69, 0xbd, 0x8c, 0xa8, 0xc2, 0x3d, 
    0x36, 0x02, 0xf3, 0xbd, 0xc0, 0x20, 0x7a, 0x3d, 0x68, 0x02, 0x1c, 0xbd, 
    0xb8, 0x43, 0x72, 0x3d, 0xee, 0x24, 0xc8, 0xbd, 0xe8, 0x64, 0x16, 0x3d, 
    0xc0, 0xc8, 0x3a, 0xbe, 0x28, 0x94, 0x28, 0xbe, 0xac, 0x80, 0x23, 0xbe, 
    0xf8, 0xcd, 0x32, 0x3d, 0xe0, 0xaa, 0xfe, 0xbc, 0x3c, 0x86, 0x27, 0xbd, 
    0xab, 0xf7, 0x4b, 0xbe, 0x80, 0xfd, 0x88, 0x3c, 0x92, 0xc1, 0x4a, 0x3e, 
    0xf0, 0x3d, 0x22, 0x3e, 0x04, 0x94, 0x92, 0x3d, 0x18, 0x4d, 0x89, 0x3d, 
    0x6a, 0x6b, 0xc3, 0xbd, 0xc8, 0x81, 0x26, 0x3d, 0x20, 0xf3, 0x7b, 0xbe, 
    0xb7, 0x52, 0x9e, 0x3e, 0x09, 0x77, 0x93, 0x3e, 0xf0, 0xd3, 0x6b, 0x3e, 
    0xfa, 0x8b, 0xd3, 0x3d, 0x1c, 0x70, 0xa2, 0x3e, 0x4a, 0xf8, 0x22, 0xbe, 
    0x77, 0xd2, 0x46, 0x3d, 0x82, 0xe2, 0xa5, 0x3e, 0xee, 0x0b, 0xcc, 0xbd, 
    0x11, 0x19, 0x41, 0x3e, 0x2c, 0xc4, 0x63, 0xbe, 0x45, 0xaf, 0x22, 0x3e, 
    0x8a, 0x59, 0x31, 0xbd, 0x52, 0x64, 0x53, 0x3d, 0x98, 0xcb, 0x9e, 0x3e, 
    0x3d, 0x61, 0x0c, 0xbd, 0x6f, 0x3e, 0x5a, 0xbd, 0x38, 0xdd, 0x78, 0x3e, 
    0xaa, 0x25, 0x95, 0xbd, 0x05, 0xaa, 0x90, 0xbe, 0x37, 0x80, 0x0c, 0x3e, 
    0x77, 0xe1, 0xa2, 0xbe, 0x86, 0x78, 0x52, 0x3e, 0xab, 0x40, 0x42, 0x3e, 
    0x08, 0x38, 0xa8, 0xbc, 0xdd, 0x41, 0xa8, 0x3d, 0x81, 0xba, 0xb1, 0xbd, 
    0x69, 0x74, 0xbc, 0x3c, 0xa3, 0x06, 0x11, 0x3e, 0x03, 0x61, 0x87, 0x3e, 
    0x5e, 0xd6, 0x18, 0xbe, 0xad, 0x0b, 0x00, 0x3e, 0x55, 0x66, 0x0a, 0x3e, 
    0xbc, 0x4f, 0x2b, 0xbe, 0x84, 0xcd, 0xf1, 0x3c, 0x7a, 0x45, 0x2d, 0xbe, 
    0xc0, 0xa4, 0x0e, 0xbe, 0x54, 0x25, 0xa7, 0xbd, 0xf6, 0xd6, 0x07, 0x3e, 
    0x6b, 0xaf, 0x3d, 0xbe, 0xa1, 0xfa, 0x35, 0x3e, 0xff, 0x7b, 0x45, 0x3d, 
    0xd9, 0xe1, 0x90, 0x3d, 0x60, 0xa6, 0x64, 0x3d, 0x32, 0x21, 0xcc, 0x3d, 
    0xb1, 0x87, 0x92, 0x3e, 0xd5, 0xcd, 0x1f, 0xbe, 0x00, 0x37, 0xbc, 0xbc, 
    0x40, 0x52, 0xc8, 0xbd, 0x04, 0x95, 0x31, 0x3d, 0x1c, 0x40, 0x30, 0x3e, 
    0x0c, 0xc3, 0xc5, 0x3c, 0x83, 0xa1, 0x8d, 0x3e, 0xdc, 0x7c, 0x4e, 0x3e, 
    0xe4, 0xc9, 0x60, 0x3c, 0x53, 0xe0, 0x5f, 0xbe, 0xbf, 0x1a, 0x9a, 0x3e, 
    0x31, 0x9f, 0x4e, 0x3e, 0x75, 0x49, 0x3a, 0x3e, 0xdf, 0x56, 0xd1, 0x3d, 
    0x4f, 0xa0, 0x2f, 0xbe, 0x82, 0x51, 0x7b, 0xbd, 0x7f, 0xf7, 0x13, 0x3d, 
    0x74, 0x92, 0x20, 0x3e, 0x7f, 0xe7, 0x91, 0xbe, 0xea, 0x0d, 0x4d, 0x3c, 
    0x5f, 0x2a, 0x9e, 0xbc, 0xd1, 0x1c, 0x1f, 0xbe, 0x32, 0xe0, 0x03, 0x3e, 
    0x88, 0x27, 0x05, 0x3e, 0xe0, 0x20, 0xa5, 0x3c, 0x67, 0xc1, 0xcf, 0x3d, 
    0xac, 0x06, 0x49, 0xbd, 0x12, 0xb5, 0x7c, 0x3e, 0x0d, 0x1a, 0xee, 0x3d, 
    0x5c, 0xc3, 0x85, 0x3d, 0x32, 0xf8, 0x50, 0xbd, 0x19, 0xa3, 0xd3, 0xbc, 
    0x80, 0xc5, 0x2c, 0x3e, 0xa5, 0xe3, 0xb4, 0xbd, 0x45, 0x65, 0x27, 0x3e, 
    0xfe, 0x21, 0xac, 0xbd, 0xf9, 0xdc, 0x58, 0x3d, 0xf8, 0xc4, 0x2f, 0x3e, 
    0x52, 0x2c, 0x5f, 0x3e, 0x9e, 0x12, 0x0b, 0xbe, 0x88, 0xd6, 0xb8, 0xbc, 
    0xa7, 0x4d, 0x80, 0xbe, 0x35, 0xa7, 0xb2, 0xbc, 0x78, 0x0c, 0x7d, 0xbe, 
    0xff, 0x1d, 0x1e, 0x3e, 0xc2, 0x96, 0x31, 0x3d, 0xb3, 0x62, 0x9c, 0x3c, 
    0x65, 0xe9, 0x21, 0xbe, 0xce, 0x88, 0x8c, 0xbe, 0x3a, 0xe8, 0x5c, 0xbe, 
    0xc5, 0xee, 0x1a, 0x3e, 0xfb, 0x7c, 0xf5, 0xbd, 0xc9, 0x16, 0xca, 0x3d, 
    0x4e, 0x11, 0x90, 0xbc, 0xc5, 0x1e, 0x52, 0xbe, 0x92, 0x57, 0x6b, 0x3a, 
    0x90, 0x21, 0x12, 0x3e, 0x93, 0x3f, 0x9d, 0xbd, 0xea, 0xac, 0x12, 0xbe, 
    0xe5, 0x6a, 0x4b, 0x3d, 0x56, 0xa2, 0x39, 0xbe, 0x47, 0x51, 0xb7, 0xbe, 
    0xd6, 0x70, 0xc3, 0xbd, 0x45, 0x43, 0x42, 0xbd, 0x25, 0x93, 0xe6, 0x3d, 
    0xc4, 0x69, 0x75, 0x3c, 0x40, 0x1e, 0x9f, 0xbd, 0x51, 0xca, 0x82, 0x3d, 
    0x1e, 0x14, 0x41, 0x3b, 0xa5, 0x37, 0x34, 0xbd, 0x9b, 0xbb, 0x89, 0x3d, 
    0x86, 0x00, 0x3a, 0xbc, 0x76, 0x1c, 0xb9, 0xbd, 0x49, 0xe4, 0xdf, 0xbd, 
    0xcf, 0x25, 0x23, 0xbe, 0xcf, 0x0a, 0x36, 0x3e, 0x7d, 0x3b, 0x16, 0x3e, 
    0xb9, 0x06, 0xa8, 0x3d, 0x30, 0x25, 0xa4, 0x3e, 0x7f, 0x5a, 0x0f, 0x3e, 
    0xe2, 0xf1, 0x6f, 0x3d, 0xce, 0xcc, 0xb3, 0xbd, 0x7b, 0xcc, 0x31, 0x3d, 
    0xd8, 0xab, 0x0b, 0xbe, 0x2c, 0x6b, 0x7f, 0x3d, 0xdf, 0x87, 0x44, 0x3b, 
    0xf0, 0x4f, 0xdc, 0xbd, 0x5a, 0x08, 0xbf, 0xbc, 0x7e, 0xde, 0x34, 0xbd, 
    0x63, 0x05, 0x16, 0x3d, 0x58, 0xe7, 0xa3, 0x3b, 0xef, 0x5f, 0xca, 0x3d, 
    0x73, 0x99, 0xf0, 0x3c, 0x61, 0x06, 0xc5, 0xbe, 0xa9, 0xbd, 0x8b, 0xbe, 
    0x18, 0x7c, 0x85, 0xbe, 0xaf, 0x68, 0xe8, 0xbb, 0xd7, 0xca, 0x1e, 0x3d, 
    0xec, 0xf7, 0xb1, 0x3d, 0x5d, 0x0e, 0x85, 0x3e, 0x54, 0x47, 0x7d, 0xbc, 
    0xc3, 0x60, 0xe1, 0xbd, 0x83, 0xa5, 0xac, 0xbd, 0x4a, 0x9a, 0xb0, 0x3d, 
    0x21, 0x69, 0xf4, 0xbd, 0xb0, 0xd9, 0x06, 0xbe, 0x81, 0x00, 0x61, 0xbe, 
    0xd5, 0xe8, 0xac, 0xbc, 0x44, 0x3c, 0x20, 0xbe, 0xd4, 0x6a, 0x5e, 0xbd, 
    0x31, 0x0b, 0xac, 0x3e, 0xb9, 0xbe, 0x64, 0x3e, 0x72, 0x06, 0xdc, 0x3c, 
    0x08, 0xac, 0xc1, 0xbc, 0x48, 0x71, 0x9c, 0x3e, 0x80, 0xf7, 0xfd, 0x3d, 
    0x90, 0xe8, 0xc6, 0xbe, 0xfd, 0xa9, 0x6d, 0x3e, 0x24, 0x8a, 0x90, 0x3e, 
    0x6f, 0x25, 0x08, 0xbe, 0x8a, 0x01, 0x3f, 0xbe, 0x5e, 0x4b, 0x82, 0x3e, 
    0xeb, 0x75, 0x57, 0xbe, 0x00, 0x41, 0x14, 0xbf, 0xf0, 0xd2, 0x5a, 0x3c, 
    0x3d, 0xe0, 0xbc, 0x3e, 0xa0, 0x2c, 0xc7, 0xbd, 0x88, 0x81, 0xbe, 0x3d, 
    0x9a, 0x0e, 0xbd, 0xbc, 0xa0, 0xf8, 0x35, 0xbf, 0x10, 0x73, 0xb9, 0xbd, 
    0xd2, 0x06, 0x1d, 0xbd, 0x50, 0xe8, 0x1b, 0xbf, 0xec, 0x6f, 0x31, 0x3e, 
    0xec, 0x9c, 0x56, 0x3e, 0xe6, 0x97, 0xed, 0xbd, 0xc1, 0xba, 0x83, 0x3e, 
    0x73, 0xa8, 0x7e, 0x3e, 0x91, 0x11, 0x47, 0xbe, 0x36, 0xbe, 0x96, 0xbc, 
    0xbb, 0x68, 0xfb, 0xbe, 0x2e, 0x35, 0xac, 0xbe, 0xeb, 0x76, 0x27, 0x3e, 
    0x3f, 0xd2, 0x8c, 0x3e, 0xb7, 0x94, 0xa4, 0x3d, 0x6c, 0x72, 0x38, 0xbe, 
    0xea, 0xa8, 0xc8, 0x3d, 0xe2, 0xce, 0x42, 0xbe, 0xe2, 0x05, 0xb0, 0x3d, 
    0xb2, 0x05, 0x99, 0x3e, 0xea, 0x58, 0xc1, 0x3d, 0x35, 0x35, 0x56, 0xbe, 
    0xe7, 0xd7, 0x96, 0xbe, 0x7a, 0x07, 0x87, 0x3e, 0xba, 0x88, 0x71, 0xbd, 
    0x3b, 0x29, 0xce, 0x3d, 0x4c, 0xd4, 0x75, 0x3d, 0x52, 0x87, 0xc1, 0xbe, 
    0x15, 0x76, 0x60, 0xbc, 0xf5, 0x44, 0x60, 0xbe, 0x2e, 0xcb, 0x2f, 0xbe, 
    0x13, 0x0a, 0x90, 0xbe, 0xa7, 0x87, 0xd3, 0xbd, 0x5c, 0x77, 0xbb, 0xbc, 
    0x87, 0x42, 0x4f, 0x3d, 0x71, 0xbc, 0x62, 0xbe, 0xe9, 0xe5, 0x2e, 0xbe, 
    0xf7, 0x0d, 0x0d, 0xbe, 0x48, 0xfe, 0x4f, 0x3d, 0xca, 0x9a, 0x54, 0x3e, 
    0x72, 0xad, 0xd2, 0x3d, 0x8d, 0xb5, 0xc0, 0xbc, 0x31, 0x04, 0x34, 0xbe, 
    0x51, 0x84, 0x65, 0xbe, 0x5f, 0xa3, 0xe0, 0x3e, 0xad, 0x82, 0xb4, 0x3e, 
    0x8c, 0xca, 0xe4, 0x3e, 0xae, 0xd4, 0x07, 0xbe, 0xd0, 0x79, 0xeb, 0x3c, 
    0x96, 0x8e, 0x02, 0x3f, 0x86, 0x74, 0x9b, 0xbe, 0x98, 0xd5, 0x2c, 0xbd, 
    0x98, 0xbf, 0x93, 0x3e, 0x9f, 0x2d, 0x17, 0xbe, 0xe3, 0xd8, 0xe3, 0xbd, 
    0x73, 0xab, 0xca, 0x3e, 0x6c, 0xa1, 0x90, 0xbd, 0xa6, 0xde, 0xe4, 0xbe, 
    0x38, 0x2b, 0xf1, 0x3d, 0xec, 0xa6, 0x38, 0x3f, 0x1b, 0x7f, 0x52, 0xbe, 
    0xa0, 0x86, 0x50, 0x3d, 0xc9, 0xd9, 0xa9, 0x3e, 0x49, 0x91, 0xd7, 0xbe, 
    0xe4, 0x01, 0xc1, 0xbd, 0x95, 0xba, 0xe0, 0x3c, 0x6b, 0xe2, 0xf4, 0xbe, 
    0x68, 0xc4, 0xee, 0x3d, 0x5c, 0xd5, 0x0b, 0xbe, 0xfa, 0x4e, 0x2f, 0x3e, 
    0x24, 0xee, 0xcb, 0x3e, 0x42, 0x2a, 0xa2, 0x3e, 0xd4, 0x8e, 0xe5, 0x3d, 
    0x3c, 0xbc, 0x9e, 0x3e, 0x14, 0x0a, 0xfb, 0xbe, 0xf6, 0x52, 0xc9, 0xbe, 
    0x6f, 0xba, 0x64, 0xbe, 0x33, 0xdd, 0x39, 0xbd, 0x6e, 0x90, 0xcf, 0x3c, 
    0x4f, 0x35, 0x93, 0xbe, 0xb0, 0xc1, 0x13, 0x3e, 0x28, 0xca, 0x12, 0x3e, 
    0xc4, 0x25, 0xf2, 0x3c, 0x84, 0x70, 0xbe, 0x3d, 0x7d, 0xdf, 0x2d, 0xbe, 
    0x5a, 0xf8, 0x2e, 0xbb, 0x7c, 0xd0, 0x4b, 0x3e, 0x37, 0x44, 0x00, 0x3d, 
    0x92, 0x2d, 0xa5, 0xbe, 0x61, 0x24, 0x32, 0xbd, 0xc3, 0xf8, 0xae, 0xbc, 
    0xa5, 0xef, 0x82, 0xbe, 0xde, 0xee, 0x09, 0xbb, 0x46, 0x28, 0xba, 0xbd, 
    0x3f, 0x6a, 0xdd, 0x3c, 0xe8, 0x2f, 0xb7, 0x3c, 0x87, 0xba, 0x07, 0xbd, 
    0x58, 0x8a, 0xa7, 0xbc, 0x05, 0xe8, 0x0e, 0xbe, 0x82, 0x9d, 0x34, 0x3c, 
    0xf4, 0xec, 0xf2, 0xbd, 0x12, 0xaa, 0xae, 0xbe, 0xc7, 0x80, 0x04, 0x3e, 
    0x5c, 0xbb, 0x3f, 0xbc, 0x6a, 0xd2, 0xfc, 0x3c, 0x05, 0xba, 0x5d, 0xbe, 
    0x44, 0xe6, 0x55, 0xbe, 0x8a, 0x15, 0x35, 0x3e, 0xa6, 0xc9, 0x3f, 0x3e, 
    0xc1, 0x9e, 0xd4, 0x3b, 0x3b, 0xfa, 0xd3, 0xbe, 0x8c, 0xf7, 0xbe, 0xbe, 
    0xd8, 0xe3, 0x2e, 0xbe, 0x89, 0x78, 0x27, 0xbf, 0x23, 0x9b, 0xa5, 0x3d, 
    0x70, 0x08, 0x2e, 0x3e, 0x91, 0x68, 0xe0, 0x3a, 0xa3, 0xe7, 0x4c, 0xbe, 
    0xe7, 0xdb, 0xdf, 0x3d, 0x66, 0xa0, 0x10, 0xbe, 0xd6, 0x21, 0xe7, 0xbe, 
    0xfe, 0xb9, 0x8e, 0xbd, 0x39, 0x45, 0x41, 0xbe, 0x31, 0xf2, 0x79, 0xbf, 
    0xd7, 0x0b, 0xc5, 0xbe, 0x4d, 0x00, 0xb6, 0xbe, 0x4f, 0xe7, 0x8f, 0xbe, 
    0x75, 0x36, 0xf9, 0x3d, 0x9a, 0xa0, 0xdc, 0xbd, 0x0c, 0x37, 0xdd, 0x3d, 
    0xf9, 0xfc, 0xa6, 0x3e, 0xa6, 0x68, 0x8f, 0xbe, 0x87, 0x8f, 0xf2, 0x3c, 
    0xed, 0x76, 0xf2, 0xbd, 0xb6, 0xe5, 0x98, 0x3c, 0xe9, 0xb8, 0xd8, 0xbd, 
    0xf7, 0xc7, 0xaf, 0xbd, 0xdc, 0x6e, 0xfe, 0xbd, 0x6d, 0x3a, 0x21, 0xbd, 
    0x64, 0xbd, 0x09, 0xbe, 0xac, 0xdf, 0xc4, 0x3e, 0x34, 0x5e, 0x09, 0x3e, 
    0x18, 0x4d, 0x37, 0x3e, 0xc0, 0x95, 0x5a, 0x3c, 0x6a, 0x01, 0x3a, 0xbd, 
    0x2d, 0xce, 0xa5, 0x3d, 0xc4, 0xaf, 0xb9, 0xbd, 0x8d, 0xe1, 0xe9, 0x3d, 
    0x7d, 0x1a, 0x70, 0x3d, 0x90, 0x42, 0x45, 0xbd, 0x5c, 0xa2, 0x97, 0xbd, 
    0xa7, 0x28, 0x10, 0x3e, 0xf0, 0x3c, 0x20, 0xbe, 0xe8, 0x2d, 0x9d, 0xbd, 
    0xa6, 0x3b, 0x33, 0x3e, 0x87, 0x16, 0x14, 0x3d, 0x29, 0xd9, 0x20, 0xbe, 
    0xa2, 0x5c, 0xb0, 0xbd, 0xe5, 0xce, 0xda, 0x3d, 0x64, 0xc2, 0xfb, 0x3d, 
    0x40, 0x53, 0x12, 0x3b, 0x5b, 0xc8, 0x16, 0xbe, 0xc0, 0xc1, 0x49, 0x3d, 
    0x3a, 0x6f, 0x31, 0xbe, 0x43, 0x5b, 0x0b, 0xbe, 0x08, 0xc6, 0xea, 0x3c, 
    0xe7, 0x54, 0xcf, 0xbd, 0x81, 0xaf, 0xfa, 0xbd, 0xaa, 0xb6, 0x92, 0xbd, 
    0x9a, 0x76, 0x22, 0xbe, 0x30, 0x1e, 0x04, 0xbe, 0x54, 0x3c, 0x09, 0x3d, 
    0x0b, 0xab, 0x9b, 0x3d, 0x48, 0xfd, 0xff, 0xbd, 0xfe, 0x9f, 0x5b, 0xbe, 
    0x5a, 0x58, 0x8b, 0xbe, 0x5c, 0x12, 0x89, 0xbe, 0x15, 0x31, 0x50, 0xbe, 
    0x06, 0xcf, 0xa9, 0x3e, 0xe0, 0xac, 0x24, 0x3e, 0xe8, 0xeb, 0xf9, 0xbc, 
    0x2d, 0x49, 0x3e, 0x3e, 0x08, 0x95, 0x5e, 0x3e, 0x92, 0x0a, 0xa6, 0xbe, 
    0x5c, 0x23, 0x14, 0xbe, 0x6d, 0x9e, 0x54, 0xbd, 0x73, 0xf6, 0xe5, 0xbd, 
    0xda, 0x74, 0xa0, 0xbd, 0x81, 0x03, 0x9c, 0xbe, 0x97, 0x40, 0x9b, 0x3c, 
    0xb4, 0x77, 0x81, 0xbe, 0xeb, 0x43, 0x26, 0xbd, 0xc4, 0x98, 0x38, 0xbe, 
    0x35, 0x7e, 0xab, 0xbe, 0x32, 0xcd, 0x8e, 0x3e, 0xae, 0xa2, 0xfc, 0xbd, 
    0xdf, 0x3b, 0x02, 0xbe, 0xc9, 0x04, 0xd5, 0xbe, 0xec, 0xb5, 0x9f, 0xbe, 
    0xf6, 0x81, 0x4b, 0xbe, 0x57, 0xbc, 0x13, 0xbe, 0x71, 0x0f, 0xa5, 0xbe, 
    0x3e, 0xcf, 0x68, 0x3e, 0xa8, 0x40, 0xc6, 0x3d, 0xad, 0xcf, 0x44, 0x3e, 
    0x59, 0x2f, 0xf3, 0xbd, 0xb0, 0xd8, 0x80, 0xbe, 0x2a, 0x0e, 0x0e, 0x3c, 
    0x5a, 0xac, 0xb4, 0xbe, 0x60, 0x52, 0x26, 0xbd, 0xeb, 0x0f, 0x4e, 0x3e, 
    0x42, 0xa4, 0x0f, 0x3d, 0x66, 0xa8, 0x93, 0xbe, 0x37, 0xf4, 0x26, 0x3c, 
    0xf5, 0x26, 0xf2, 0x3d, 0x17, 0xae, 0xa8, 0xbb, 0xc6, 0x87, 0x06, 0x3d, 
    0x33, 0x42, 0x1d, 0xbc, 0x2c, 0x23, 0x25, 0x3e, 0x7a, 0x4e, 0xeb, 0xbd, 
    0x9d, 0x0f, 0x80, 0x3e, 0xa6, 0x40, 0xa3, 0x3d, 0x17, 0xa3, 0x9b, 0xbe, 
    0x0b, 0xe5, 0x2a, 0x3d, 0xe2, 0x8a, 0xf8, 0xbc, 0x59, 0xff, 0x40, 0xbe, 
    0x39, 0xe9, 0xee, 0xbd, 0x87, 0xf1, 0x89, 0x3d, 0xd4, 0x6c, 0x53, 0x3e, 
    0x0d, 0xdd, 0x7d, 0x3e, 0xf5, 0x4b, 0x85, 0xbd, 0x3c, 0x50, 0x57, 0xbe, 
    0xbd, 0xf1, 0x28, 0x3d, 0x14, 0x59, 0xd0, 0xbe, 0xf5, 0x51, 0xf2, 0x3b, 
    0xb2, 0xc7, 0x3f, 0x3e, 0x25, 0x87, 0x68, 0x3e, 0x1e, 0x78, 0x97, 0xbc, 
    0x14, 0x16, 0x2d, 0x3e, 0xc3, 0xd8, 0xb1, 0xba, 0x67, 0xd6, 0x05, 0x3e, 
    0xc0, 0x64, 0xfb, 0xbb, 0x54, 0xc7, 0x11, 0x3d, 0xd1, 0xb3, 0x0d, 0x3c, 
    0xee, 0xf9, 0x1c, 0xbe, 0x4f, 0x1a, 0x2c, 0xbe, 0x41, 0x2a, 0x71, 0xbd, 
    0x0c, 0xec, 0x5c, 0x3d, 0xcd, 0xe2, 0x01, 0x3e, 0xa7, 0xb3, 0xf9, 0x3d, 
    0xcb, 0x1d, 0x98, 0x3b, 0xff, 0xc2, 0x1b, 0xbe, 0xc8, 0x0e, 0x7a, 0x3d, 
    0x66, 0x74, 0x03, 0xbe, 0xeb, 0x0e, 0x27, 0x3e, 0xd7, 0x3f, 0xf9, 0xbd, 
    0xf0, 0x45, 0x1e, 0x3d, 0x03, 0xd5, 0xb4, 0xbd, 0xa3, 0x69, 0x67, 0x3d, 
    0x45, 0x8c, 0x5b, 0x3d, 0xd7, 0x0f, 0xc7, 0x3d, 0x79, 0xa1, 0x29, 0xbe, 
    0x41, 0xbd, 0x52, 0xbe, 0xfb, 0x0b, 0x24, 0xbe, 0x57, 0xd4, 0x3a, 0xbd, 
    0x0c, 0x90, 0x00, 0xbd, 0x9b, 0xa9, 0x0c, 0x3e, 0x2b, 0xb1, 0x95, 0xbd, 
    0x6f, 0x7e, 0x01, 0xbe, 0x3c, 0x94, 0x3b, 0x3d, 0x0b, 0x11, 0x0d, 0xbe, 
    0x0e, 0x6e, 0x4a, 0xbe, 0xec, 0xc6, 0x46, 0x3e, 0x5f, 0x41, 0x09, 0xbe, 
    0x5a, 0x52, 0x06, 0x3e, 0x6b, 0x83, 0x37, 0xbe, 0x2b, 0x05, 0xd0, 0xbd, 
    0x10, 0xa5, 0x25, 0xbd, 0x3c, 0xbf, 0x4f, 0xbe, 0x7c, 0xd6, 0x0a, 0x3d, 
    0xea, 0xab, 0xaa, 0x3c, 0x3c, 0xfe, 0x2b, 0xbe, 0x50, 0x39, 0x04, 0x3d, 
    0x40, 0x2f, 0x83, 0x3d, 0x95, 0x12, 0xe3, 0x3d, 0x41, 0x5f, 0xfa, 0x3d, 
    0x34, 0xd9, 0xfd, 0xbd, 0xce, 0x3d, 0x3a, 0x3d, 0xd1, 0xab, 0x58, 0xbe, 
    0x4c, 0x4f, 0x50, 0xbe, 0x57, 0x8d, 0xf9, 0x3b, 0x62, 0x0c, 0x44, 0x3e, 
    0x85, 0xd7, 0x9a, 0xbb, 0x66, 0xa7, 0x7c, 0xbc, 0x40, 0xb4, 0x9b, 0xbd, 
    0x62, 0x1f, 0x21, 0xbe, 0xde, 0xe6, 0xfc, 0x3d, 0x5a, 0xe5, 0xd5, 0xbd, 
    0x06, 0x27, 0x1e, 0xbc, 0x81, 0xed, 0xf4, 0xbd, 0xbc, 0x55, 0x09, 0x3e, 
    0x7a, 0x97, 0x4b, 0x3e, 0x09, 0x25, 0x50, 0x3d, 0xa8, 0xd0, 0xe2, 0xbd, 
    0xed, 0x92, 0x76, 0x3e, 0x72, 0x7b, 0xc3, 0x3e, 0x79, 0xa3, 0xbb, 0xbe, 
    0xf4, 0x38, 0xfc, 0x3d, 0xf3, 0xc1, 0x19, 0x3e, 0x0a, 0x6d, 0xa9, 0xbd, 
    0x6f, 0xca, 0x04, 0xbe, 0x13, 0x41, 0xc6, 0x3e, 0xc7, 0xe8, 0x22, 0xbe, 
    0x44, 0xd2, 0xd6, 0xbe, 0x40, 0x23, 0xb5, 0xbc, 0x96, 0x05, 0xfe, 0x3e, 
    0xbd, 0xc6, 0xa0, 0x3d, 0xe2, 0xa8, 0x54, 0xbe, 0x39, 0x59, 0x88, 0x3e, 
    0xcf, 0x5e, 0x61, 0xbe, 0x89, 0x09, 0xf3, 0x3c, 0x63, 0x8e, 0x90, 0x3e, 
    0x92, 0xf2, 0x96, 0xbe, 0xf0, 0xcb, 0xe2, 0x3d, 0x56, 0xbc, 0x99, 0x3d, 
    0xbf, 0xc3, 0xf7, 0xbd, 0x9d, 0xf5, 0x98, 0xbc, 0x8f, 0x0d, 0xd5, 0xbc, 
    0x88, 0x03, 0x94, 0x3c, 0x16, 0x07, 0xd7, 0x3d, 0xc8, 0x23, 0x1a, 0xbe, 
    0xa5, 0x24, 0xac, 0xbe, 0x8a, 0x45, 0xf8, 0x3d, 0xa6, 0x30, 0x8a, 0x3e, 
    0xec, 0x73, 0x2a, 0xbe, 0xa4, 0x6c, 0xe7, 0x3d, 0x8e, 0xe8, 0x0c, 0x3e, 
    0x59, 0xb8, 0x87, 0xbe, 0xad, 0x5b, 0x19, 0xbc, 0xcc, 0x39, 0xca, 0xba, 
    0x2e, 0x67, 0x1c, 0x3e, 0x90, 0x5d, 0x7b, 0xbe, 0x03, 0xde, 0x22, 0xbe, 
    0x8e, 0x10, 0xa2, 0x3a, 0x98, 0xfd, 0x51, 0x3d, 0x85, 0xa9, 0x9e, 0xbe, 
    0x40, 0xf3, 0x1a, 0x3e, 0x1c, 0x88, 0x92, 0xbe, 0x65, 0xed, 0x39, 0xbe, 
    0x1c, 0x0d, 0x2d, 0x3e, 0xd4, 0x23, 0x33, 0x3d, 0xb3, 0xa3, 0x8a, 0xbe, 
    0x1c, 0xbe, 0x55, 0xbe, 0xe4, 0x68, 0xcc, 0x3d, 0x9d, 0x2b, 0x17, 0xbd, 
    0xcc, 0xfb, 0x11, 0xbe, 0xae, 0xa2, 0x66, 0xbe, 0x40, 0xad, 0x28, 0xbc, 
    0xc1, 0x0f, 0xa7, 0xbd, 0xb8, 0x63, 0xe5, 0x3c, 0x66, 0xa1, 0xfd, 0xbd, 
    0x36, 0xa9, 0x31, 0x3e, 0x85, 0x94, 0xcb, 0xbc, 0x0e, 0xc3, 0xaf, 0xbe, 
    0x67, 0x39, 0x85, 0x3e, 0x95, 0xe2, 0x36, 0x3e, 0x61, 0x56, 0xd0, 0xbe, 
    0xd5, 0x63, 0x75, 0xbe, 0xa0, 0x4b, 0xd9, 0xbe, 0xc8, 0xf5, 0xff, 0x3d, 
    0xb3, 0x48, 0xbb, 0x3d, 0x4c, 0xd7, 0x8b, 0xbe, 0x0f, 0x7c, 0x92, 0xbe, 
    0x87, 0xa2, 0x70, 0xbd, 0xb2, 0x90, 0xa1, 0x3e, 0x49, 0x84, 0x66, 0xbe, 
    0xf5, 0xb3, 0xb4, 0xbe, 0x12, 0xf3, 0x16, 0xbd, 0xcf, 0x36, 0x7f, 0xbc, 
    0x7a, 0x5f, 0xb6, 0x3d, 0x1a, 0x3e, 0x99, 0xbe, 0x07, 0x2a, 0x06, 0xbe, 
    0xa6, 0x24, 0x0f, 0x3d, 0x8d, 0xaa, 0x9c, 0x3e, 0xda, 0x92, 0x31, 0xbe, 
    0xf8, 0x76, 0xcd, 0xbe, 0xd4, 0x1c, 0xe6, 0x3d, 0xca, 0xac, 0x18, 0xbe, 
    0xb0, 0x6a, 0x08, 0x3d, 0x23, 0x5b, 0xb8, 0xbe, 0xf6, 0x4b, 0x8d, 0xbe, 
    0xf3, 0x09, 0xc0, 0xbe, 0x7c, 0x15, 0x9c, 0xbe, 0x59, 0xec, 0xaf, 0xbe, 
    0x6a, 0xa3, 0xdd, 0x3d, 0xf9, 0x36, 0x87, 0x3e, 0x33, 0x59, 0x83, 0x3e, 
    0x23, 0xc0, 0x0c, 0xbe, 0xb4, 0x89, 0xcd, 0x3d, 0x8b, 0x04, 0xe0, 0x3d, 
    0x61, 0x69, 0xe7, 0x3c, 0x90, 0x2f, 0x33, 0x3e, 0xf1, 0x50, 0xa9, 0xbd, 
    0xb1, 0xd3, 0x41, 0xbf, 0x0c, 0xd4, 0xc9, 0xbd, 0xa4, 0x9e, 0xca, 0xbd, 
    0x2f, 0x5a, 0x81, 0xbd, 0xfd, 0xb2, 0x6b, 0xbc, 0x53, 0xf3, 0x57, 0x3e, 
    0x0a, 0x4c, 0xa8, 0xbc, 0x76, 0x61, 0xe0, 0x3d, 0x25, 0xfa, 0x28, 0xbe, 
    0x37, 0x2d, 0x69, 0x3d, 0x19, 0x41, 0x12, 0x3e, 0xa8, 0x88, 0x0b, 0x3d, 
    0xee, 0x7b, 0x7c, 0x3e, 0x51, 0x90, 0xf2, 0xbd, 0x74, 0xe6, 0x78, 0xbd, 
    0x80, 0xce, 0x7b, 0x3e, 0x9f, 0x97, 0x2e, 0x3e, 0xe3, 0x49, 0x4b, 0x3e, 
    0x76, 0xa1, 0x02, 0xbd, 0x60, 0x86, 0xd9, 0xbb, 0xee, 0x95, 0x56, 0xbe, 
    0x98, 0xb1, 0x2d, 0x3e, 0xc6, 0x4b, 0x9e, 0x3d, 0x6a, 0x43, 0x82, 0x3e, 
    0x7b, 0xbd, 0x1f, 0xbc, 0x52, 0xbd, 0xb9, 0xbe, 0x7c, 0x10, 0x39, 0xbd, 
    0xe0, 0x17, 0x92, 0xbe, 0xb1, 0xcc, 0xb1, 0xbe, 0x52, 0x67, 0x2d, 0x3e, 
    0x4a, 0x2d, 0x27, 0xbf, 0xad, 0x49, 0x80, 0x3d, 0x75, 0x6a, 0x85, 0x3e, 
    0x41, 0x6c, 0x2c, 0x3d, 0x55, 0x6f, 0x04, 0x3e, 0xe1, 0xff, 0x20, 0x3e, 
    0x83, 0xa4, 0x11, 0x3e, 0x9d, 0x38, 0x0b, 0xbe, 0x49, 0x9d, 0x86, 0x3d, 
    0xa1, 0x68, 0xa9, 0xbe, 0xab, 0x40, 0xc3, 0xbe, 0xb8, 0x14, 0xc0, 0xbe, 
    0xee, 0x5d, 0x04, 0xbf, 0xb2, 0x7d, 0x23, 0xbe, 0x28, 0x56, 0x88, 0xbd, 
    0x40, 0x1e, 0xf9, 0x3b, 0x9e, 0xf9, 0x1c, 0xbe, 0xac, 0xb4, 0xaa, 0x3e, 
    0xb6, 0xe7, 0x83, 0xbe, 0x1f, 0x0b, 0x88, 0xbe, 0x09, 0xc9, 0x0a, 0xbf, 
    0xbd, 0x66, 0x03, 0xbe, 0x02, 0xa4, 0x02, 0x3e, 0x71, 0x32, 0x95, 0xbe, 
    0x86, 0x93, 0x1a, 0x3e, 0x1a, 0x64, 0x6f, 0xbd, 0x9e, 0xa6, 0x58, 0x3e, 
    0xb0, 0xf7, 0xb2, 0x3e, 0x9f, 0xf0, 0x8e, 0xbd, 0xa0, 0x88, 0x7f, 0x3e, 
    0xad, 0x06, 0xd6, 0xbe, 0x20, 0x1d, 0xe6, 0xbc, 0xd0, 0xad, 0x0c, 0x3d, 
    0x59, 0x17, 0xb1, 0x3d, 0x05, 0xd8, 0xc9, 0x3e, 0x38, 0x02, 0xb5, 0x3b, 
    0xa2, 0x6e, 0xcf, 0xbc, 0x0e, 0x48, 0x2d, 0xbe, 0xf7, 0x92, 0x30, 0x3c, 
    0x55, 0x82, 0xc3, 0xbd, 0xb1, 0xf3, 0xd3, 0x3d, 0x21, 0x2d, 0xc5, 0xbd, 
    0x2d, 0x19, 0x69, 0x3e, 0x39, 0xce, 0x0a, 0xbe, 0x97, 0xbe, 0x1e, 0xbe, 
    0xaf, 0x8d, 0x68, 0x3d, 0xa2, 0x39, 0x2d, 0x3e, 0xc3, 0xb3, 0x07, 0xbe, 
    0x41, 0x60, 0x88, 0x3d, 0x5c, 0x12, 0x4f, 0x3e, 0xa7, 0x98, 0x90, 0xbe, 
    0xbc, 0x89, 0x85, 0xbe, 0xda, 0xc3, 0xcd, 0xbe, 0x18, 0x4e, 0x74, 0x3e, 
    0xf0, 0xbb, 0xdf, 0xbb, 0xbf, 0x68, 0xa9, 0xbd, 0x38, 0xb7, 0x53, 0x3d, 
    0xcf, 0x30, 0x6a, 0x3e, 0x10, 0xbb, 0x67, 0xbc, 0xd4, 0x88, 0x67, 0x3e, 
    0xab, 0x0d, 0x33, 0x3e, 0xf3, 0xc6, 0xfb, 0x3d, 0x2d, 0x2d, 0x91, 0x3c, 
    0xa4, 0x5f, 0x0a, 0x3d, 0x0d, 0x22, 0xd7, 0x3d, 0xcd, 0x72, 0x29, 0xbe, 
    0x74, 0xd8, 0x16, 0xbd, 0x29, 0x50, 0xa5, 0x3d, 0x6d, 0x25, 0x63, 0x3e, 
    0x06, 0xc4, 0xec, 0x3c, 0x2d, 0x65, 0x4f, 0x3e, 0x61, 0xe0, 0xd5, 0x3c, 
    0xaa, 0xa7, 0x03, 0x3d, 0x50, 0x41, 0x42, 0x3e, 0x35, 0xef, 0xdb, 0x3e, 
    0x8a, 0xb5, 0x57, 0x3e, 0x34, 0x10, 0x85, 0x3e, 0x3d, 0xc7, 0x9c, 0x3e, 
    0x7a, 0x22, 0x3f, 0x3e, 0xc2, 0x8d, 0x04, 0xbe, 0x55, 0xd7, 0xa5, 0x3e, 
    0xfe, 0x2f, 0x6f, 0xbe, 0x11, 0x1c, 0x87, 0x3e, 0x72, 0xc6, 0x87, 0x3e, 
    0x0e, 0xdf, 0x1f, 0x3e, 0xff, 0xf1, 0x2c, 0x3d, 0x16, 0x55, 0x96, 0x3e, 
    0xb2, 0x46, 0xe2, 0x3d, 0xfb, 0xb9, 0x61, 0x3e, 0xa7, 0xd1, 0xfe, 0xbb, 
    0x37, 0x2f, 0x12, 0x3d, 0x9b, 0x94, 0x8d, 0xbe, 0x93, 0xb7, 0xd3, 0x3d, 
    0x3b, 0xe0, 0x64, 0xbe, 0xd5, 0x28, 0xcf, 0xbd, 0x06, 0xf1, 0x67, 0xbd, 
    0x2a, 0x38, 0xd0, 0xbe, 0x4d, 0xb4, 0x8f, 0xbd, 0x1e, 0x8a, 0xdc, 0x3d, 
    0x1e, 0x62, 0xec, 0x3b, 0x08, 0xa6, 0x26, 0x3e, 0x7e, 0x76, 0x1d, 0x3b, 
    0xd7, 0xd5, 0xcb, 0x3d, 0x61, 0xf2, 0x4e, 0x3b, 0xf3, 0x5c, 0x83, 0x3e, 
    0xe6, 0x39, 0xeb, 0x3d, 0x0d, 0x48, 0x8f, 0xbe, 0xc7, 0x04, 0x97, 0xbe, 
    0x76, 0xa3, 0x2d, 0xbe, 0x89, 0x4f, 0xac, 0x3d, 0xc8, 0xb2, 0x00, 0xbe, 
    0x82, 0x7c, 0x4d, 0xbe, 0xb0, 0x73, 0x5e, 0xbe, 0x8f, 0x96, 0x1c, 0x3e, 
    0x90, 0xed, 0x0e, 0x3e, 0xbe, 0x86, 0x0f, 0xbe, 0xdb, 0xa8, 0xb6, 0xbd, 
    0x25, 0xc2, 0x4b, 0xbe, 0xe6, 0xee, 0x36, 0x3b, 0x03, 0xbe, 0x23, 0x3d, 
    0x78, 0x34, 0xcd, 0x3d, 0x8a, 0x35, 0x99, 0x3d, 0x00, 0xb5, 0x35, 0x3e, 
    0x68, 0x90, 0x88, 0x3e, 0x36, 0x7b, 0x1d, 0x3c, 0xda, 0x61, 0x59, 0xbe, 
    0x40, 0x4f, 0x37, 0xbe, 0x1c, 0x52, 0xe4, 0xbd, 0x68, 0x35, 0x59, 0x3e, 
    0xa2, 0x50, 0x3b, 0x3e, 0x08, 0x67, 0x19, 0xbe, 0x90, 0x39, 0xe6, 0xbe, 
    0x8b, 0xa0, 0x83, 0x3e, 0x84, 0x60, 0x30, 0x3e, 0x8c, 0xda, 0xd4, 0xbe, 
    0x8b, 0x42, 0x4d, 0xbe, 0x68, 0x0e, 0x98, 0x3e, 0xc2, 0xa2, 0x36, 0xbe, 
    0x1c, 0x7f, 0x06, 0xbe, 0x06, 0xbf, 0xa7, 0xbe, 0x26, 0xe6, 0x10, 0xbd, 
    0xef, 0x9d, 0x91, 0xbe, 0xe6, 0x03, 0x84, 0x3e, 0xf9, 0x88, 0x26, 0xbe, 
    0xe3, 0xf1, 0xe3, 0xbe, 0x43, 0x46, 0x95, 0x3e, 0x68, 0x22, 0x67, 0xbe, 
    0xa8, 0xf0, 0x6f, 0xbd, 0x7c, 0xd6, 0x3f, 0xbe, 0xf5, 0xc8, 0x4a, 0xbe, 
    0x83, 0xd7, 0x46, 0xbe, 0x6b, 0x8b, 0xa4, 0xbe, 0x76, 0xdc, 0x7e, 0xbd, 
    0xb5, 0x91, 0x01, 0x3e, 0xde, 0x91, 0xe1, 0x3d, 0x9c, 0x77, 0x52, 0x3e, 
    0x44, 0x44, 0x14, 0xbd, 0xd4, 0x3f, 0xf9, 0x3d, 0x9e, 0xb1, 0x88, 0x3e, 
    0x80, 0x94, 0x00, 0x3e, 0xf1, 0x8f, 0xe3, 0x3e, 0x28, 0x96, 0x32, 0xbd, 
    0xf7, 0xed, 0xe2, 0x3d, 0xb5, 0x5d, 0x7d, 0x3e, 0xcd, 0x41, 0x42, 0x3e, 
    0xa3, 0x69, 0xb9, 0x3d, 0xdb, 0x22, 0x91, 0x3e, 0x6a, 0x0c, 0x9f, 0x3e, 
    0x00, 0x2d, 0x21, 0x3c, 0xcb, 0x90, 0x90, 0x3e, 0xaf, 0x4d, 0x49, 0x3e, 
    0x42, 0xaf, 0x9a, 0x3e, 0xe9, 0x82, 0x90, 0x3e, 0x49, 0xf6, 0xb2, 0x3e, 
    0x0c, 0xb5, 0xd8, 0xbd, 0x33, 0x69, 0xab, 0x3c, 0x22, 0x1d, 0x94, 0x3d, 
    0xc7, 0xfd, 0xcc, 0x3c, 0x15, 0x03, 0xc7, 0x3e, 0xdb, 0x37, 0x90, 0xbb, 
    0x6c, 0x7f, 0xf3, 0x3e, 0xcd, 0xfd, 0xef, 0x3d, 0xb9, 0x20, 0xcd, 0x3b, 
    0xe9, 0xe0, 0xaa, 0x3e, 0x21, 0xd8, 0x92, 0x3d, 0x22, 0xed, 0xf0, 0x3d, 
    0x19, 0x3d, 0x3e, 0x3e, 0x15, 0x04, 0xfa, 0x3c, 0x7a, 0x10, 0x35, 0x3e, 
    0xba, 0x7a, 0x15, 0x3e, 0x3e, 0xe5, 0x44, 0xbe, 0xd2, 0xc5, 0x1e, 0x3e, 
    0x40, 0xe2, 0x3a, 0x3e, 0x86, 0x12, 0xed, 0xbd, 0x2b, 0x31, 0x93, 0x3e, 
    0x2b, 0xd0, 0xb3, 0x3d, 0xa8, 0x6d, 0x40, 0xbd, 0xe0, 0xa1, 0x76, 0x3e, 
    0x75, 0xfe, 0x1b, 0x3e, 0x3d, 0x8f, 0x81, 0xbe, 0x35, 0x8c, 0x7c, 0x3e, 
    0xf0, 0xfa, 0x64, 0xbe, 0x0b, 0x21, 0xaa, 0x3b, 0xf7, 0x0b, 0x98, 0xbd, 
    0xc7, 0x7d, 0x8c, 0xbe, 0x9f, 0x67, 0x5b, 0x3e, 0x8b, 0x8f, 0x21, 0xbe, 
    0xc7, 0xc1, 0x1c, 0x3e, 0xfd, 0xdf, 0x80, 0x3d, 0x3d, 0xa8, 0x24, 0x3e, 
    0xad, 0x78, 0x94, 0xbe, 0xd7, 0x20, 0x93, 0xbd, 0x9c, 0xa7, 0x39, 0xbe, 
    0xa8, 0x78, 0x2a, 0x3e, 0xe0, 0xb5, 0x89, 0x3e, 0xdc, 0x1d, 0x3f, 0x3d, 
    0xbf, 0x01, 0x4d, 0x3e, 0x82, 0xf2, 0x28, 0xbe, 0x2f, 0x37, 0x34, 0x3e, 
    0xa4, 0x93, 0xc2, 0x3c, 0x55, 0x88, 0x6d, 0x3e, 0x4e, 0x6b, 0x85, 0x3d, 
    0xba, 0xd4, 0x58, 0xbd, 0x28, 0x55, 0xcc, 0xba, 0x0f, 0xda, 0x03, 0xbd, 
    0x91, 0x0f, 0x13, 0xbc, 0xcc, 0x6e, 0x2b, 0xbe, 0x2f, 0x9d, 0x43, 0x3e, 
    0x65, 0x55, 0x41, 0x3d, 0x54, 0xa0, 0x2b, 0xbd, 0xa3, 0xea, 0xc4, 0xbd, 
    0x0c, 0xe4, 0xee, 0x3d, 0x8c, 0x17, 0xd2, 0x3d, 0x27, 0x0c, 0x5c, 0xbe, 
    0xed, 0x36, 0x0e, 0xbe, 0x04, 0xe0, 0x15, 0x3e, 0x60, 0x9a, 0x26, 0xbd, 
    0xd1, 0xd5, 0x6b, 0xbe, 0xa3, 0x25, 0xdb, 0xbd, 0x97, 0x85, 0x23, 0xbc, 
    0x76, 0x60, 0x6a, 0xbd, 0x5c, 0x49, 0x28, 0x3e, 0xa0, 0x68, 0x00, 0xbe, 
    0xa0, 0x83, 0x7a, 0x3d, 0x53, 0x23, 0x51, 0xbe, 0x73, 0x5e, 0xcb, 0xbd, 
    0xb4, 0x58, 0x35, 0x3e, 0x67, 0x69, 0xd4, 0xbd, 0xf6, 0xc2, 0xb8, 0xbc, 
    0x82, 0x37, 0xcf, 0xbd, 0x50, 0x6b, 0x29, 0xba, 0x60, 0x72, 0x17, 0xbe, 
    0x56, 0x08, 0x21, 0x3e, 0xde, 0xf6, 0xbf, 0xbd, 0xfb, 0xb4, 0xa4, 0xba, 
    0xcc, 0x11, 0xab, 0x3e, 0xb2, 0x49, 0x8a, 0xbe, 0x61, 0xe6, 0x0b, 0x3d, 
    0x01, 0xbd, 0x0f, 0x3e, 0x42, 0x29, 0x7e, 0xba, 0x74, 0xab, 0xbf, 0x3c, 
    0xd3, 0x14, 0xb9, 0x3d, 0x5e, 0x00, 0x1a, 0x3e, 0x8a, 0x7b, 0xe2, 0x3d, 
    0x7f, 0xf0, 0x4a, 0xbe, 0x01, 0x68, 0xff, 0x3d, 0x10, 0x7a, 0x1e, 0xbe, 
    0x11, 0x94, 0xbd, 0x3d, 0x45, 0xdf, 0x0c, 0x3e, 0xdc, 0x00, 0xb4, 0x3d, 
    0xb2, 0x16, 0xab, 0xbe, 0xd4, 0x79, 0xc0, 0x3d, 0x75, 0xe5, 0x6a, 0x3e, 
    0x34, 0x6a, 0x0e, 0xbe, 0x49, 0x16, 0xff, 0xbd, 0x12, 0x7b, 0x22, 0xbe, 
    0xf3, 0x32, 0x03, 0x3e, 0x6c, 0xaf, 0x45, 0xbd, 0xaf, 0x1c, 0xbb, 0x3e, 
    0xb1, 0xb3, 0x83, 0x3d, 0x5e, 0x9c, 0x29, 0xbc, 0x58, 0x76, 0xab, 0xbe, 
    0x19, 0x95, 0x28, 0xbe, 0x8f, 0x5c, 0xb3, 0x3e, 0x15, 0x77, 0x8c, 0x3e, 
    0x77, 0x75, 0xae, 0x3e, 0xad, 0xe8, 0x8a, 0xbe, 0xd6, 0x5d, 0x7c, 0x3d, 
    0x55, 0xa1, 0x8c, 0x3d, 0x59, 0x68, 0xe8, 0xbd, 0x03, 0xf8, 0x9e, 0x3e, 
    0x69, 0xa0, 0x7d, 0x3e, 0xdb, 0x70, 0x1b, 0x3e, 0xfc, 0xa3, 0xd7, 0x3d, 
    0x25, 0x6e, 0x13, 0x3e, 0x82, 0x56, 0x1c, 0xbe, 0xdc, 0xc5, 0x03, 0xbe, 
    0x86, 0x64, 0x43, 0xbe, 0x5e, 0x26, 0x88, 0x3e, 0x23, 0x10, 0x45, 0x3d, 
    0x53, 0x5a, 0x01, 0xbe, 0xaf, 0x77, 0x87, 0x3d, 0xaa, 0x65, 0x7f, 0xbc, 
    0x4d, 0xe1, 0x08, 0xbe, 0xac, 0x4c, 0x98, 0x3e, 0x64, 0x8a, 0xca, 0xbb, 
    0xcc, 0x36, 0x99, 0xbe, 0xfb, 0x2b, 0x17, 0x3e, 0x7a, 0x81, 0x72, 0xbe, 
    0xbf, 0x7d, 0x84, 0x3c, 0xea, 0x31, 0xd4, 0xbc, 0x29, 0x37, 0x69, 0x3c, 
    0x09, 0xb8, 0x85, 0x3e, 0x91, 0x99, 0x65, 0x3e, 0xac, 0xaf, 0x84, 0xbd, 
    0x35, 0x79, 0xab, 0x3e, 0x46, 0xd1, 0xbe, 0x3d, 0x68, 0x99, 0x26, 0x3e, 
    0x7a, 0x16, 0x55, 0x3e, 0xe9, 0xf0, 0xcb, 0xbd, 0xb8, 0x90, 0xba, 0x3d, 
    0x53, 0xec, 0x04, 0xbe, 0x66, 0xb0, 0xf1, 0xbd, 0x5c, 0xdc, 0x1e, 0xbd, 
    0x99, 0x0a, 0xe1, 0xbd, 0x0c, 0x20, 0xe1, 0x3d, 0x9e, 0xa7, 0x31, 0xbe, 
    0xb2, 0x87, 0x0c, 0xbd, 0x9a, 0x2f, 0x4d, 0x3e, 0x33, 0x96, 0x15, 0xbd, 
    0x90, 0xd3, 0x1f, 0x3e, 0xdc, 0x3d, 0xf2, 0x3d, 0x5a, 0x70, 0xa3, 0x3e, 
    0x26, 0x8a, 0x2b, 0x3e, 0x97, 0x07, 0xdd, 0x3d, 0xfe, 0x0d, 0x25, 0xbe, 
    0x74, 0x6f, 0xcf, 0x3d, 0x79, 0x14, 0x0e, 0xbe, 0x1b, 0xab, 0xd7, 0x3d, 
    0x80, 0x4f, 0x1e, 0x3e, 0xa9, 0x6c, 0x9d, 0x3d, 0xdd, 0xae, 0x1a, 0xbe, 
    0x88, 0xed, 0x22, 0x3d, 0x07, 0x19, 0x18, 0x3e, 0x80, 0xc0, 0xd0, 0xbb, 
    0x45, 0xd0, 0x8c, 0xbc, 0x53, 0x75, 0x47, 0x3e, 0xd9, 0x92, 0xc1, 0xbe, 
    0x7b, 0xe9, 0xeb, 0xbd, 0x87, 0x1a, 0x85, 0xbe, 0x5b, 0xc6, 0x6e, 0xbe, 
    0x3e, 0xc1, 0xc6, 0xbd, 0xb7, 0xb4, 0xeb, 0xbe, 0x8b, 0xd7, 0x5a, 0x3e, 
    0x30, 0x4d, 0xef, 0x3d, 0x2d, 0xd5, 0x47, 0xbc, 0x42, 0xa0, 0x09, 0xbe, 
    0x98, 0xc4, 0x46, 0xbc, 0x89, 0x51, 0xf7, 0xbd, 0x30, 0x37, 0xa5, 0xbe, 
    0xbb, 0x69, 0xb2, 0xbd, 0x23, 0xf2, 0x00, 0xbe, 0x6e, 0xff, 0x06, 0xbf, 
    0xad, 0x55, 0xf6, 0xbe, 0x63, 0xb9, 0x22, 0xbe, 0xf1, 0x3b, 0xdf, 0xbd, 
    0x08, 0xfe, 0xb7, 0x37, 0x97, 0x5c, 0x19, 0x3e, 0x70, 0x84, 0x3e, 0x3d, 
    0x3a, 0xd9, 0x3f, 0x3e, 0x98, 0xaf, 0xdb, 0xbe, 0xa9, 0x71, 0xa8, 0xbc, 
    0x7b, 0x06, 0xa7, 0xbe, 0x4c, 0x46, 0x69, 0xbe, 0x28, 0x29, 0x4f, 0xbe, 
    0x42, 0x92, 0xf0, 0xbd, 0xf9, 0xed, 0x4b, 0xbe, 0x3a, 0xc1, 0x59, 0x3e, 
    0x84, 0x47, 0x22, 0xbe, 0x8d, 0x41, 0xd8, 0x3e, 0x62, 0x06, 0x1c, 0x3e, 
    0x27, 0x7a, 0xd5, 0xbc, 0xed, 0x15, 0x9a, 0x3e, 0x9a, 0x0a, 0x9c, 0x3e, 
    0xcc, 0xa5, 0x05, 0x3f, 0xab, 0x3f, 0x56, 0xbd, 0x07, 0xa7, 0x5b, 0x3e, 
    0x59, 0xf8, 0x5f, 0x3e, 0x0c, 0x61, 0xc5, 0x3d, 0xd8, 0xab, 0x4b, 0x3e, 
    0xdb, 0x53, 0xa5, 0x3e, 0xde, 0xe1, 0x95, 0x3e, 0x68, 0xf2, 0x12, 0xbe, 
    0x68, 0xc9, 0x6f, 0x3e, 0xdf, 0xe6, 0xda, 0x3e, 0x95, 0x76, 0x24, 0x3d, 
    0x20, 0xc9, 0xb0, 0x3e, 0xf7, 0x90, 0xf0, 0x3d, 0x30, 0x4c, 0x80, 0xbd, 
    0x9f, 0x47, 0x00, 0xbd, 0x9d, 0xba, 0x8f, 0xbc, 0x7c, 0xd6, 0xab, 0xbd, 
    0x9b, 0x08, 0xb3, 0x3e, 0x09, 0xeb, 0x83, 0x3e, 0xd7, 0x4a, 0xff, 0x3d, 
    0xf4, 0x00, 0x2f, 0x3e, 0xe2, 0x47, 0xc7, 0xbd, 0x4b, 0x19, 0xb7, 0x3d, 
    0x5f, 0xd9, 0x55, 0x3e, 0x15, 0xcd, 0x3f, 0xbe, 0x02, 0x84, 0xd9, 0x3d, 
    0xb3, 0xed, 0xa6, 0xbe, 0xb5, 0x4f, 0x75, 0x3e, 0xd9, 0x6c, 0xe5, 0xbe, 
    0xbc, 0xdb, 0xd5, 0x3d, 0x52, 0x2c, 0x74, 0xbe, 0xea, 0x18, 0x26, 0xbe, 
    0x3c, 0xa6, 0xa4, 0x3d, 0x9a, 0x78, 0x62, 0x3d, 0x15, 0x6c, 0xd1, 0xbd, 
    0xac, 0x82, 0x10, 0x3e, 0xe6, 0x86, 0x48, 0x3e, 0xc1, 0xa6, 0x67, 0xbd, 
    0x1b, 0x12, 0xa5, 0x3d, 0x23, 0x93, 0x71, 0x3e, 0x41, 0x71, 0xba, 0xbd, 
    0x59, 0x4c, 0x0e, 0x3e, 0xda, 0xeb, 0x06, 0x3d, 0xfa, 0x8e, 0xfc, 0xbd, 
    0x4f, 0xc2, 0xe2, 0xbe, 0x97, 0x4f, 0x42, 0x3d, 0xb5, 0x3d, 0xd3, 0x3d, 
    0x28, 0xb8, 0xa8, 0xbe, 0x2c, 0xa3, 0xb7, 0xbd, 0xd7, 0xe9, 0x0e, 0x3e, 
    0xca, 0x3e, 0x9a, 0xbd, 0xc4, 0x9b, 0xff, 0xbd, 0xbd, 0xcd, 0x3b, 0xbe, 
    0x97, 0x93, 0x62, 0xbe, 0xcb, 0x36, 0x93, 0x3d, 0xfc, 0x66, 0x64, 0xbe, 
    0x66, 0x66, 0xf2, 0x3d, 0xbe, 0x8f, 0x95, 0x3e, 0x55, 0x7b, 0x3d, 0x3e, 
    0x0f, 0x92, 0x88, 0x3d, 0xe6, 0x26, 0xae, 0xbd, 0xdd, 0xae, 0x4b, 0xbe, 
    0x42, 0xf4, 0xef, 0xbc, 0xa6, 0x8f, 0x8a, 0x3c, 0x9d, 0x87, 0xfe, 0x3d, 
    0x80, 0xeb, 0x0b, 0x3e, 0xe9, 0x16, 0xa6, 0xbe, 0x44, 0xec, 0x10, 0x3e, 
    0x60, 0x2d, 0x1d, 0xbd, 0xec, 0xd8, 0xb8, 0xbd, 0xd0, 0x15, 0x9b, 0xbd, 
    0x79, 0xb5, 0x40, 0x3d, 0x34, 0x3f, 0x36, 0xbe, 0xea, 0xd4, 0x84, 0xbd, 
    0xf9, 0xce, 0xf8, 0x3c, 0xc9, 0xa5, 0x9e, 0xbc, 0xe4, 0x68, 0x0f, 0xbe, 
    0x19, 0x1b, 0xbb, 0x3a, 0xd0, 0xbc, 0xab, 0xbd, 0x9e, 0x3d, 0x89, 0xbe, 
    0x62, 0x26, 0x1e, 0x3e, 0x8d, 0xb6, 0x7f, 0xbe, 0xaa, 0x0b, 0xa9, 0x3d, 
    0x67, 0x75, 0x09, 0x3e, 0xde, 0x88, 0x0d, 0xbe, 0x29, 0x3a, 0x81, 0xbe, 
    0xca, 0x2e, 0xeb, 0x3b, 0xaf, 0xe0, 0x9c, 0x3d, 0x06, 0xcd, 0x15, 0x3e, 
    0x57, 0x5e, 0x7a, 0x3e, 0x51, 0x5c, 0xb3, 0x3d, 0xe2, 0x08, 0xd3, 0xbd, 
    0x10, 0x7c, 0x1a, 0x3c, 0xc8, 0x23, 0xce, 0x3d, 0xd2, 0xd0, 0x54, 0x3e, 
    0x03, 0xfa, 0x27, 0xbe, 0x35, 0x4e, 0xc1, 0xbd, 0xa8, 0xe6, 0xfb, 0x3d, 
    0xf5, 0xe0, 0x32, 0xbe, 0x1a, 0x92, 0x58, 0xbe, 0x95, 0x15, 0x4b, 0xbe, 
    0x1a, 0x0d, 0x55, 0xbe, 0x28, 0xa8, 0xce, 0x3c, 0x30, 0x01, 0x96, 0xbc, 
    0x00, 0xf2, 0x02, 0xba, 0x0a, 0x6e, 0x4e, 0x3e, 0xd0, 0x25, 0x17, 0xbe, 
    0x95, 0x57, 0x2b, 0xbe, 0x80, 0x56, 0xca, 0x3d, 0x70, 0xda, 0x3f, 0x3c, 
    0x9c, 0x13, 0x27, 0xbe, 0x91, 0x0a, 0x1d, 0xbe, 0x22, 0x44, 0x34, 0x3e, 
    0x15, 0x73, 0xfd, 0xbd, 0xae, 0xaa, 0x2c, 0xbe, 0xc8, 0x7c, 0x1b, 0xbd, 
    0x62, 0x8d, 0x25, 0xbe, 0x23, 0x62, 0x1b, 0xbe, 0xd2, 0xe4, 0x0f, 0x3e, 
    0x35, 0x2b, 0x4c, 0xbe, 0xd8, 0x3c, 0xd6, 0x3d, 0xc7, 0x76, 0xf2, 0xbd, 
    0xa9, 0x94, 0xfc, 0xbd, 0xc4, 0x4a, 0x0a, 0x3e, 0x1f, 0x6e, 0x1f, 0xbd, 
    0x97, 0x07, 0xa9, 0xbe, 0x06, 0x11, 0xd6, 0xbc, 0x67, 0x9c, 0xeb, 0xbd, 
    0xd8, 0x5e, 0x3b, 0x3e, 0x3a, 0x4c, 0x15, 0xbd, 0xcc, 0xd1, 0xfc, 0xbc, 
    0xde, 0x82, 0x76, 0x3d, 0xf3, 0x84, 0xaf, 0xbd, 0x87, 0x98, 0x2e, 0x3d, 
    0xe5, 0x4e, 0xa9, 0xbe, 0xe1, 0x4f, 0x36, 0x3e, 0x0c, 0x7c, 0x53, 0xbd, 
    0x9d, 0x66, 0x67, 0xbe, 0x0b, 0x12, 0x5d, 0xbe, 0xe4, 0xf0, 0x9a, 0xbe, 
    0xf6, 0xbb, 0x0e, 0x3e, 0x0a, 0xc8, 0x59, 0x3e, 0x63, 0x7c, 0x0e, 0x3e, 
    0x34, 0x4f, 0x83, 0x3d, 0x1c, 0x16, 0x0e, 0x3e, 0xc6, 0xe8, 0x4f, 0xbe, 
    0x4e, 0xf9, 0xb9, 0xbd, 0x40, 0x5a, 0xdc, 0xbe, 0x64, 0xf3, 0x97, 0x3c, 
    0x98, 0xe9, 0x42, 0xbe, 0xae, 0x8b, 0xf0, 0xbd, 0x1e, 0xc8, 0x08, 0xbe, 
    0xdd, 0x63, 0x1a, 0x3e, 0xf5, 0x8b, 0x35, 0xbe, 0x5c, 0x7e, 0xd4, 0x3d, 
    0x26, 0xc5, 0x38, 0x3e, 0xbc, 0xa5, 0xfb, 0x3d, 0x03, 0x36, 0x5d, 0x3c, 
    0xd8, 0x19, 0x98, 0x3d, 0xd9, 0xe2, 0xc3, 0x3e, 0x29, 0x38, 0x73, 0xbe, 
    0xfb, 0x91, 0xef, 0xbd, 0xfb, 0x86, 0x75, 0x3e, 0x48, 0x22, 0x4d, 0x3d, 
    0x4d, 0x1f, 0xf8, 0x3c, 0xef, 0xd5, 0x5e, 0x3e, 0x33, 0xc6, 0x5e, 0x3e, 
    0x02, 0x1a, 0x84, 0x3e, 0x7c, 0x6c, 0xb8, 0x3e, 0xeb, 0xd7, 0xb7, 0x3e, 
    0x96, 0xa0, 0x83, 0x3d, 0x29, 0x80, 0xc2, 0x3e, 0x4d, 0xdf, 0x0c, 0x3e, 
    0x52, 0x64, 0x6d, 0x3e, 0x45, 0xcc, 0x4a, 0x3d, 0x6f, 0x1c, 0x1c, 0x3d, 
    0xaa, 0x16, 0x4b, 0xbe, 0xb8, 0xf8, 0xc7, 0x3d, 0x03, 0x31, 0x12, 0x3e, 
    0x83, 0x0c, 0x1e, 0x3e, 0xbe, 0x90, 0xe4, 0xbd, 0xae, 0x78, 0xe0, 0x3d, 
    0xee, 0x77, 0xaa, 0x3e, 0xec, 0xd9, 0xde, 0xbb, 0x18, 0xf1, 0x17, 0xbe, 
    0x86, 0x98, 0xe4, 0x3d, 0xa7, 0xa6, 0x43, 0xbe, 0x29, 0x35, 0xde, 0xbd, 
    0x68, 0xbf, 0x01, 0x3e, 0xcf, 0x8d, 0x42, 0x3e, 0xc8, 0x2b, 0x84, 0xbd, 
    0x8f, 0x43, 0xf3, 0xbd, 0xcc, 0x31, 0x02, 0xbe, 0xa3, 0xa7, 0x9b, 0xbd, 
    0xb0, 0x19, 0xfe, 0xbd, 0x67, 0x4e, 0x60, 0xbe, 0xe8, 0xf5, 0x01, 0xbd, 
    0xfd, 0xb5, 0x57, 0xbe, 0x82, 0xed, 0x26, 0xbd, 0x9a, 0xda, 0x36, 0x3e, 
    0x0c, 0xbc, 0x80, 0x3d, 0x28, 0x13, 0xb3, 0xbc, 0xda, 0xd4, 0x3c, 0xbe, 
    0xb2, 0xc2, 0x57, 0x3d, 0xa5, 0x11, 0x30, 0xbe, 0x97, 0x00, 0x1a, 0xbe, 
    0x21, 0xd8, 0xed, 0x3d, 0xd9, 0x7e, 0xa1, 0x3b, 0x3c, 0xb0, 0x48, 0x3d, 
    0x9c, 0x63, 0xe7, 0xbd, 0x1d, 0xad, 0x03, 0x3e, 0xc3, 0xc4, 0x39, 0x3e, 
    0x96, 0xd4, 0x1d, 0x3e, 0x28, 0xe0, 0x85, 0x3d, 0x9b, 0x65, 0x54, 0xbe, 
    0xfb, 0x2d, 0xf5, 0xbd, 0xa5, 0x65, 0x88, 0x3d, 0x09, 0xa4, 0xa6, 0x3d, 
    0x20, 0xf0, 0xf0, 0xbc, 0xec, 0xa9, 0xf5, 0x3d, 0xa1, 0x94, 0x27, 0x3e, 
    0x0e, 0x62, 0x26, 0x3e, 0x2f, 0x63, 0x65, 0xbd, 0xd2, 0xab, 0x08, 0x3e, 
    0x0e, 0xbd, 0x30, 0xbe, 0x0b, 0xbf, 0x80, 0xbe, 0xbe, 0x44, 0x70, 0x3c, 
    0x5c, 0x6d, 0xa1, 0xbd, 0x04, 0xda, 0x64, 0xbd, 0x67, 0x5c, 0x72, 0xbe, 
    0x4a, 0x8c, 0x1e, 0x3e, 0xf4, 0x6a, 0x03, 0xbe, 0x56, 0xd5, 0x44, 0xbe, 
    0x29, 0x0b, 0xd1, 0xbd, 0x95, 0x9c, 0x16, 0xbe, 0x34, 0xeb, 0x01, 0xbd, 
    0xee, 0x15, 0xa3, 0x3c, 0x74, 0xc1, 0x7a, 0xbd, 0x01, 0x6f, 0xc7, 0x3d, 
    0x9b, 0x31, 0x18, 0x3e, 0x48, 0x38, 0xad, 0xbd, 0x52, 0x4c, 0x03, 0xbe, 
    0xaf, 0x4a, 0x18, 0xbe, 0x20, 0x26, 0x3f, 0x3e, 0xc5, 0x5d, 0xd1, 0x3d, 
    0x75, 0x88, 0x2d, 0xbe, 0x00, 0xee, 0x76, 0x3b, 0xf2, 0x24, 0xc1, 0xbd, 
    0x2d, 0x40, 0x53, 0xbe, 0x0a, 0xbd, 0x97, 0xbd, 0x87, 0x85, 0x06, 0x3d, 
    0xc0, 0x5b, 0x10, 0x3e, 0x34, 0xd7, 0x04, 0xbe, 0x1c, 0x59, 0x32, 0xbd, 
    0xf9, 0x41, 0xce, 0xbe, 0xcb, 0x66, 0x97, 0xbd, 0x23, 0x57, 0x97, 0x3e, 
    0x44, 0xf1, 0x9a, 0xbe, 0x21, 0x34, 0xa9, 0xbe, 0x01, 0x22, 0xf4, 0x3d, 
    0xa4, 0xf4, 0x92, 0x3e, 0x28, 0x25, 0x95, 0xbe, 0x4a, 0x07, 0x1f, 0xbe, 
    0x2f, 0xf5, 0x45, 0x3e, 0x6b, 0xc8, 0xd5, 0x3d, 0xda, 0xa2, 0xaa, 0x3d, 
    0x2e, 0xc6, 0x86, 0xbe, 0x57, 0x17, 0x5a, 0xbe, 0xb2, 0xad, 0xb1, 0x3d, 
    0x5c, 0x21, 0x80, 0x3e, 0xdf, 0xe2, 0xa4, 0xbc, 0x65, 0x9f, 0xac, 0xbe, 
    0x14, 0x8f, 0x75, 0xbc, 0xa9, 0xbb, 0x98, 0x3c, 0x1f, 0xe8, 0xdd, 0x3c, 
    0xf0, 0xfd, 0x03, 0xbe, 0xee, 0xc3, 0xaa, 0xbd, 0x2a, 0x77, 0x11, 0xbe, 
    0x48, 0x1e, 0x98, 0xbd, 0xb1, 0x40, 0xc2, 0xbd, 0x0a, 0x24, 0x84, 0x3e, 
    0xfe, 0xd6, 0x79, 0xbc, 0x44, 0x7e, 0x71, 0xbd, 0x98, 0x4b, 0xdb, 0xbe, 
    0xa6, 0xff, 0x27, 0xbe, 0x79, 0xb3, 0x51, 0xbb, 0x8c, 0x7c, 0x1f, 0x3e, 
    0x90, 0x8e, 0x9d, 0xbd, 0x6e, 0x7f, 0xd4, 0x3d, 0x55, 0xad, 0x0b, 0xbe, 
    0xb3, 0xe6, 0x55, 0xbe, 0x4f, 0x39, 0x18, 0x3e, 0xf3, 0x97, 0xca, 0x3d, 
    0xed, 0xb0, 0x31, 0xbe, 0xe3, 0x38, 0xbe, 0x3d, 0xb9, 0xa5, 0x00, 0xbe, 
    0x19, 0x0b, 0x11, 0xbd, 0xe3, 0x32, 0xbd, 0xbd, 0x50, 0xea, 0xd5, 0x3d, 
    0x0c, 0x42, 0xdc, 0xbd, 0x14, 0xdf, 0xa6, 0xbd, 0xe2, 0x49, 0xc3, 0xbd, 
    0xc0, 0x4f, 0x2d, 0x3d, 0x53, 0xd4, 0x0b, 0xbe, 0x14, 0xc2, 0x92, 0xbd, 
    0xaa, 0x35, 0x43, 0xbe, 0x41, 0x60, 0x32, 0x3e, 0xdd, 0x25, 0xea, 0xbd, 
    0xe0, 0xc9, 0xab, 0x3c, 0xad, 0xf7, 0x15, 0x3d, 0x06, 0xf4, 0x5e, 0xbe, 
    0xa9, 0x56, 0x95, 0x3c, 0x1d, 0x6b, 0x44, 0x3d, 0x7d, 0xfe, 0x2f, 0xbe, 
    0xaa, 0x0b, 0xeb, 0xbd, 0x26, 0x8a, 0x2a, 0x3e, 0x8c, 0xfc, 0x2d, 0xbe, 
    0x22, 0x53, 0x2d, 0x3d, 0x0d, 0x72, 0x06, 0x3d, 0xdf, 0x3b, 0xe5, 0x3d, 
    0x1a, 0xac, 0xf8, 0x3d, 0x54, 0x2e, 0xd4, 0xbd, 0xfc, 0x58, 0x53, 0xbe, 
    0x19, 0xd4, 0xc3, 0x3d, 0x71, 0xfa, 0xbc, 0xbd, 0x49, 0xe5, 0x07, 0x3e, 
    0x3d, 0xf7, 0x95, 0xbd, 0x10, 0x2e, 0x28, 0x3e, 0xc8, 0x8e, 0x1b, 0x3e, 
    0x8d, 0xc7, 0x01, 0x3e, 0xec, 0x32, 0xd4, 0x3c, 0x12, 0xeb, 0x01, 0x3e, 
    0x5d, 0xd1, 0x91, 0x3c, 0xd3, 0x87, 0x45, 0x3e, 0x56, 0x50, 0x82, 0x3d, 
    0xda, 0x71, 0xdf, 0x3d, 0x06, 0x39, 0xac, 0x3b, 0x23, 0x7e, 0x8c, 0x3e, 
    0xfb, 0x54, 0x1f, 0x3e, 0x03, 0x8c, 0x93, 0x3e, 0xa6, 0x68, 0x5c, 0xbe, 
    0xab, 0xdd, 0x9c, 0x3d, 0x95, 0x95, 0x54, 0x3e, 0xa0, 0x17, 0xda, 0xbc, 
    0xf0, 0xfc, 0x1d, 0x3e, 0x71, 0x8c, 0x6c, 0x3d, 0xb9, 0x37, 0x44, 0xbe, 
    0xc7, 0x94, 0x98, 0xbd, 0x73, 0x74, 0x36, 0xbe, 0xae, 0xb9, 0xd8, 0x3e, 
    0x1f, 0xa4, 0x9e, 0x3c, 0x47, 0x17, 0x2c, 0xbe, 0xc3, 0x6b, 0x0e, 0x3e, 
    0xe0, 0x13, 0x49, 0x3d, 0xa2, 0x3f, 0xe7, 0x3d, 0x55, 0x23, 0xe8, 0x3d, 
    0x26, 0xfa, 0x5c, 0x3e, 0x72, 0xf6, 0x90, 0xbe, 0x04, 0x8c, 0xe0, 0x3e, 
    0x35, 0xd8, 0x8b, 0x3e, 0xd9, 0x20, 0xec, 0x3d, 0x60, 0xd1, 0x36, 0x3c, 
    0xa0, 0xb3, 0xc0, 0x3e, 0xa3, 0xa7, 0x64, 0x3e, 0x7e, 0xb0, 0x11, 0xbe, 
    0x76, 0xca, 0x56, 0x3e, 0xeb, 0x15, 0x20, 0x3e, 0xb1, 0xa9, 0x54, 0x3d, 
    0x7f, 0xa3, 0xa6, 0xbc, 0x80, 0xcb, 0x3f, 0x3e, 0xb2, 0x22, 0xb2, 0x3e, 
    0x73, 0xa3, 0xa6, 0x3e, 0xed, 0xeb, 0x4f, 0xbe, 0x0c, 0x7a, 0x6a, 0xbe, 
    0x21, 0xe3, 0x8b, 0x3e, 0x1b, 0x8d, 0x38, 0xbd, 0x69, 0x46, 0x9f, 0x3e, 
    0x7c, 0x13, 0x07, 0x3d, 0x6c, 0x74, 0x9c, 0x3c, 0xf7, 0x5d, 0x36, 0xbd, 
    0x8e, 0x2b, 0x52, 0xbe, 0x8f, 0xd8, 0x94, 0xbe, 0x6e, 0x85, 0x4e, 0xbd, 
    0xfd, 0x83, 0x08, 0x3d, 0x87, 0x73, 0x2a, 0xbe, 0x07, 0x1c, 0x51, 0xbe, 
    0x90, 0x44, 0x0a, 0xbe, 0xcc, 0x7f, 0x00, 0x3e, 0xfb, 0x81, 0x5f, 0xbe, 
    0x88, 0x4d, 0x32, 0x3c, 0xd7, 0x77, 0x30, 0xbe, 0x1b, 0x56, 0x28, 0x3e, 
    0x12, 0xba, 0x8e, 0xbc, 0x28, 0xe9, 0x31, 0xbe, 0x97, 0xa0, 0xf5, 0xbe, 
    0xae, 0x11, 0x57, 0xbe, 0x38, 0x61, 0xed, 0xbc, 0x7e, 0x6f, 0x26, 0x3e, 
    0x08, 0x89, 0x34, 0x3e, 0xbf, 0x75, 0xb1, 0xbe, 0x25, 0x66, 0x9c, 0xbd, 
    0xdc, 0xe6, 0x9a, 0xbe, 0xdf, 0x72, 0xa1, 0x3d, 0x80, 0xf9, 0x28, 0xbd, 
    0xdd, 0x67, 0xa9, 0xbe, 0x42, 0xc7, 0x9f, 0xbe, 0x25, 0x8e, 0x8c, 0xbe, 
    0xdf, 0x94, 0x53, 0xbe, 0x7c, 0x54, 0xcf, 0x3d, 0x84, 0xf1, 0x40, 0x3e, 
    0x7a, 0x8e, 0x8a, 0x3e, 0xf9, 0xab, 0x6c, 0xbe, 0x4c, 0x82, 0xb1, 0xbd, 
    0x59, 0xdf, 0x13, 0x3c, 0xdb, 0xa1, 0xd9, 0xba, 0xe8, 0xae, 0x7c, 0xbd, 
    0x7b, 0x92, 0x52, 0xbc, 0x7b, 0xa3, 0x71, 0xbc, 0x9d, 0x77, 0x58, 0x3b, 
    0x92, 0x93, 0x5d, 0xbe, 0xc3, 0x9f, 0x1f, 0xbe, 0x03, 0x63, 0xc2, 0x3d, 
    0x28, 0x1f, 0x52, 0xbe, 0x44, 0x22, 0x3c, 0x3e, 0x83, 0x25, 0x03, 0xbb, 
    0x38, 0x7d, 0x1f, 0x3d, 0xe0, 0xce, 0x27, 0xbd, 0x90, 0xac, 0x31, 0x3d, 
    0x38, 0x93, 0xfc, 0xbd, 0x43, 0x69, 0x28, 0x3e, 0xa2, 0xd0, 0x2e, 0x3e, 
    0x4d, 0x95, 0x28, 0xbe, 0x2f, 0xb0, 0xdd, 0x3d, 0x15, 0x53, 0x05, 0x3e, 
    0xf4, 0x21, 0x5b, 0xbe, 0x37, 0x40, 0x54, 0xbe, 0xa0, 0x26, 0x32, 0x3e, 
    0x3a, 0xf2, 0xad, 0xbc, 0xf8, 0xdf, 0x8c, 0x3d, 0x3f, 0x2a, 0x25, 0xbe, 
    0x4d, 0x85, 0x4a, 0xbe, 0x27, 0x02, 0xd8, 0x3b, 0xff, 0x24, 0x85, 0xbd, 
    0x9d, 0x35, 0x02, 0xbd, 0x3e, 0xb1, 0x82, 0x3e, 0x50, 0xce, 0x85, 0x3d, 
    0xac, 0x3f, 0x8f, 0x3e, 0xa4, 0xf0, 0xa3, 0x3e, 0xd8, 0x94, 0x64, 0x3e, 
    0x31, 0xa1, 0x1d, 0x3e, 0xa4, 0x24, 0x8a, 0x3e, 0x77, 0x8e, 0x04, 0xbe, 
    0xbf, 0xde, 0xc6, 0xbd, 0x66, 0xcb, 0xc5, 0x3d, 0xab, 0xa1, 0x12, 0xbe, 
    0xf0, 0x1d, 0xa8, 0x3d, 0x75, 0xa2, 0xe4, 0xbd, 0x32, 0xfe, 0x94, 0x3e, 
    0xf0, 0x62, 0xfe, 0xbc, 0xf4, 0x67, 0x04, 0x3e, 0x5d, 0x7d, 0x59, 0x3e, 
    0x95, 0x1d, 0x8c, 0xbc, 0x25, 0x36, 0x22, 0x3e, 0x2c, 0xa0, 0xb0, 0xbd, 
    0xfc, 0x68, 0x1c, 0x3e, 0x62, 0x13, 0xea, 0x3d, 0x40, 0xe1, 0x30, 0xbe, 
    0x93, 0xcb, 0x4c, 0x3e, 0x7b, 0xf2, 0xf5, 0xbb, 0xbd, 0x06, 0x12, 0xbd, 
    0x12, 0x7c, 0xad, 0xbd, 0xe9, 0x9b, 0x99, 0x3e, 0x2a, 0xf6, 0xfa, 0x3d, 
    0x6d, 0x6b, 0xa0, 0x3d, 0xf3, 0x5a, 0xe1, 0xbd, 0x37, 0x3a, 0x27, 0x3d, 
    0xa8, 0x13, 0xc3, 0xbe, 0x65, 0xf7, 0x7c, 0x3c, 0xc0, 0xdd, 0x53, 0xbe, 
    0x80, 0x98, 0x22, 0xbb, 0xc3, 0x60, 0x5b, 0x3e, 0x8b, 0xf9, 0xcf, 0xbd, 
    0xff, 0xf2, 0x87, 0xbe, 0xfd, 0xd6, 0x92, 0xbd, 0x40, 0xf4, 0x5b, 0x3e, 
    0xe3, 0x34, 0x65, 0x3b, 0x9b, 0x63, 0x8a, 0x3e, 0xad, 0x1a, 0x05, 0x3e, 
    0x63, 0xb1, 0x50, 0x3e, 0x80, 0x04, 0x12, 0x3c, 0x2d, 0x6d, 0xa8, 0x3d, 
    0xdb, 0x28, 0x3e, 0x3e, 0x88, 0x3f, 0xbc, 0xbe, 0x7a, 0x55, 0x57, 0x3e, 
    0x4a, 0x4d, 0xd7, 0x3d, 0x43, 0x64, 0x5d, 0xbe, 0x66, 0xef, 0x82, 0xbd, 
    0x56, 0x49, 0x34, 0x3e, 0x30, 0xbc, 0xa1, 0x3d, 0x4d, 0x7a, 0xb5, 0xbd, 
    0x16, 0x85, 0xe1, 0x3d, 0x69, 0xb4, 0x21, 0xbe, 0xa2, 0x6d, 0x0d, 0x3e, 
    0xef, 0x81, 0x5b, 0xbe, 0x44, 0x05, 0xd7, 0xbc, 0xf8, 0x06, 0x68, 0x3e, 
    0xee, 0x11, 0xfd, 0x3d, 0x0a, 0x25, 0xb5, 0x3d, 0xd9, 0x1f, 0x8c, 0xbe, 
    0x13, 0x89, 0x9b, 0xbe, 0xb4, 0xff, 0x53, 0x3e, 0x70, 0xab, 0x36, 0xbe, 
    0x75, 0xf5, 0xa1, 0x3d, 0x8c, 0x92, 0x15, 0xbd, 0x00, 0x98, 0x01, 0x3e, 
    0x02, 0x7b, 0xeb, 0xbd, 0x2e, 0x92, 0xa6, 0xbd, 0x1d, 0x6f, 0x0c, 0xbe, 
    0x9e, 0xd0, 0x83, 0x39, 0xba, 0xa1, 0xe0, 0xbd, 0xcf, 0x9f, 0x88, 0xbe, 
    0xd4, 0x0e, 0xdc, 0xbe, 0x53, 0xc7, 0xa5, 0xbd, 0xcd, 0x36, 0x76, 0xbd, 
    0xa0, 0x4b, 0x76, 0xbe, 0x26, 0x52, 0x0d, 0x3e, 0x6c, 0xdc, 0x3b, 0x3e, 
    0xd4, 0x7d, 0x3c, 0x3e, 0x34, 0xf3, 0xe2, 0xbd, 0xea, 0x74, 0x36, 0x3c, 
    0xf6, 0x6e, 0xa4, 0x3c, 0xe5, 0x39, 0x5f, 0xbe, 0xca, 0x3a, 0xda, 0x3d, 
    0x8a, 0xca, 0xf6, 0x3d, 0xa6, 0x5d, 0x41, 0xbe, 0x67, 0x16, 0xcb, 0xbd, 
    0x38, 0x25, 0x8e, 0xbd, 0x16, 0xcf, 0x59, 0x3e, 0xb7, 0x0c, 0xad, 0x3e, 
    0xd3, 0xef, 0x9e, 0xbc, 0xb4, 0x17, 0x23, 0xbe, 0x50, 0x1b, 0xaa, 0x3c, 
    0x0e, 0xcd, 0x6f, 0xbd, 0xf6, 0x3e, 0xe0, 0x3d, 0xef, 0xef, 0x46, 0xbe, 
    0x9a, 0x0c, 0x5d, 0xbe, 0x2a, 0x1b, 0xc1, 0x3c, 0xb4, 0xdf, 0x46, 0x3e, 
    0x8c, 0xcd, 0x86, 0xbd, 0x3f, 0xe6, 0x9a, 0xbd, 0xc3, 0x84, 0x11, 0xbe, 
    0x2c, 0xfa, 0x14, 0x3e, 0xc7, 0x04, 0xfe, 0xbd, 0x47, 0xa0, 0x0d, 0x3e, 
    0x7c, 0xe9, 0x34, 0x3e, 0xbe, 0x6f, 0x89, 0xbd, 0xd5, 0x98, 0x96, 0x3d, 
    0x44, 0xae, 0xf5, 0xbd, 0x2f, 0x2e, 0x95, 0xbd, 0x7e, 0x92, 0x60, 0x3c, 
    0xd4, 0x9c, 0xa3, 0xbd, 0x3c, 0xf9, 0xb0, 0xbd, 0xae, 0x01, 0x53, 0xbe, 
    0xf6, 0xfe, 0x2b, 0x3e, 0x61, 0x42, 0xf1, 0x3d, 0xcd, 0xf7, 0x17, 0xbe, 
    0x8e, 0xdc, 0xb1, 0xbd, 0xab, 0x22, 0x0c, 0x3e, 0x2a, 0x12, 0x1f, 0x3e, 
    0x01, 0xaf, 0x38, 0xbe, 0xce, 0x9d, 0xef, 0x3d, 0x00, 0x10, 0x09, 0xbd, 
    0xf5, 0xb4, 0xd5, 0x3d, 0xee, 0xac, 0x51, 0x3d, 0x0f, 0x71, 0x0a, 0xbd, 
    0x2b, 0xd8, 0xb1, 0x3e, 0x7a, 0xe2, 0x50, 0xbe, 0xd3, 0x58, 0x98, 0x3d, 
    0xcc, 0x10, 0x17, 0x3e, 0xcc, 0x87, 0x7e, 0xbd, 0x32, 0x59, 0xf0, 0x3d, 
    0xf8, 0xd8, 0x06, 0xbd, 0x55, 0xf4, 0xde, 0x3d, 0x77, 0xfd, 0x40, 0xbe, 
    0x1b, 0xc3, 0x97, 0x3d, 0xd7, 0x59, 0x43, 0x3e, 0x49, 0xf4, 0x99, 0x3d, 
    0xe2, 0x35, 0x0e, 0x3e, 0x82, 0xdd, 0xc3, 0x3d, 0x43, 0x50, 0xce, 0xbd, 
    0x9d, 0x9f, 0x37, 0xbe, 0xe2, 0x5b, 0x93, 0x3e, 0xce, 0x2e, 0x23, 0x3d, 
    0xb4, 0xc3, 0x6b, 0x3d, 0x14, 0x89, 0xd3, 0x3b, 0xa9, 0x2c, 0x5f, 0x3e, 
    0x96, 0x91, 0xcc, 0xbc, 0xa3, 0x93, 0x9b, 0x3e, 0xef, 0x14, 0x9d, 0x3d, 
    0xa2, 0x33, 0x5f, 0x3d, 0x3b, 0x3b, 0x81, 0xbd, 0x20, 0xa2, 0xf1, 0x3d, 
    0x8d, 0x61, 0x24, 0x3d, 0xe1, 0xf3, 0x8c, 0x3e, 0x78, 0x0d, 0x56, 0x3e, 
    0x53, 0x25, 0x9c, 0xbe, 0xa4, 0x6c, 0x1e, 0xbc, 0x92, 0x7b, 0x8f, 0x3e, 
    0x97, 0xb2, 0x39, 0x3e, 0xb8, 0x88, 0xb9, 0x3d, 0x0e, 0x2b, 0x53, 0x3e, 
    0x8f, 0xcf, 0x12, 0x3e, 0x6d, 0x8f, 0x8b, 0x3d, 0xa4, 0x93, 0x4f, 0xbd, 
    0xe7, 0x91, 0x3d, 0x3d, 0xd8, 0xf9, 0x82, 0x38, 0x2b, 0x7a, 0x91, 0xbd, 
    0x2e, 0xe8, 0x42, 0x3e, 0xcd, 0x41, 0x9a, 0x3d, 0xd5, 0x79, 0x46, 0x3d, 
    0xe8, 0xf0, 0xc7, 0x3d, 0x2f, 0x2e, 0x11, 0x3e, 0x6f, 0x88, 0x4d, 0x3e, 
    0x3e, 0x47, 0x7f, 0xbd, 0x63, 0x52, 0xaf, 0xbd, 0x13, 0xce, 0xce, 0x3b, 
    0x7b, 0x71, 0x44, 0xbe, 0x62, 0xcd, 0x73, 0xbe, 0x25, 0x8d, 0xbc, 0x3d, 
    0x17, 0x78, 0x7d, 0x3e, 0xec, 0xe7, 0x7d, 0xbe, 0x2b, 0x20, 0x98, 0x3d, 
    0x84, 0x5e, 0xd1, 0xbc, 0x52, 0x03, 0x8c, 0x3d, 0x0d, 0x1a, 0x81, 0x3e, 
    0xb8, 0x7d, 0x7f, 0x3e, 0x10, 0x6d, 0x3f, 0xbc, 0xb2, 0x47, 0x86, 0x3e, 
    0xec, 0x61, 0x60, 0xbe, 0x78, 0x5f, 0xe6, 0x3c, 0x50, 0x1d, 0x71, 0xbd, 
    0x36, 0x07, 0xd1, 0xbe, 0xb2, 0xb8, 0x4f, 0x3e, 0x18, 0xfa, 0x8e, 0x3e, 
    0xc4, 0xf1, 0x5d, 0x3e, 0xdc, 0x06, 0x50, 0xbe, 0x5f, 0x84, 0xed, 0x3d, 
    0xff, 0xb5, 0x27, 0xbc, 0x20, 0x13, 0x90, 0xbb, 0x64, 0x4d, 0x47, 0xbd, 
    0x23, 0xb9, 0xcc, 0x3d, 0xdf, 0x89, 0x8e, 0x3e, 0xca, 0x29, 0xae, 0xbd, 
    0xc7, 0x6a, 0x0b, 0x3e, 0x2a, 0x1d, 0x8b, 0xbd, 0x97, 0xcc, 0x04, 0x3e, 
    0x21, 0x3e, 0x33, 0x3e, 0x32, 0x88, 0x4e, 0x3e, 0x8f, 0x21, 0xa7, 0x3e, 
    0xbc, 0x89, 0x7c, 0x3c, 0x1a, 0xde, 0x0f, 0xbe, 0xe6, 0x27, 0x67, 0x3d, 
    0x49, 0xbf, 0x91, 0x3e, 0xeb, 0xb1, 0x88, 0xbe, 0xa1, 0xf0, 0x95, 0xbc, 
    0x89, 0x4d, 0x86, 0x3e, 0x72, 0x31, 0x1f, 0xbe, 0x56, 0xa2, 0x93, 0xbe, 
    0x10, 0xe1, 0xb4, 0x3d, 0xd7, 0x27, 0x87, 0xbc, 0xe8, 0x14, 0xe2, 0x3d, 
    0x38, 0x9e, 0x2a, 0xbd, 0x5f, 0xa7, 0x2d, 0xbe, 0x94, 0xb3, 0xbd, 0xbd, 
    0xaf, 0xa4, 0x1c, 0xbe, 0x13, 0x63, 0x30, 0xbe, 0x11, 0x1b, 0xc6, 0xbd, 
    0xf0, 0x00, 0xb5, 0x3d, 0xe1, 0x82, 0x0f, 0xbe, 0x24, 0x56, 0x28, 0x3e, 
    0x2a, 0x34, 0x49, 0xbe, 0x80, 0x05, 0x3e, 0x3e, 0xd6, 0x3b, 0x91, 0xbd, 
    0x1f, 0xdd, 0x02, 0xbe, 0x65, 0x53, 0xd8, 0xbd, 0x01, 0x93, 0xe8, 0xbd, 
    0x58, 0x51, 0x8a, 0x3c, 0xb0, 0xf9, 0xb3, 0x3d, 0x72, 0x99, 0x3c, 0x3e, 
    0xea, 0x55, 0x41, 0xbd, 0x6d, 0xb4, 0x9e, 0x3d, 0x69, 0x4e, 0x51, 0x3d, 
    0x30, 0x3e, 0x32, 0x3d, 0x78, 0x34, 0xb1, 0x3d, 0xec, 0x60, 0x2a, 0x3e, 
    0xf8, 0xed, 0x2a, 0xbe, 0x0c, 0x85, 0x0b, 0x3e, 0x4b, 0xd5, 0x0b, 0x3e, 
    0xe4, 0xe9, 0x29, 0xbe, 0xce, 0x6d, 0x04, 0xbe, 0x53, 0xff, 0x4c, 0x3d, 
    0xd8, 0xaa, 0xe6, 0x3c, 0x74, 0x0e, 0x28, 0x3e, 0x39, 0x67, 0x48, 0x3e, 
    0xf6, 0xbd, 0xcf, 0xbe, 0x4e, 0x65, 0x2f, 0x3e, 0x75, 0xfc, 0x19, 0x3d, 
    0xce, 0x19, 0xcf, 0xbd, 0x00, 0x19, 0x99, 0xbe, 0xe4, 0x4f, 0xb4, 0x3e, 
    0x9a, 0xf0, 0xa1, 0x3c, 0x0a, 0x5b, 0xaf, 0xbe, 0x58, 0x91, 0x18, 0x3e, 
    0x7d, 0xab, 0x46, 0x3e, 0xc4, 0x47, 0x35, 0xbe, 0x94, 0xb4, 0x01, 0x3d, 
    0x41, 0x4a, 0x7b, 0xbb, 0x26, 0xe9, 0x8e, 0xbe, 0x59, 0x61, 0x46, 0xbe, 
    0x16, 0x74, 0x45, 0x3e, 0xf8, 0x28, 0xc2, 0xbe, 0xbb, 0x23, 0x3d, 0x3d, 
    0x3a, 0x97, 0x5b, 0xbe, 0x78, 0x1d, 0x59, 0x3d, 0x4a, 0xc2, 0xa3, 0x3e, 
    0x18, 0x7e, 0x46, 0x3e, 0x5c, 0x98, 0x1f, 0x3e, 0x0f, 0x0d, 0x71, 0x3e, 
    0x07, 0x58, 0x93, 0xbe, 0x39, 0xb2, 0xd0, 0xbe, 0x52, 0xec, 0x85, 0xbd, 
    0xfd, 0x0c, 0xbb, 0x3e, 0x6f, 0x64, 0x46, 0xbe, 0xb9, 0x53, 0x1f, 0x3e, 
    0xea, 0xde, 0x0e, 0xbe, 0x0c, 0xb0, 0x2b, 0x3e, 0xea, 0x59, 0x20, 0x3d, 
    0x10, 0xc4, 0xa4, 0xbe, 0x90, 0xa5, 0x9a, 0xbc, 0x8f, 0x20, 0x90, 0x3c, 
    0x45, 0x88, 0xac, 0x3d, 0xec, 0x60, 0x26, 0xbe, 0x46, 0x80, 0xea, 0x3c, 
    0x80, 0xa0, 0xd4, 0xbd, 0x6d, 0x09, 0x13, 0x3e, 0x68, 0x74, 0x02, 0xbd, 
    0x52, 0xe2, 0xc8, 0x3e, 0x2f, 0x7e, 0x6f, 0x3e, 0xf4, 0xf5, 0x20, 0x3e, 
    0xa3, 0x2c, 0xf1, 0x3d, 0x8c, 0xbf, 0x64, 0xbd, 0x20, 0xcc, 0xf4, 0xbc, 
    0x1d, 0xb2, 0xc4, 0xbd, 0xbc, 0xf6, 0x99, 0x3e, 0x85, 0xf4, 0x30, 0xbd, 
    0xdc, 0x18, 0x28, 0x3e, 0x6f, 0x97, 0x28, 0xbe, 0xde, 0x88, 0x25, 0x3e, 
    0xef, 0xf4, 0xf4, 0x3d, 0xfc, 0xaf, 0x2b, 0x3e, 0x89, 0xa6, 0x38, 0x3e, 
    0xd0, 0xac, 0x0f, 0x3e, 0xf3, 0x48, 0xd9, 0xbe, 0x70, 0x6d, 0x6e, 0x3d, 
    0xa8, 0x8f, 0x63, 0x3e, 0x15, 0xc0, 0x8d, 0xbe, 0x02, 0x1a, 0x86, 0xbd, 
    0xcd, 0x49, 0xea, 0x3d, 0xbc, 0x2e, 0x10, 0xbd, 0xf3, 0xe6, 0xba, 0x3e, 
    0xd3, 0x30, 0x90, 0x3e, 0xbd, 0x20, 0x82, 0xbd, 0xa3, 0x7b, 0x0f, 0xbe, 
    0xa3, 0x2e, 0x67, 0x3e, 0x0d, 0x9b, 0x99, 0xbe, 0xe8, 0x76, 0x6c, 0xbd, 
    0xf3, 0x64, 0x27, 0xbd, 0x9e, 0x18, 0xba, 0x3e, 0xce, 0xc8, 0xc2, 0xbe, 
    0xfe, 0xee, 0x4e, 0xbe, 0x47, 0x48, 0x89, 0x3e, 0x25, 0x3a, 0x61, 0x3e, 
    0xc1, 0x5f, 0x15, 0x3d, 0x51, 0x86, 0xa5, 0x3d, 0x61, 0xdd, 0x0a, 0x3e, 
    0xd4, 0x44, 0xc3, 0xbd, 0xa0, 0x83, 0x8d, 0xbd, 0xb9, 0xd6, 0xd8, 0xbd, 
    0x6c, 0xdf, 0xa3, 0x3e, 0x77, 0xe7, 0xa2, 0xbd, 0x5e, 0xdc, 0x03, 0xbe, 
    0x7e, 0xb8, 0x22, 0x3e, 0x6f, 0x24, 0x63, 0x3e, 0xc4, 0x8d, 0xba, 0x3c, 
    0x67, 0x27, 0xe5, 0x3d, 0xe1, 0x24, 0xa4, 0x3e, 0x9a, 0x43, 0x17, 0xbe, 
    0x1c, 0xd1, 0xa4, 0x3d, 0xb8, 0xda, 0x9e, 0xbd, 0x74, 0x90, 0xbb, 0x3d, 
    0xf4, 0x45, 0x79, 0xbd, 0xba, 0x6e, 0xee, 0xbb, 0x8d, 0x9e, 0x0d, 0x3e, 
    0x18, 0xc1, 0xe2, 0xbd, 0xae, 0xd8, 0x2f, 0xbe, 0xa3, 0x83, 0x2d, 0x3e, 
    0xa3, 0x1a, 0x41, 0xbe, 0x20, 0x95, 0x4b, 0xbc, 0xb8, 0xa9, 0x29, 0x3e, 
    0xab, 0x94, 0x87, 0xbd, 0xc3, 0xd1, 0x2e, 0x3e, 0xbe, 0xad, 0x2a, 0x3e, 
    0xdb, 0x25, 0x1f, 0xbe, 0x78, 0xa8, 0xbe, 0xbc, 0x5f, 0x31, 0xd0, 0x3d, 
    0xbe, 0xaa, 0x16, 0x3d, 0x6c, 0xa0, 0x00, 0xbe, 0x80, 0xd1, 0x37, 0xbd, 
    0x40, 0x49, 0x9e, 0x3c, 0x6f, 0x6f, 0xbd, 0xbd, 0xb6, 0xdd, 0x89, 0x3d, 
    0xc6, 0x35, 0x1e, 0x3d, 0xa0, 0x73, 0x82, 0xbd, 0x27, 0xd5, 0x26, 0xbe, 
    0x54, 0xe6, 0x2b, 0xbd, 0xa7, 0xdb, 0x1f, 0xbe, 0x99, 0x52, 0xf3, 0x3d, 
    0xf9, 0x89, 0x24, 0xbe, 0x9b, 0xc3, 0xee, 0xbd, 0xad, 0x8e, 0x45, 0x3e, 
    0x6c, 0x05, 0xbb, 0x3d, 0xe4, 0xb1, 0xcb, 0x3d, 0x3d, 0x0e, 0x3f, 0x3e, 
    0xa6, 0x23, 0x47, 0xbe, 0x9c, 0x47, 0xf2, 0x3d, 0xcd, 0x5f, 0x35, 0x3e, 
    0xcc, 0xc7, 0x9f, 0xbd, 0x94, 0xa6, 0x1e, 0xbe, 0x62, 0x0f, 0xe1, 0x3d, 
    0xbd, 0x36, 0xd8, 0xbd, 0x52, 0x13, 0x9b, 0x3a, 0x8e, 0x65, 0x21, 0x3e, 
    0xd8, 0x6e, 0xee, 0x3c, 0xfc, 0x10, 0x9e, 0xbd, 0xc7, 0x2a, 0xd5, 0xbd, 
    0x1d, 0xf4, 0x01, 0x3d, 0xe4, 0x25, 0x2a, 0x3e, 0x14, 0x63, 0x23, 0xbe, 
    0xad, 0xa0, 0x1e, 0xbe, 0x53, 0x85, 0x2f, 0xbe, 0x2d, 0xf0, 0x70, 0x3d, 
    0x8d, 0x92, 0xef, 0xbd, 0x00, 0xcd, 0xd9, 0xbc, 0x80, 0x9f, 0x32, 0x3e, 
    0x0f, 0xf4, 0x8a, 0xbd, 0xe6, 0x06, 0x15, 0xbe, 0xa7, 0xd2, 0x39, 0xbc, 
    0xf7, 0x36, 0x24, 0xbe, 0x60, 0x1b, 0xbc, 0x3d, 0x36, 0x54, 0xce, 0xbd, 
    0x35, 0x62, 0xc2, 0x3e, 0x49, 0x1a, 0xb0, 0xbd, 0x6c, 0x76, 0x11, 0x3e, 
    0x54, 0xf2, 0x8b, 0x3e, 0x55, 0x71, 0x07, 0xbf, 0x24, 0x5f, 0xb6, 0xbc, 
    0x24, 0x34, 0x5a, 0xbb, 0x07, 0xed, 0xfe, 0x3d, 0x21, 0xe9, 0x55, 0xbe, 
    0x08, 0xe8, 0x7c, 0x3e, 0xa1, 0x2e, 0x29, 0x3e, 0x96, 0x46, 0x9f, 0xbe, 
    0x91, 0xb5, 0xaa, 0x3d, 0x42, 0x8b, 0x9d, 0x3e, 0xe9, 0xf2, 0x4e, 0xbd, 
    0x4c, 0x26, 0x37, 0xbd, 0xf1, 0x87, 0x77, 0x3e, 0x62, 0x23, 0x47, 0xbe, 
    0xaa, 0xd6, 0x45, 0xbd, 0x01, 0x4f, 0x94, 0x3e, 0xf1, 0xbe, 0x88, 0xbe, 
    0x28, 0x38, 0x02, 0xbd, 0x66, 0x4b, 0xcc, 0x3d, 0xb6, 0x1e, 0x4e, 0xbe, 
    0xca, 0x8e, 0xbc, 0xbc, 0x12, 0x93, 0x84, 0x3e, 0x38, 0xe8, 0x76, 0xbd, 
    0x23, 0xb7, 0xf9, 0x3d, 0x29, 0x6e, 0x6d, 0xbe, 0xcf, 0xbc, 0xc4, 0xbe, 
    0xec, 0x20, 0x57, 0xbd, 0x61, 0xa5, 0x3e, 0x3e, 0xc6, 0x52, 0x42, 0xbe, 
    0xea, 0x97, 0x99, 0xbe, 0xda, 0x7b, 0x73, 0xbd, 0x5c, 0x58, 0x35, 0xbf, 
    0xa8, 0xb8, 0xcc, 0x3d, 0xba, 0xe1, 0x66, 0x3e, 0xd8, 0xa3, 0xfb, 0xbd, 
    0x7d, 0x98, 0x4f, 0xbe, 0xbe, 0xac, 0xc2, 0x3d, 0xa2, 0x9f, 0xcf, 0xbd, 
    0x52, 0x84, 0x6d, 0xbe, 0x05, 0x3a, 0xcd, 0xbc, 0xd4, 0xff, 0x13, 0xbe, 
    0xe5, 0xad, 0xdf, 0xbe, 0x27, 0x5e, 0xb9, 0xbe, 0xac, 0x57, 0x4c, 0xbd, 
    0x06, 0x47, 0xb1, 0xbd, 0xc3, 0x17, 0xad, 0x3d, 0xa3, 0x8a, 0x2e, 0xbc, 
    0x95, 0x49, 0x7a, 0x3d, 0xc9, 0x5a, 0x11, 0x3d, 0x84, 0xb4, 0xf1, 0xbd, 
    0x6d, 0x9d, 0x92, 0x3b, 0xe9, 0x8c, 0xee, 0xbc, 0xf1, 0x0a, 0xf7, 0xbd, 
    0x84, 0x19, 0x0c, 0xbe, 0x9b, 0xcb, 0xfd, 0xbd, 0xf8, 0xff, 0xe3, 0x3d, 
    0x64, 0x86, 0xf6, 0x3d, 0xf3, 0x7a, 0x23, 0xbe, 0x54, 0x99, 0x89, 0x3e, 
    0x96, 0xf9, 0x80, 0x3b, 0xce, 0xd3, 0xc0, 0xbd, 0x59, 0x92, 0x0f, 0x3e, 
    0x84, 0x79, 0x1a, 0x3e, 0xbd, 0xa1, 0xca, 0xbd, 0x16, 0xe2, 0xcd, 0x3d, 
    0x3c, 0xc9, 0xba, 0x3c, 0x4b, 0xdc, 0x2a, 0x3d, 0xcf, 0x8c, 0x28, 0xbe, 
    0x4a, 0x55, 0x65, 0xbe, 0x57, 0x94, 0xb5, 0x3d, 0x3d, 0xa1, 0xc5, 0x3d, 
    0x54, 0x54, 0xb9, 0x3d, 0x59, 0x3b, 0x8f, 0xbd, 0x36, 0xba, 0x58, 0xbe, 
    0xcb, 0x11, 0xf3, 0x3d, 0x97, 0xe2, 0xcf, 0x3d, 0xf8, 0xab, 0x45, 0xbe, 
    0x81, 0xc0, 0x1e, 0x3d, 0xeb, 0x04, 0x87, 0xbd, 0x97, 0x16, 0x66, 0xbd, 
    0xd4, 0xf2, 0x0b, 0xbe, 0x68, 0x33, 0xf3, 0xbd, 0x95, 0x66, 0xad, 0xbc, 
    0x2f, 0x9f, 0x2b, 0x3e, 0xb7, 0x68, 0xd2, 0x3d, 0x2d, 0x45, 0x29, 0xbe, 
    0x06, 0xae, 0xbf, 0xbd, 0x84, 0xd3, 0x08, 0x3d, 0x18, 0xaa, 0x32, 0x3d, 
    0xe0, 0x27, 0x26, 0x3e, 0x26, 0xc8, 0xfd, 0xbd, 0x8e, 0x34, 0x3b, 0x3d, 
    0x22, 0x9c, 0x92, 0x3d, 0xd8, 0x05, 0xb3, 0x3d, 0x35, 0xde, 0xd3, 0x3d, 
    0x7b, 0x8d, 0xe7, 0x3e, 0x20, 0x72, 0xd5, 0xbe, 0x5f, 0x49, 0x39, 0x3e, 
    0xa4, 0x5c, 0x05, 0x3e, 0x2e, 0x20, 0x6b, 0xbd, 0xfe, 0xb5, 0x24, 0xbe, 
    0x22, 0xc3, 0xea, 0x3d, 0x80, 0x5e, 0x2f, 0xbe, 0xec, 0xa5, 0x5d, 0xbd, 
    0x80, 0x8b, 0xdb, 0xbb, 0x8d, 0x1d, 0xbb, 0x3e, 0xe0, 0x5a, 0x1f, 0xbd, 
    0x28, 0xce, 0xb7, 0x3c, 0xaf, 0xfd, 0x7a, 0x3e, 0x3b, 0x1a, 0x59, 0xbe, 
    0x06, 0x59, 0x22, 0x3e, 0xf6, 0x40, 0x3d, 0x3e, 0xdc, 0xaf, 0xc1, 0xbe, 
    0x80, 0x62, 0xb4, 0xbd, 0xd0, 0xd0, 0x3f, 0xbc, 0x44, 0xc8, 0xed, 0x3d, 
    0x80, 0xd3, 0xb3, 0x3e, 0xb6, 0x49, 0xc7, 0xbc, 0x34, 0x1b, 0x5a, 0xbe, 
    0x02, 0x87, 0x63, 0x3e, 0x42, 0x98, 0x99, 0xbe, 0xcf, 0x49, 0x30, 0xbe, 
    0x5a, 0x71, 0x65, 0xbe, 0x9c, 0x98, 0x27, 0x3e, 0x26, 0xaf, 0x49, 0x3e, 
    0x6e, 0x63, 0xd4, 0xbd, 0x29, 0xd4, 0x43, 0xbd, 0xef, 0xc7, 0x01, 0xbe, 
    0x50, 0x49, 0x21, 0x3e, 0xd0, 0x3a, 0x7c, 0xbe, 0x45, 0x85, 0x01, 0xbe, 
    0x4f, 0x21, 0x40, 0x3d, 0xfc, 0x8d, 0x26, 0x3d, 0x0c, 0x32, 0x51, 0xbd, 
    0xd8, 0x20, 0xd5, 0x3c, 0x38, 0x6a, 0x46, 0xbd, 0x1a, 0x1a, 0x6c, 0x3e, 
    0xd7, 0xfb, 0xee, 0xbd, 0xb2, 0x5d, 0x32, 0x3e, 0xa8, 0x4e, 0x34, 0x3e, 
    0x7e, 0xaa, 0x52, 0xbe, 0x54, 0x02, 0x07, 0x3e, 0x9f, 0xb5, 0x7f, 0x3d, 
    0x9d, 0x85, 0xfb, 0x3d, 0x38, 0x24, 0x27, 0x3e, 0x7a, 0xd6, 0x99, 0x3e, 
    0x80, 0x25, 0x11, 0x3d, 0x05, 0x5e, 0x10, 0x3e, 0x60, 0xac, 0xba, 0x3d, 
    0x0a, 0x74, 0x3f, 0xbc, 0xf3, 0xdb, 0x7a, 0x3d, 0x1e, 0xe1, 0xa8, 0x3c, 
    0xc2, 0x35, 0xa4, 0x3d, 0x84, 0xe0, 0x3c, 0x3e, 0xff, 0x05, 0x64, 0xbe, 
    0x59, 0x7f, 0xde, 0xbd, 0xf1, 0x83, 0xb7, 0x3d, 0x30, 0x25, 0x35, 0xbe, 
    0x29, 0x91, 0xbc, 0x3d, 0x68, 0x60, 0x8b, 0xbd, 0xf8, 0x84, 0xbd, 0xbd, 
    0xfc, 0x80, 0xe0, 0x3e, 0x76, 0xcb, 0x98, 0x3e, 0x28, 0xd1, 0xcf, 0xbd, 
    0x3e, 0x3e, 0xbb, 0x3c, 0x6d, 0xa5, 0x10, 0x3e, 0xb7, 0x98, 0x83, 0xbe, 
    0x84, 0x29, 0x7d, 0xbd, 0x78, 0x9c, 0x2a, 0xbe, 0x91, 0xd3, 0x94, 0x3b, 
    0x7a, 0x7e, 0x97, 0xbe, 0xa4, 0x3f, 0x5f, 0xbe, 0xef, 0xd1, 0x86, 0x3e, 
    0x7e, 0xb0, 0x49, 0x3d, 0x0d, 0x50, 0x14, 0xbd, 0x7f, 0xba, 0x93, 0x3e, 
    0x70, 0xf1, 0xff, 0x3d, 0x91, 0x2a, 0x90, 0xbe, 0x39, 0x6e, 0xe2, 0xbc, 
    0x83, 0xea, 0xc1, 0xbe, 0xdc, 0x30, 0x0c, 0x3d, 0xdf, 0xc7, 0xa1, 0x3e, 
    0xfd, 0x88, 0xe9, 0xbc, 0xdf, 0xdb, 0x3b, 0x3e, 0xdb, 0xa4, 0x7e, 0x3d, 
    0x81, 0x54, 0x83, 0x3e, 0x15, 0x19, 0x73, 0x3e, 0x79, 0x3c, 0x7f, 0x3e, 
    0xe7, 0x9f, 0x2b, 0x3e, 0x37, 0xcc, 0x60, 0x3e, 0xb1, 0xcd, 0x5b, 0xbc, 
    0x50, 0x5a, 0x2b, 0x3e, 0x98, 0xeb, 0x1d, 0x3e, 0x4c, 0xe4, 0x64, 0xbd, 
    0x8e, 0xb8, 0x8b, 0x3b, 0x81, 0x61, 0x4a, 0x3e, 0x0c, 0x39, 0xac, 0x3d, 
    0x30, 0xb0, 0xd7, 0xbd, 0x15, 0xfc, 0xba, 0x3e, 0x65, 0xa6, 0x21, 0x3d, 
    0x50, 0x51, 0xfe, 0x3d, 0xd2, 0xf5, 0x7b, 0x3c, 0x16, 0xc9, 0x84, 0x3e, 
    0x09, 0x34, 0xa8, 0x3e, 0x32, 0x2a, 0x03, 0xbd, 0x9e, 0x46, 0xdf, 0xbd, 
    0x12, 0x83, 0x01, 0xbe, 0xaf, 0xb9, 0x9c, 0xbd, 0xa9, 0xf0, 0x7b, 0x3e, 
    0x41, 0x46, 0xc8, 0x3e, 0xcb, 0x75, 0xbb, 0x3c, 0x51, 0x72, 0x07, 0x3e, 
    0xe6, 0xeb, 0x64, 0xbc, 0x2a, 0x1c, 0x90, 0xbd, 0xe4, 0xd1, 0xae, 0x3e, 
    0xf2, 0xa1, 0x23, 0x3e, 0x1c, 0x3b, 0x6e, 0xbd, 0x61, 0xfb, 0x3f, 0x3e, 
    0x86, 0xea, 0x68, 0xbe, 0xab, 0x54, 0xa8, 0xbd, 0x2a, 0xe5, 0xd3, 0x3e, 
    0x9b, 0x0a, 0x68, 0x3e, 0x9a, 0xac, 0x4a, 0x3e, 0x06, 0x66, 0xfb, 0x3d, 
    0x43, 0xe9, 0x24, 0xbe, 0x4e, 0x14, 0x91, 0x3e, 0x81, 0x00, 0xb6, 0x3e, 
    0x1c, 0xa0, 0xb2, 0x3d, 0x64, 0xf7, 0x29, 0x3e, 0x9c, 0x46, 0x9c, 0x3e, 
    0xb9, 0x20, 0x66, 0x3e, 0xfe, 0xcc, 0x17, 0x3e, 0xc7, 0x6d, 0x0b, 0x3e, 
    0x1d, 0x2c, 0x4e, 0x3e, 0x77, 0x05, 0x59, 0xbc, 0x55, 0x9a, 0xec, 0x3d, 
    0x5c, 0x75, 0xb3, 0xbb, 0x25, 0x5c, 0x36, 0xbe, 0x71, 0x52, 0x1f, 0xbe, 
    0x76, 0x79, 0x15, 0x3e, 0x17, 0xa2, 0x30, 0x3c, 0x08, 0x50, 0x87, 0x3e, 
    0xce, 0x28, 0x22, 0x3e, 0x38, 0x9e, 0xa9, 0x3e, 0x3a, 0x91, 0xc4, 0x3e, 
    0x38, 0x1b, 0x9d, 0x3e, 0xbf, 0x8a, 0x11, 0x3e, 0x53, 0xc9, 0x8e, 0x3d, 
    0x71, 0xef, 0x42, 0xbd, 0x80, 0xa9, 0xeb, 0xbd, 0xae, 0x3a, 0x5c, 0x3e, 
    0x48, 0x19, 0x8c, 0x3d, 0x50, 0xe1, 0x2d, 0x3d, 0x0c, 0xb6, 0xa8, 0x3d, 
    0x49, 0xd3, 0x44, 0xbe, 0x60, 0x06, 0x11, 0x3c, 0xf3, 0x31, 0x03, 0xbe, 
    0x28, 0x33, 0x02, 0x3d, 0x71, 0x90, 0x4f, 0xbe, 0xda, 0x89, 0x47, 0xbe, 
    0xb6, 0x3b, 0x33, 0xbe, 0x10, 0xa3, 0x6c, 0x3d, 0x9c, 0xaf, 0xeb, 0x3d, 
    0xe2, 0xcd, 0x3c, 0xbe, 0x48, 0x10, 0x9d, 0x3c, 0xd0, 0x0a, 0xa3, 0x3d, 
    0xa6, 0x84, 0x4f, 0x3e, 0x6d, 0x4c, 0xeb, 0xbd, 0xe0, 0x27, 0x12, 0x3d, 
    0x08, 0xf5, 0x9a, 0xbd, 0x88, 0x89, 0x01, 0x3e, 0x00, 0x57, 0x8c, 0xbc, 
    0xab, 0xc4, 0x43, 0xbe, 0x70, 0xdc, 0x47, 0x3d, 0x0a, 0xd1, 0x1c, 0x3e, 
    0x8e, 0xc3, 0x29, 0xbe, 0x1a, 0x01, 0x39, 0x3e, 0x09, 0x32, 0x40, 0xbe, 
    0x02, 0xf7, 0x21, 0xbe, 0x68, 0x87, 0x0c, 0x3e, 0xca, 0x4f, 0x2c, 0x3e, 
    0xa8, 0x2c, 0x32, 0x3d, 0x58, 0xb2, 0xc1, 0xbc, 0xe8, 0x60, 0x36, 0xbe, 
    0xbe, 0x87, 0x54, 0x3e, 0x68, 0xf4, 0x2c, 0xbd, 0x8e, 0xb3, 0x40, 0xbe, 
    0x5f, 0xfe, 0xf2, 0xbd, 0x50, 0x6a, 0x00, 0xbe, 0x9c, 0x1a, 0x09, 0xbe, 
    0x24, 0x03, 0xae, 0xbd, 0xc8, 0x20, 0x85, 0xbc, 0x2a, 0x86, 0x24, 0x3e, 
    0x18, 0x55, 0x1c, 0xbe, 0x84, 0x5d, 0x54, 0xbe, 0xa3, 0xfb, 0xb5, 0xbd, 
    0xf8, 0x8e, 0x89, 0x3d, 0xcd, 0x3b, 0x4e, 0xbe, 0x86, 0xf0, 0x17, 0x3e, 
    0xca, 0xbc, 0x8f, 0xbd, 0xf3, 0x3b, 0x1f, 0xbe, 0x32, 0x63, 0x59, 0xbe, 
    0x30, 0x56, 0x87, 0x3d, 0xaa, 0xe5, 0x28, 0xbe, 0x4d, 0x08, 0xbf, 0xbd, 
    0xcc, 0x90, 0x46, 0x3e, 0x00, 0x3c, 0x5b, 0x3c, 0x28, 0xd7, 0xbe, 0xbc, 
    0xc3, 0xa1, 0xef, 0xbd, 0xb0, 0x99, 0xa5, 0x3d, 0x04, 0x57, 0xfe, 0x3d, 
    0x0e, 0x57, 0x56, 0xbe, 0x80, 0xa8, 0xa7, 0x3c, 0xb3, 0xd6, 0x03, 0xbe, 
    0xc2, 0xf7, 0xec, 0xbd, 0x9e, 0x1b, 0x5a, 0xbe, 0x50, 0x83, 0x13, 0xbe, 
    0x40, 0xa7, 0xc7, 0x3d, 0xe4, 0x7b, 0x2c, 0xbd, 0xc0, 0x1a, 0xd7, 0xbb, 
    0xe0, 0x82, 0x1d, 0xbc, 0x74, 0x5e, 0x49, 0xbe, 0xce, 0x20, 0x3f, 0xbe, 
    0x7d, 0x56, 0x05, 0xbe, 0xda, 0x85, 0x42, 0xbe, 0x00, 0xb2, 0x02, 0x3e, 
    0xc9, 0x2e, 0x1e, 0xbe, 0xf8, 0xd1, 0xee, 0xbc, 0x1c, 0x25, 0x09, 0xbe, 
    0x5c, 0x53, 0x47, 0xbd, 0x18, 0xf9, 0x9f, 0xbc, 0x23, 0xd8, 0x36, 0xbe, 
    0x58, 0x14, 0x79, 0xbd, 0x65, 0x9c, 0x2d, 0xbe, 0xfa, 0x34, 0x04, 0xbe, 
    0x8c, 0x30, 0x22, 0xbe, 0xc0, 0xc1, 0x21, 0x3d, 0x80, 0x81, 0xb4, 0xbd, 
    0xf8, 0x25, 0x61, 0x3d, 0xf8, 0x90, 0x23, 0x3e, 0x5e, 0x3a, 0x8d, 0xbd, 
    0xf6, 0x7b, 0x3e, 0x3e, 0xf8, 0x58, 0xe1, 0xbd, 0x90, 0x55, 0x97, 0x3c, 
    0xdc, 0xbd, 0x60, 0xbd, 0x03, 0x83, 0x2f, 0xbe, 0xbd, 0x18, 0x28, 0xbe, 
    0x9d, 0x63, 0x3c, 0xbe, 0x2c, 0xc9, 0xf1, 0x3d, 0xb0, 0x24, 0xf0, 0xbd, 
    0x3a, 0x8b, 0xfe, 0xbd, 0xb8, 0xae, 0x45, 0x3d, 0x72, 0x20, 0xff, 0xbc, 
    0xa0, 0x47, 0x00, 0xbe, 0xd6, 0x34, 0x31, 0xbe, 0x19, 0x82, 0x27, 0xbe, 
    0x2f, 0x63, 0xfa, 0xbd, 0x81, 0x47, 0x20, 0xbe, 0x15, 0xc2, 0x3a, 0xbd, 
    0x4d, 0xbb, 0x83, 0xbd, 0x5f, 0x4b, 0xcd, 0x3d, 0x78, 0x76, 0x39, 0xbe, 
    0x64, 0xd4, 0x01, 0x3e, 0x80, 0x93, 0x10, 0x3d, 0x40, 0xef, 0xb3, 0x3b, 
    0x77, 0xf7, 0x3a, 0x3e, 0x90, 0x8d, 0xb2, 0x3d, 0x8c, 0x70, 0x25, 0xbe, 
    0x32, 0x50, 0xa2, 0x3b, 0xc2, 0x29, 0x18, 0x3e, 0x63, 0x3c, 0xbb, 0x3d, 
    0xac, 0x42, 0x92, 0xbd, 0xcc, 0xd0, 0x86, 0x3d, 0x30, 0x3b, 0x08, 0xbe, 
    0x5b, 0xe0, 0xed, 0xbd, 0x5a, 0xe8, 0x3f, 0x3e, 0xff, 0x87, 0x60, 0xbe, 
    0xac, 0x5e, 0xa0, 0x3d, 0x0f, 0xa2, 0x0c, 0xbe, 0xd0, 0xa1, 0x05, 0xbe, 
    0xf1, 0x4f, 0x56, 0xbe, 0x3d, 0x07, 0xd0, 0xbd, 0xbe, 0xa9, 0xce, 0xbe, 
    0xae, 0x58, 0xa0, 0xbd, 0x47, 0xc8, 0x81, 0x3d, 0x81, 0x2c, 0x66, 0xbe, 
    0x61, 0xfa, 0xbb, 0xbe, 0xae, 0x31, 0x08, 0x3e, 0xc4, 0x8b, 0xbc, 0xbd, 
    0x36, 0x46, 0xc9, 0xbd, 0x77, 0x31, 0x07, 0xbe, 0x0e, 0x11, 0x42, 0x3e, 
    0x3e, 0x45, 0x15, 0x3d, 0x58, 0xfc, 0x24, 0x3e, 0xf7, 0x39, 0xef, 0xbd, 
    0x02, 0x42, 0xe6, 0xbc, 0x1c, 0x8c, 0x47, 0xbe, 0x23, 0x27, 0x33, 0x3e, 
    0x7c, 0x48, 0x73, 0x3d, 0x9f, 0xba, 0x99, 0xbe, 0x41, 0xc9, 0x9b, 0x3d, 
    0x25, 0x4d, 0x6f, 0xbe, 0xbe, 0x5e, 0xb7, 0x3a, 0x9f, 0x05, 0x94, 0xbe, 
    0x11, 0x22, 0xc2, 0xbe, 0xfe, 0x78, 0x4f, 0xbe, 0xd4, 0xbe, 0x13, 0x3d, 
    0xa5, 0x29, 0x28, 0xbe, 0xd5, 0x56, 0x0e, 0xbc, 0x61, 0x18, 0x39, 0x3e, 
    0x42, 0x76, 0x16, 0x3e, 0x76, 0xa7, 0x9a, 0xbe, 0xe0, 0x5e, 0x85, 0x3b, 
    0x36, 0xde, 0xa5, 0x3d, 0xd0, 0xeb, 0x71, 0xbc, 0xc4, 0x0a, 0x51, 0x3e, 
    0xbf, 0x99, 0x49, 0x3d, 0x98, 0xa4, 0x50, 0xbd, 0x6e, 0x24, 0xf3, 0xbd, 
    0x03, 0x79, 0xea, 0x3d, 0x70, 0x80, 0x3e, 0xbe, 0x38, 0xf6, 0xc1, 0xbc, 
    0x8b, 0xd4, 0x15, 0x3d, 0x26, 0x3c, 0xd9, 0xbb, 0x30, 0x88, 0xef, 0xbc, 
    0x64, 0x12, 0x2d, 0x3e, 0x10, 0x12, 0x88, 0xbd, 0x16, 0x9b, 0x31, 0xbe, 
    0xe0, 0xc4, 0xc0, 0x3d, 0xb0, 0xa2, 0x04, 0x3e, 0x4a, 0x97, 0xcd, 0xbd, 
    0x10, 0x33, 0x95, 0x3d, 0xb4, 0xbd, 0x57, 0xbe, 0xd7, 0xf3, 0x3c, 0x3e, 
    0x57, 0xbf, 0x10, 0x3c, 0xd8, 0xb1, 0xc5, 0xbc, 0x81, 0x85, 0x0d, 0xbe, 
    0x8e, 0x4f, 0x56, 0xbe, 0xa2, 0x0e, 0x00, 0x3d, 0x1c, 0x35, 0xf9, 0x3d, 
    0xd4, 0x87, 0x84, 0x3c, 0xc0, 0xb3, 0x15, 0xbe, 0xc0, 0x4c, 0x4d, 0xbd, 
    0x50, 0x6d, 0x54, 0x3c, 0x41, 0xf5, 0xa6, 0xbe, 0xd1, 0x1c, 0x4d, 0x3a, 
    0xb3, 0xbc, 0xc2, 0xbd, 0xf2, 0xc3, 0x47, 0xbf, 0xae, 0xe8, 0x59, 0x3c, 
    0x72, 0x39, 0x92, 0x3e, 0x27, 0xbf, 0x4b, 0xbd, 0x85, 0x67, 0x95, 0xbd, 
    0x92, 0x87, 0x20, 0xbd, 0xf4, 0xbb, 0x36, 0xbe, 0xc0, 0xed, 0x41, 0xbd, 
    0x20, 0x1e, 0x12, 0x3e, 0x23, 0x3a, 0x11, 0xbe, 0x3d, 0x3a, 0x20, 0xbf, 
    0x2c, 0x98, 0x6e, 0xbe, 0xf8, 0x7c, 0xb3, 0x3d, 0x0e, 0xd7, 0x99, 0xbe, 
    0xe3, 0x25, 0x01, 0x3e, 0x58, 0x46, 0xdf, 0xbd, 0x57, 0xb1, 0x1e, 0xbe, 
    0xc0, 0xec, 0x79, 0x3d, 0xe8, 0x20, 0x96, 0xbe, 0xb4, 0x37, 0x03, 0x3e, 
    0x80, 0x16, 0x97, 0xbe, 0x03, 0xf0, 0x05, 0x3e, 0xb6, 0x20, 0x22, 0x3e, 
    0x82, 0x2c, 0x32, 0xbe, 0x38, 0xd5, 0x09, 0xbe, 0x8f, 0xb9, 0x8a, 0x3e, 
    0x81, 0xf0, 0xdf, 0x3c, 0x79, 0xd3, 0x97, 0x3e, 0xe9, 0x05, 0x0d, 0x3e, 
    0x09, 0xa3, 0x6c, 0x3e, 0x8d, 0x84, 0x9a, 0x3c, 0x2d, 0x97, 0x15, 0xbd, 
    0x43, 0x64, 0x48, 0x3e, 0xfd, 0x23, 0xae, 0xbd, 0xfe, 0x00, 0x47, 0x3c, 
    0x5c, 0x3e, 0x6b, 0x3e, 0xb8, 0x31, 0x24, 0x3b, 0x8c, 0x76, 0x2f, 0xbe, 
    0x37, 0xae, 0x63, 0x3d, 0x42, 0x91, 0x98, 0xbd, 0x19, 0xcf, 0xf2, 0xbe, 
    0xe6, 0x6e, 0x25, 0xbe, 0xcd, 0xbf, 0x6d, 0xbd, 0x1d, 0x70, 0x31, 0x3e, 
    0xda, 0x33, 0x0c, 0x3e, 0xd5, 0x76, 0xab, 0x3e, 0xa6, 0x73, 0xf8, 0xbe, 
    0x79, 0x21, 0xad, 0xbd, 0xd8, 0x98, 0x78, 0x3e, 0x1e, 0x26, 0xe0, 0xbe, 
    0x91, 0x56, 0x62, 0xbe, 0xb3, 0xfc, 0xc4, 0x3c, 0x7c, 0x75, 0x17, 0xbd, 
    0xd6, 0x51, 0xd2, 0x3c, 0xbc, 0xe0, 0x6a, 0xbc, 0x9c, 0x70, 0xa5, 0xbc, 
    0xe2, 0x0e, 0xa4, 0x3e, 0x3f, 0x5c, 0xcf, 0xbe, 0x45, 0xb8, 0x0f, 0xbe, 
    0x81, 0x62, 0x96, 0x3e, 0xa6, 0xb8, 0x2f, 0x3e, 0xf8, 0x96, 0x89, 0x3e, 
    0x9e, 0x0b, 0xd0, 0xbd, 0xeb, 0x15, 0x85, 0x3e, 0x93, 0x1f, 0xaf, 0x3e, 
    0x73, 0x5a, 0x32, 0xbf, 0xbf, 0x03, 0x80, 0xbd, 0x8d, 0x15, 0xc4, 0x3d, 
    0x84, 0xfc, 0x7e, 0xbd, 0x8a, 0xa6, 0x47, 0x3e, 0xdc, 0xe1, 0x03, 0x3d, 
    0xa8, 0xa7, 0xac, 0xbd, 0x1e, 0x38, 0x1c, 0x3e, 0xfa, 0x4b, 0x07, 0xbe, 
    0x54, 0x1b, 0xb9, 0x3e, 0x1c, 0x4f, 0x0c, 0x3e, 0x3b, 0x80, 0x57, 0xbe, 
    0x2d, 0x67, 0x84, 0x3d, 0x1c, 0x9d, 0x01, 0xbe, 0x0d, 0x2f, 0xf2, 0xbd, 
    0xee, 0x53, 0x9c, 0x3d, 0x2f, 0x39, 0x6d, 0xbf, 0x54, 0x23, 0xe7, 0xbd, 
    0xb4, 0xd3, 0x27, 0xbe, 0x60, 0x6d, 0x10, 0xbe, 0x78, 0x59, 0x91, 0x3e, 
    0xea, 0x6e, 0xc4, 0x3d, 0x80, 0xb2, 0x8f, 0xba, 0xd5, 0xc8, 0x0d, 0x3d, 
    0x3f, 0x13, 0x11, 0xbe, 0x9b, 0xe1, 0x0a, 0xbe, 0x54, 0x24, 0x28, 0xbe, 
    0xa6, 0x49, 0x0e, 0xbe, 0xd8, 0x3c, 0x46, 0x3e, 0x0a, 0x0f, 0x9c, 0x3d, 
    0xf6, 0x48, 0xa2, 0x3d, 0x0c, 0xec, 0x04, 0xbe, 0x9c, 0x2e, 0x16, 0x3e, 
    0x94, 0xe2, 0x6b, 0xbe, 0xbc, 0x1d, 0xad, 0xbd, 0x06, 0x67, 0x68, 0x3e, 
    0xcd, 0x0e, 0x58, 0x3e, 0x8a, 0x88, 0xbc, 0xbd, 0x5b, 0x24, 0x7e, 0x3e, 
    0x5e, 0x4a, 0x5a, 0x3e, 0x9c, 0x6c, 0x91, 0x3e, 0xb6, 0x90, 0x31, 0xbe, 
    0xe0, 0x88, 0x34, 0x3d, 0xd4, 0x9c, 0x85, 0x3e, 0xfe, 0x02, 0xda, 0xbd, 
    0xcb, 0xf5, 0x5d, 0x3e, 0xc7, 0x6e, 0x27, 0xbe, 0xfe, 0x72, 0x78, 0xbe, 
    0x79, 0xb3, 0x73, 0x3d, 0xcf, 0x1f, 0x83, 0x3e, 0x7f, 0x48, 0xa9, 0x3e, 
    0x0a, 0x4d, 0x64, 0xbb, 0x48, 0x06, 0x05, 0xbe, 0x34, 0x06, 0x43, 0x3d, 
    0xe8, 0xcc, 0x89, 0xbb, 0xb2, 0x72, 0x63, 0xbd, 0x0f, 0x6a, 0x75, 0x3e, 
    0x43, 0xf3, 0xb8, 0x3d, 0x52, 0xba, 0x67, 0xbe, 0x5c, 0xf2, 0xba, 0xbd, 
    0x14, 0xe0, 0x38, 0x3e, 0xf4, 0xad, 0x08, 0x3e, 0xc0, 0x3a, 0x9f, 0xbd, 
    0x2b, 0x6e, 0x06, 0xbe, 0x04, 0x8b, 0xb4, 0x3d, 0x8e, 0x06, 0xe2, 0xbd, 
    0x51, 0x6f, 0x59, 0xbe, 0x98, 0x30, 0xbb, 0xbd, 0x32, 0xca, 0x20, 0x3e, 
    0xed, 0xd3, 0x03, 0x3e, 0xb9, 0xe3, 0x3e, 0xbe, 0x00, 0xdc, 0x55, 0xbe, 
    0x14, 0xe3, 0x63, 0xbd, 0x82, 0xf7, 0x48, 0xbe, 0x9a, 0xd3, 0x06, 0xbb, 
    0xc4, 0xc6, 0xda, 0x3d, 0xdc, 0x9c, 0xa7, 0x3d, 0x24, 0xee, 0xa6, 0xbd, 
    0xcd, 0x64, 0x32, 0x3e, 0x84, 0xf0, 0xc1, 0x3d, 0xc8, 0x33, 0x96, 0x3d, 
    0x18, 0x4f, 0xd6, 0x3d, 0x14, 0xba, 0x36, 0xbe, 0xf0, 0x6e, 0x13, 0x3e, 
    0xe9, 0x0e, 0x28, 0x3e, 0x63, 0xc6, 0x41, 0xbe, 0x48, 0x46, 0xbc, 0xbc, 
    0x97, 0x40, 0x0f, 0x3e, 0x24, 0xf4, 0x36, 0xbd, 0xe0, 0x87, 0x62, 0x3d, 
    0x2b, 0x06, 0x7d, 0x3d, 0x2e, 0x25, 0x33, 0xbe, 0xab, 0xed, 0xf2, 0xbe, 
    0x80, 0x5e, 0x0f, 0xbd, 0x13, 0x96, 0x33, 0xbe, 0x89, 0x17, 0x01, 0x3d, 
    0x1d, 0x1c, 0x92, 0x3d, 0x31, 0xc0, 0xe8, 0x3d, 0xc4, 0x87, 0x0e, 0xbd, 
    0x55, 0x12, 0x87, 0x3e, 0x75, 0x22, 0x99, 0x3e, 0x85, 0x6c, 0x61, 0xbe, 
    0x65, 0x69, 0xed, 0xbd, 0xb0, 0xd5, 0xff, 0x3d, 0x40, 0x0f, 0x86, 0xbd, 
    0xc5, 0x23, 0xc1, 0x3d, 0x0a, 0xbf, 0x8a, 0x3d, 0xe8, 0xdf, 0xb3, 0xbd, 
    0x50, 0xf3, 0x6f, 0xbe, 0x07, 0x56, 0x68, 0x3e, 0xf6, 0xe8, 0x27, 0xbe, 
    0x3d, 0x43, 0x66, 0xbe, 0x7f, 0x82, 0x87, 0x3e, 0x54, 0xd7, 0x48, 0xbd, 
    0x1a, 0xad, 0x61, 0x3e, 0x20, 0x3f, 0x54, 0x3d, 0x71, 0x66, 0xdd, 0xbe, 
    0x8c, 0x58, 0xc5, 0xbe, 0x18, 0x1c, 0x98, 0xbd, 0x24, 0xe9, 0x37, 0xbe, 
    0x6b, 0x1f, 0x81, 0x3e, 0x3c, 0x49, 0x9e, 0xbd, 0x22, 0xf7, 0x76, 0x3e, 
    0x80, 0xf1, 0x9f, 0xbd, 0x9f, 0x59, 0xf0, 0xbd, 0x01, 0xc8, 0x9a, 0x3d, 
    0xe5, 0x54, 0xe1, 0x3d, 0x3e, 0x66, 0x19, 0x3e, 0x95, 0x2a, 0x0c, 0x3e, 
    0x5b, 0x25, 0x22, 0xbe, 0x2b, 0xff, 0x04, 0xbe, 0xd3, 0x64, 0xe1, 0x3c, 
    0x61, 0xa0, 0x25, 0xbe, 0x0a, 0x6a, 0x2e, 0xbe, 0xf7, 0x09, 0x90, 0x3e, 
    0x76, 0x5b, 0x9c, 0x3c, 0x0b, 0x8d, 0xa8, 0x3e, 0x3a, 0xf0, 0x51, 0x3e, 
    0x1a, 0x16, 0xf6, 0x3d, 0xbe, 0xd5, 0x85, 0x3d, 0x68, 0x46, 0x0b, 0xbe, 
    0x6c, 0xd6, 0xe4, 0x3d, 0x85, 0x9a, 0xc1, 0xbd, 0x4c, 0x20, 0xab, 0x3d, 
    0x24, 0x7f, 0x01, 0xbe, 0x99, 0x59, 0x5b, 0x3e, 0x41, 0x9e, 0x10, 0x3e, 
    0xaf, 0x7a, 0x9f, 0x3b, 0x74, 0xd6, 0x1c, 0xbe, 0xa1, 0x52, 0xa2, 0xbc, 
    0x36, 0x9d, 0x6a, 0xbd, 0x3c, 0x2d, 0x58, 0x3d, 0x57, 0xa8, 0x2a, 0x3e, 
    0xd3, 0x21, 0x53, 0x3e, 0x4c, 0xbd, 0xee, 0xbe, 0xdd, 0x72, 0x9f, 0x3d, 
    0x0c, 0x47, 0x31, 0xbb, 0x59, 0x0d, 0x6f, 0xbe, 0xed, 0x37, 0x06, 0xbe, 
    0xb4, 0x0b, 0x9d, 0xbd, 0x50, 0x7c, 0x3f, 0x3e, 0x06, 0x18, 0xb3, 0xbe, 
    0xa3, 0x59, 0xb3, 0x3d, 0xe0, 0x77, 0x0f, 0x3d, 0x6e, 0x48, 0x1d, 0xba, 
    0x3d, 0xeb, 0x83, 0xba, 0x63, 0x92, 0x24, 0x3c, 0x88, 0xe4, 0xc2, 0x3d, 
    0x70, 0xbc, 0x02, 0x3b, 0xdd, 0x54, 0x9a, 0x3d, 0x23, 0x90, 0x14, 0x3e, 
    0x4d, 0xf1, 0x8f, 0x3d, 0x76, 0x72, 0x28, 0xbd, 0xc7, 0x4c, 0xca, 0x3c, 
    0x3f, 0xa2, 0x7e, 0x3d, 0x3e, 0x33, 0x9e, 0x3d, 0x5e, 0xea, 0xaf, 0xbc, 
    0x77, 0xc3, 0x38, 0x3e, 0x1a, 0x04, 0xbe, 0x3d, 0x76, 0x9c, 0xda, 0x3d, 
    0xcf, 0xd0, 0x47, 0xbe, 0xe6, 0x45, 0xf0, 0x3d, 0x75, 0x50, 0x2a, 0x3e, 
    0x85, 0x0d, 0x7d, 0xbe, 0xe6, 0x91, 0xf8, 0xbc, 0x72, 0x06, 0x65, 0x3e, 
    0x91, 0x85, 0x23, 0x3d, 0x68, 0x0b, 0x69, 0xbd, 0x16, 0x44, 0xda, 0xbc, 
    0xc1, 0x9a, 0x31, 0xbe, 0x0f, 0x4a, 0x4b, 0x3e, 0xf6, 0xe4, 0xc2, 0xbd, 
    0x2a, 0xdd, 0x34, 0x3e, 0xce, 0xa3, 0x48, 0x3e, 0x21, 0x31, 0x2b, 0x3e, 
    0x3e, 0x2f, 0x22, 0xbe, 0xf4, 0x3a, 0x4c, 0x3c, 0x79, 0x2e, 0x42, 0x3d, 
    0x15, 0x7f, 0x99, 0xbe, 0x50, 0xed, 0x31, 0x3d, 0xd5, 0x6f, 0xec, 0xbd, 
    0xf8, 0xc8, 0x70, 0xbe, 0x9e, 0xd3, 0xa1, 0xbe, 0x38, 0xb4, 0xa2, 0xbe, 
    0x9a, 0xd7, 0x75, 0xbb, 0x3c, 0xc2, 0xaf, 0xbd, 0x26, 0x6c, 0x48, 0xbe, 
    0x71, 0x39, 0x7c, 0x3e, 0xc3, 0x2c, 0x6e, 0x3e, 0x55, 0x83, 0x46, 0xbe, 
    0x12, 0x19, 0xfa, 0x3b, 0x70, 0x8e, 0xd9, 0x3c, 0x3f, 0x0d, 0x4f, 0x3d, 
    0xad, 0xc5, 0x60, 0x3e, 0xb1, 0x03, 0x1b, 0x3c, 0x88, 0xc7, 0x5d, 0x3e, 
    0xe6, 0x97, 0x31, 0x3e, 0x2e, 0x7c, 0x75, 0xbd, 0x38, 0x1f, 0x9b, 0x3d, 
    0xc2, 0xc2, 0x6c, 0x3e, 0xe7, 0x4c, 0x43, 0xbd, 0x66, 0x21, 0x35, 0xbe, 
    0xc7, 0x64, 0xed, 0xbe, 0xb4, 0x41, 0xdc, 0x3d, 0xf4, 0xe3, 0x96, 0x3e, 
    0x87, 0x2e, 0x4d, 0xbd, 0x72, 0x45, 0xe5, 0xbd, 0xb3, 0x28, 0xbb, 0x3d, 
    0xc5, 0x01, 0xe5, 0x3d, 0x39, 0xf3, 0xce, 0xbe, 0x82, 0xed, 0xba, 0xbc, 
    0x68, 0x83, 0x48, 0x3e, 0xb5, 0x4e, 0xcc, 0xbd, 0x8a, 0x33, 0xff, 0xbc, 
    0x19, 0x50, 0x3f, 0xbe, 0x3e, 0xd4, 0x0e, 0xbe, 0xc8, 0xbb, 0x99, 0xbe, 
    0xc8, 0x5c, 0x30, 0xbd, 0x05, 0x65, 0x2f, 0x3d, 0x1b, 0x79, 0x48, 0xbe, 
    0x30, 0x73, 0x23, 0x3e, 0xd6, 0x42, 0x04, 0x3c, 0x59, 0x07, 0x3e, 0x3e, 
    0x06, 0xe8, 0x8e, 0xbe, 0x12, 0x25, 0xb9, 0xbd, 0x4b, 0xcc, 0xa0, 0xbe, 
    0xd9, 0x64, 0x7c, 0x3d, 0xc0, 0xd7, 0x3d, 0xbe, 0xf6, 0x5d, 0x03, 0x3e, 
    0xd2, 0x5b, 0x36, 0x3c, 0x8f, 0xff, 0x3a, 0x3e, 0xb5, 0xff, 0xd6, 0xbe, 
    0x8c, 0xe9, 0xe2, 0xbd, 0x57, 0x1a, 0xae, 0xbd, 0x37, 0x87, 0xeb, 0x3d, 
    0xae, 0xf4, 0x66, 0xbe, 0xef, 0x14, 0x08, 0xbe, 0x54, 0x90, 0x91, 0x3d, 
    0xa9, 0x40, 0x2b, 0xbd, 0x50, 0x7d, 0xf5, 0xbd, 0xb0, 0x98, 0x52, 0x3e, 
    0xf4, 0x29, 0x97, 0xbd, 0x3d, 0xe3, 0x82, 0xbe, 0x3e, 0x08, 0x5c, 0x3e, 
    0x3e, 0x1e, 0x77, 0xbe, 0xf6, 0xa3, 0xd7, 0xbd, 0x45, 0x61, 0x69, 0xbe, 
    0x05, 0x20, 0x55, 0xbe, 0x78, 0x82, 0x0b, 0xbe, 0xc8, 0xcd, 0x27, 0x3e, 
    0x45, 0x42, 0x53, 0xbd, 0x24, 0x38, 0x60, 0xbe, 0xc5, 0xd8, 0xda, 0x3c, 
    0x28, 0xc7, 0x2a, 0xbd, 0xc8, 0x2c, 0x2d, 0x3e, 0xa1, 0x15, 0x24, 0xbe, 
    0x19, 0x63, 0x07, 0x3e, 0x88, 0xf4, 0x1e, 0x3e, 0xf2, 0x23, 0x17, 0xbd, 
    0x9d, 0x2f, 0xc7, 0xbd, 0x7a, 0x6b, 0x14, 0xbd, 0xe2, 0x68, 0x0c, 0x3e, 
    0x5a, 0xe4, 0xd4, 0x3c, 0xc8, 0x9f, 0xad, 0xbc, 0x0d, 0x3e, 0x95, 0xbd, 
    0x58, 0x38, 0x14, 0x3d, 0x01, 0xf1, 0x94, 0xbd, 0x1e, 0x00, 0xc4, 0x3d, 
    0xf4, 0xbc, 0x9c, 0xbd, 0x37, 0x16, 0xd7, 0x3d, 0x73, 0x2e, 0xa7, 0x3d, 
    0x26, 0xf6, 0x94, 0xbd, 0x6e, 0xe0, 0xff, 0xbd, 0xa8, 0xb3, 0x6e, 0x3d, 
    0xa3, 0xf0, 0x53, 0xbe, 0x96, 0xfa, 0x48, 0x3e, 0x80, 0xcb, 0x48, 0xbb, 
    0x2f, 0xa0, 0x0a, 0x3d, 0x62, 0xb1, 0x14, 0x3e, 0xe8, 0x46, 0x84, 0xbd, 
    0x90, 0x77, 0xc3, 0x3c, 0x60, 0x73, 0xb3, 0xbd, 0x81, 0xbe, 0xcb, 0x3d, 
    0xe8, 0x93, 0x03, 0xbe, 0xb1, 0xa1, 0x6f, 0xbd, 0x20, 0xc3, 0x01, 0x3e, 
    0xfc, 0x60, 0xf4, 0x3d, 0xf8, 0x67, 0x47, 0x3d, 0x68, 0x04, 0x1f, 0x3d, 
    0x54, 0x3b, 0x0c, 0xbc, 0xc2, 0x30, 0x3f, 0x3e, 0xaa, 0x4b, 0x2e, 0xbe, 
    0xea, 0xe0, 0xe5, 0xbd, 0xba, 0xd7, 0x3a, 0xbe, 0x26, 0xb7, 0x7e, 0x3d, 
    0xcb, 0x33, 0x42, 0x3d, 0x49, 0xdb, 0x6b, 0x3b, 0xb6, 0xea, 0x13, 0xbe, 
    0xcd, 0x3c, 0x30, 0x3e, 0x0a, 0x47, 0x8e, 0x3d, 0x62, 0xc8, 0x8c, 0xbd, 
    0x54, 0x37, 0x5d, 0xbe, 0x09, 0x17, 0x9d, 0xbd, 0xa5, 0x7f, 0x34, 0xbe, 
    0xee, 0x02, 0x54, 0x3e, 0xe8, 0x0a, 0x35, 0x3e, 0x94, 0x4c, 0x3f, 0xbe, 
    0xd4, 0x7e, 0xf0, 0x3d, 0x58, 0xf4, 0x40, 0x3e, 0x3c, 0x86, 0xac, 0xbc, 
    0x1b, 0x0f, 0xa8, 0x3d, 0xd0, 0xad, 0xdb, 0x3d, 0x43, 0xf9, 0x17, 0xbe, 
    0x88, 0x14, 0x87, 0x3c, 0x44, 0xa0, 0x08, 0x3e, 0x2c, 0x09, 0x04, 0x3d, 
    0xb0, 0x56, 0x14, 0xbe, 0x38, 0x1f, 0xd1, 0xbc, 0x02, 0xab, 0xac, 0xbd, 
    0x40, 0xb8, 0x75, 0xbc, 0x80, 0xf4, 0x4b, 0xbd, 0x9e, 0x25, 0x69, 0xbb, 
    0x66, 0x30, 0xb1, 0xbd, 0x18, 0x87, 0xc9, 0x3d, 0x8c, 0xf4, 0xf2, 0x3d, 
    0x38, 0xaa, 0x75, 0xbd, 0x88, 0x3e, 0x7c, 0x3d, 0x96, 0x46, 0x19, 0xbe, 
    0xc0, 0xee, 0x38, 0xbe, 0xd2, 0x38, 0x77, 0xbe, 0x0f, 0xd4, 0x11, 0xbe, 
    0xa9, 0x43, 0x1a, 0xbe, 0xe7, 0x92, 0x78, 0x3e, 0x8e, 0x32, 0x3a, 0x3e, 
    0x85, 0x66, 0x52, 0xbe, 0x8a, 0x1b, 0xe2, 0x3d, 0xef, 0xb4, 0xe5, 0x3d, 
    0x39, 0xdb, 0x84, 0xbe, 0x4e, 0xdf, 0xb7, 0xbc, 0x69, 0xee, 0x29, 0x3e, 
    0x54, 0xd5, 0x38, 0xbb, 0xe8, 0xb7, 0x08, 0xbe, 0x79, 0x5d, 0xca, 0x3c, 
    0x9f, 0xd2, 0x30, 0xbe, 0xec, 0x3d, 0xb2, 0xbe, 0x5c, 0xc5, 0x25, 0xbc, 
    0x78, 0x59, 0xd1, 0x3d, 0xb8, 0x17, 0x96, 0xbe, 0xb0, 0x5b, 0x1c, 0x3e, 
    0x08, 0xa2, 0x01, 0xbe, 0x09, 0x3b, 0xef, 0x3d, 0x2e, 0x53, 0x8c, 0xbe, 
    0xc1, 0xb0, 0x4b, 0xbe, 0xea, 0x29, 0x05, 0xbe, 0x07, 0xf7, 0x6d, 0xbe, 
    0x36, 0x41, 0x22, 0x3d, 0xe8, 0x24, 0xc3, 0xbd, 0xa5, 0x1c, 0x8b, 0x3d, 
    0x32, 0x96, 0xee, 0x3d, 0xce, 0x60, 0xf2, 0xbd, 0xde, 0x57, 0x7b, 0xbe, 
    0xcf, 0x6b, 0xa1, 0xbd, 0xf6, 0xf6, 0xa8, 0xbe, 0xbe, 0x71, 0x24, 0xbe, 
    0x5e, 0xab, 0x44, 0x3e, 0x51, 0xd6, 0x94, 0xbe, 0x55, 0x29, 0x90, 0xbe, 
    0xce, 0xd6, 0x8d, 0x3e, 0xc2, 0x92, 0x19, 0x3d, 0x36, 0x93, 0xc7, 0xbe, 
    0xf1, 0x0d, 0xdc, 0x3c, 0x76, 0x69, 0x06, 0x3e, 0x44, 0x30, 0x17, 0xbe, 
    0x7d, 0x83, 0x0c, 0x3e, 0x9d, 0xae, 0x28, 0xbe, 0x1b, 0xaa, 0x98, 0x3d, 
    0x8a, 0xfe, 0x35, 0xbe, 0x13, 0xb0, 0x80, 0x3d, 0x3e, 0x26, 0x21, 0x3e, 
    0x06, 0xbb, 0x6c, 0xbe, 0x2a, 0x85, 0x7a, 0x3e, 0x6d, 0xf3, 0x1d, 0xbe, 
    0xee, 0x90, 0x24, 0x3e, 0x37, 0xad, 0x10, 0x3c, 0x9d, 0xbb, 0xf1, 0xbe, 
    0xbf, 0x12, 0x3d, 0xbe, 0xc4, 0x29, 0x7b, 0xbe, 0x3d, 0x29, 0xc4, 0xbd, 
    0xc0, 0xc3, 0xd2, 0xbd, 0x57, 0x5c, 0x03, 0x3e, 0x93, 0x18, 0x31, 0x3d, 
    0x1b, 0x34, 0x8a, 0xbd, 0xd2, 0xe9, 0x99, 0xbe, 0xc9, 0xbb, 0xc1, 0xbd, 
    0x91, 0x5e, 0x73, 0xbd, 0x87, 0x60, 0xd8, 0x3d, 0x7b, 0xae, 0x66, 0x3e, 
    0x78, 0xee, 0xcc, 0x3c, 0x70, 0x89, 0x9a, 0xbe, 0xba, 0x5b, 0xf4, 0x3d, 
    0xda, 0xc7, 0x87, 0x3d, 0xe4, 0x27, 0x27, 0xbe, 0x75, 0xec, 0x91, 0xbe, 
    0x76, 0xd6, 0xa6, 0xbd, 0x2b, 0x55, 0x2f, 0x3d, 0x04, 0x7d, 0x0e, 0xbc, 
    0xed, 0xda, 0xec, 0xbe, 0x7d, 0x57, 0x5a, 0xbe, 0xf8, 0x6b, 0xb2, 0xbe, 
    0x2e, 0x05, 0x46, 0x3e, 0x1d, 0x79, 0x01, 0x3e, 0x68, 0xd4, 0x46, 0xbe, 
    0x47, 0x75, 0xa6, 0xbd, 0x8c, 0xaf, 0xa8, 0xbe, 0xa0, 0x52, 0xf2, 0x3d, 
    0x7d, 0x09, 0x80, 0xbe, 0x65, 0x80, 0x27, 0xbe, 0x31, 0xaf, 0x1b, 0xbe, 
    0xfc, 0x40, 0x06, 0x3d, 0x31, 0xdd, 0x98, 0xbe, 0xdc, 0x5e, 0x45, 0x3e, 
    0x6d, 0xd9, 0x72, 0xbc, 0xe9, 0xc6, 0x8b, 0x3e, 0x7b, 0xcc, 0xe9, 0xbd, 
    0x56, 0xf6, 0xff, 0xff, 0x04, 0x00, 0x00, 0x00, 0xd0, 0x07, 0x00, 0x00, 
    0x09, 0x3c, 0x55, 0x3e, 0x0e, 0x5b, 0x35, 0x3e, 0x72, 0xa0, 0x2d, 0xbf, 
    0xca, 0x08, 0x5d, 0x3e, 0xbe, 0x34, 0x80, 0x3d, 0x47, 0xe8, 0x0d, 0xbf, 
    0xb4, 0xa0, 0x87, 0x3e, 0xdf, 0x81, 0x86, 0xbd, 0x3a, 0xef, 0x21, 0xbf, 
    0xd8, 0x47, 0xff, 0x3c, 0x2c, 0x15, 0x05, 0xbf, 0x4c, 0xdc, 0x27, 0xbd, 
    0xa1, 0x68, 0x0d, 0x3e, 0xaf, 0xa7, 0xda, 0xbd, 0x5e, 0xa6, 0x67, 0xbe, 
    0xdb, 0x4e, 0x34, 0x3e, 0x20, 0x12, 0x80, 0x3e, 0x84, 0xf3, 0xe0, 0xbe, 
    0x74, 0x31, 0xf9, 0x3e, 0x4d, 0x36, 0x88, 0xbf, 0x0e, 0x9b, 0xcb, 0xbd, 
    0xbb, 0xf6, 0xc4, 0x3e, 0xba, 0xe9, 0xda, 0x3c, 0x0e, 0xee, 0x1c, 0xbf, 
    0xe5, 0xcc, 0x41, 0xbf, 0x1d, 0xba, 0x1b, 0x3e, 0x66, 0x6a, 0x95, 0x3d, 
    0xbd, 0x7a, 0xd2, 0xbe, 0xeb, 0xf6, 0x3b, 0x3e, 0x56, 0xa0, 0x4c, 0xbf, 
    0x1c, 0x04, 0x67, 0xbc, 0xbc, 0x3b, 0xff, 0x3d, 0x3a, 0xf1, 0x47, 0x3e, 
    0xdb, 0x32, 0xc0, 0xbe, 0xe7, 0x65, 0x47, 0x3e, 0x51, 0xca, 0x1e, 0xbf, 
    0x61, 0x1c, 0x2d, 0xbe, 0xf7, 0x4f, 0x03, 0xbe, 0xc6, 0x37, 0xcb, 0xbd, 
    0x6f, 0x5f, 0x31, 0x3e, 0x39, 0x38, 0xff, 0x3d, 0x8b, 0xb9, 0x80, 0xbe, 
    0x03, 0x36, 0xaa, 0x3e, 0x8f, 0x7e, 0xf9, 0xbe, 0x44, 0x7e, 0xf5, 0xbe, 
    0x0a, 0xa3, 0x20, 0xbf, 0x80, 0x88, 0x61, 0xbc, 0x02, 0x2d, 0xf6, 0xbd, 
    0xa4, 0xe9, 0xc6, 0xbe, 0x2c, 0xaa, 0xdb, 0x3d, 0x06, 0x79, 0x29, 0x3e, 
    0x8d, 0x25, 0x24, 0xbf, 0x7d, 0x06, 0x12, 0xbd, 0xf9, 0xd9, 0x83, 0xbe, 
    0x47, 0xbe, 0x8f, 0xbe, 0x34, 0xba, 0x6d, 0xbe, 0x90, 0x26, 0x06, 0xbe, 
    0x0f, 0x67, 0xf8, 0x3c, 0xe0, 0xbb, 0x94, 0xbe, 0x26, 0xc9, 0xa0, 0x3e, 
    0x90, 0x64, 0xfc, 0x3d, 0xed, 0xbc, 0xd6, 0xbd, 0x73, 0x3b, 0xb2, 0x3d, 
    0x81, 0x70, 0xa9, 0xbe, 0xce, 0xdc, 0x7a, 0xbd, 0xda, 0x11, 0x54, 0xbe, 
    0xcd, 0x76, 0xed, 0xbd, 0xff, 0x07, 0xcb, 0x3d, 0x52, 0xe6, 0x44, 0xbe, 
    0x2b, 0xb6, 0xde, 0xbc, 0x5c, 0x23, 0xc9, 0xbe, 0x5c, 0xae, 0x7c, 0x3e, 
    0x96, 0x74, 0xe9, 0x3d, 0x43, 0xa6, 0x5c, 0xbf, 0x9b, 0x6f, 0x4c, 0xbe, 
    0xf8, 0x06, 0x4d, 0x3d, 0x27, 0xe5, 0xcc, 0xbd, 0x1f, 0x8b, 0xdc, 0x3d, 
    0x40, 0xa6, 0x57, 0x3b, 0x62, 0xe3, 0x60, 0xbe, 0xa8, 0x35, 0xcd, 0xbc, 
    0x5a, 0xea, 0x12, 0x3e, 0x3b, 0x30, 0x10, 0xbf, 0x6d, 0xcd, 0x27, 0xbe, 
    0x90, 0xf8, 0xaa, 0x3e, 0x7c, 0xd5, 0x12, 0xbe, 0x8d, 0xd6, 0x58, 0xbe, 
    0x73, 0x13, 0xec, 0xbe, 0x43, 0x71, 0xa3, 0xbd, 0xd4, 0x15, 0x07, 0xbf, 
    0x6d, 0x6d, 0x64, 0xbe, 0x3d, 0x6c, 0x3a, 0xbe, 0xe2, 0x28, 0xa1, 0x3d, 
    0x37, 0x2b, 0x29, 0xbf, 0x8e, 0x8f, 0x0d, 0x3e, 0x4e, 0xec, 0xda, 0xbd, 
    0x5a, 0x04, 0x07, 0x3e, 0xdc, 0xbe, 0x18, 0xbf, 0xd9, 0x1e, 0x3b, 0xbf, 
    0xf0, 0x84, 0x47, 0xbe, 0xda, 0xfa, 0xe2, 0x3d, 0x5a, 0xa6, 0x05, 0xbe, 
    0xdf, 0xdf, 0x2c, 0xbc, 0x5f, 0xe3, 0x2a, 0xbf, 0x94, 0x26, 0x05, 0xbe, 
    0xa2, 0xf5, 0xe6, 0x3d, 0x45, 0x68, 0x0e, 0xbf, 0xa7, 0xf3, 0x37, 0x3e, 
    0x3c, 0xef, 0xe0, 0x3d, 0x70, 0xa8, 0x38, 0x3c, 0xc1, 0x17, 0xfb, 0x3c, 
    0xd8, 0xde, 0xbd, 0xbd, 0x64, 0x15, 0xab, 0xbe, 0xc9, 0x22, 0x9f, 0x3e, 
    0x59, 0xcf, 0x5e, 0x3e, 0xdd, 0x8b, 0x4a, 0xbd, 0xee, 0x64, 0x79, 0xbf, 
    0xb4, 0x54, 0x9e, 0x3d, 0x05, 0x4c, 0xfd, 0xbe, 0x7b, 0xee, 0x64, 0x3d, 
    0x9c, 0xef, 0xe5, 0xbe, 0x03, 0xa3, 0x57, 0xbf, 0xd7, 0x9d, 0xb3, 0x3d, 
    0x00, 0xc0, 0x0a, 0xbe, 0x4b, 0xd0, 0xf7, 0xbd, 0xcb, 0x87, 0x83, 0x3d, 
    0x69, 0x46, 0x3f, 0x3e, 0xa7, 0x32, 0x14, 0xbe, 0x6c, 0xd2, 0x9e, 0xbc, 
    0xd8, 0x96, 0xec, 0xbc, 0xea, 0xc1, 0x5b, 0x3e, 0x01, 0x72, 0x68, 0xbf, 
    0x05, 0xbc, 0x33, 0xbf, 0x94, 0x5a, 0xab, 0xbd, 0x3a, 0xae, 0x91, 0x3e, 
    0x08, 0x2e, 0x11, 0x3c, 0xe9, 0xb0, 0x04, 0x3e, 0x07, 0x07, 0x0f, 0xbf, 
    0x9a, 0x5b, 0x19, 0x3e, 0x09, 0x47, 0x0c, 0xbf, 0x68, 0xdc, 0xca, 0xbe, 
    0xc4, 0xf1, 0x1c, 0xbe, 0x96, 0x71, 0x2e, 0xbf, 0x86, 0x9a, 0x5c, 0xbe, 
    0x58, 0x12, 0x76, 0x3c, 0xa2, 0xee, 0xf1, 0x3d, 0xad, 0x62, 0x35, 0x3e, 
    0xd7, 0xf6, 0x16, 0xbf, 0x96, 0x45, 0x85, 0x3e, 0xc3, 0x70, 0x07, 0xbe, 
    0xb9, 0x9a, 0x33, 0x3e, 0xd1, 0xf9, 0x83, 0x3e, 0x8a, 0x55, 0x54, 0x3d, 
    0x94, 0xd1, 0x6d, 0x3e, 0xd3, 0x90, 0x8b, 0x3e, 0x8d, 0xb9, 0x59, 0xbe, 
    0x43, 0xad, 0x3c, 0x3e, 0x69, 0x34, 0x84, 0xbe, 0x25, 0x4c, 0x90, 0x3e, 
    0x2f, 0x3a, 0x48, 0xbf, 0x8c, 0x4f, 0x34, 0x3e, 0x30, 0x48, 0x46, 0xbe, 
    0xb5, 0x47, 0xee, 0xbe, 0x4b, 0x02, 0x9f, 0x3d, 0x34, 0xbc, 0xe8, 0xbb, 
    0x9c, 0x45, 0xcb, 0xbe, 0xf6, 0x58, 0xa0, 0xbd, 0x1b, 0xa1, 0x14, 0xbf, 
    0x19, 0xce, 0xa1, 0xbd, 0x9f, 0x0e, 0xeb, 0xbb, 0xa9, 0xaf, 0x49, 0xbe, 
    0x18, 0x38, 0x9c, 0xbe, 0x57, 0xc9, 0x91, 0xbd, 0x6c, 0x60, 0xa4, 0xba, 
    0xf1, 0xd2, 0x43, 0xbd, 0xcc, 0x45, 0x10, 0xbf, 0xaa, 0xc4, 0x47, 0x3e, 
    0xd2, 0xd2, 0x66, 0xbd, 0x9c, 0x59, 0xa6, 0xbd, 0xa4, 0xd3, 0x7b, 0xbd, 
    0x99, 0x1b, 0x0f, 0x3e, 0x9d, 0xdb, 0xd5, 0x3c, 0xe5, 0x33, 0xb5, 0x3d, 
    0x13, 0xff, 0x85, 0xbb, 0xb8, 0x04, 0x05, 0x3e, 0xf4, 0x38, 0xa9, 0xbe, 
    0x6e, 0x20, 0x3f, 0xbe, 0xca, 0xdd, 0x24, 0x3e, 0xfd, 0xaa, 0x99, 0xbb, 
    0x0f, 0xe9, 0x15, 0x3e, 0x75, 0x8d, 0x20, 0xbd, 0x8a, 0x5d, 0x83, 0x3d, 
    0x85, 0xbb, 0x14, 0xbf, 0x35, 0xe7, 0x79, 0x3e, 0xaf, 0x12, 0x41, 0x3e, 
    0x18, 0x27, 0xf7, 0x3c, 0xbf, 0x2f, 0x15, 0x3e, 0x59, 0x16, 0x1c, 0x3e, 
    0x83, 0x55, 0x94, 0x3e, 0x70, 0x7e, 0x87, 0x3c, 0x74, 0x7e, 0x22, 0x3d, 
    0x71, 0x97, 0xb1, 0x3e, 0x05, 0x05, 0x2e, 0xbe, 0x2c, 0x32, 0x7d, 0x3e, 
    0x71, 0xcf, 0x6b, 0x3e, 0x66, 0xaf, 0x97, 0x3e, 0xf8, 0x19, 0x9c, 0x3e, 
    0x4b, 0xfa, 0xa6, 0x3e, 0xb7, 0x02, 0x73, 0x3e, 0x27, 0x9c, 0x53, 0xbe, 
    0x73, 0xaf, 0xa8, 0xbd, 0xb0, 0xba, 0x06, 0x3c, 0x23, 0x28, 0x63, 0x3e, 
    0x33, 0x9f, 0x66, 0x3d, 0xa9, 0x34, 0x14, 0xbe, 0x95, 0xc7, 0xdf, 0xbd, 
    0x52, 0xd5, 0x4e, 0xbe, 0xee, 0x79, 0xa6, 0x3d, 0x98, 0x26, 0x3a, 0xbe, 
    0xcb, 0xe1, 0x56, 0x3e, 0x9e, 0xe1, 0xd6, 0xbd, 0x4e, 0x12, 0x54, 0xbd, 
    0x63, 0x89, 0xb2, 0xbd, 0x3e, 0xba, 0x89, 0xbe, 0x2b, 0x7c, 0x90, 0xbc, 
    0xcb, 0xe8, 0x43, 0x3c, 0xe0, 0xa9, 0x26, 0x3d, 0x49, 0xe3, 0xe2, 0x3d, 
    0xb8, 0x4b, 0x5c, 0xbe, 0xd6, 0x40, 0x8b, 0xbe, 0xed, 0xb8, 0x25, 0xbd, 
    0x7d, 0x77, 0x93, 0xbe, 0x00, 0xf5, 0x65, 0x3e, 0x1b, 0xda, 0xb0, 0x3e, 
    0xda, 0x29, 0x64, 0x3c, 0x1f, 0xd6, 0x47, 0x3c, 0x6e, 0xcb, 0x49, 0x3e, 
    0xf0, 0x16, 0xd0, 0xbc, 0x0d, 0xd6, 0x57, 0xbc, 0x1c, 0x35, 0xb8, 0xbd, 
    0xd6, 0xfc, 0x95, 0x3e, 0x2d, 0x81, 0x4c, 0x3e, 0x12, 0xc9, 0x60, 0x3e, 
    0xee, 0x37, 0xdd, 0x3d, 0x5d, 0xf7, 0x26, 0x3e, 0x98, 0x4f, 0x8c, 0x3d, 
    0x95, 0xc1, 0x18, 0x3e, 0xbf, 0x91, 0xd5, 0xbd, 0xa6, 0xca, 0xca, 0x3e, 
    0x29, 0xa1, 0x47, 0x3d, 0x95, 0x2e, 0x84, 0xbd, 0x87, 0xee, 0x4e, 0xbe, 
    0x9a, 0x24, 0xaa, 0xbd, 0x66, 0x72, 0x69, 0xbc, 0x88, 0x9b, 0x7d, 0x3e, 
    0x10, 0x6f, 0x59, 0x3c, 0x2e, 0x4f, 0x45, 0x3e, 0xd6, 0x42, 0x68, 0x3e, 
    0xd1, 0xbd, 0x06, 0x3e, 0xf2, 0x7b, 0x91, 0xbe, 0x59, 0xc4, 0x1f, 0xbd, 
    0xdf, 0xc5, 0x3a, 0x3e, 0x31, 0xe3, 0x56, 0x3e, 0x1e, 0x50, 0xc8, 0xbd, 
    0xc7, 0x0b, 0x0a, 0xbe, 0xd1, 0x3a, 0xa0, 0xbc, 0xf0, 0x0e, 0x80, 0x3e, 
    0xba, 0x68, 0xa5, 0x3e, 0x98, 0x18, 0x50, 0xbe, 0xca, 0xee, 0x5c, 0xbc, 
    0x34, 0xb3, 0x6e, 0x3e, 0xaf, 0x44, 0x56, 0x3e, 0xea, 0x0c, 0x29, 0xbe, 
    0x0c, 0x7b, 0xdb, 0x3e, 0x5f, 0x3f, 0x1e, 0x3e, 0xe4, 0x3f, 0x02, 0x3e, 
    0xec, 0x24, 0x82, 0x3e, 0x3b, 0x75, 0x50, 0x3e, 0x10, 0x86, 0xdf, 0xbc, 
    0x56, 0x4c, 0xfc, 0x3d, 0x6a, 0xc5, 0xca, 0x3d, 0xcf, 0xff, 0x3e, 0xbe, 
    0x9c, 0x3b, 0x7f, 0xbe, 0x05, 0xc5, 0x30, 0xbe, 0xcc, 0x98, 0x23, 0x3d, 
    0x86, 0x9c, 0x49, 0xbd, 0x8c, 0xaa, 0x32, 0x3f, 0x33, 0x1b, 0x2a, 0xbd, 
    0xcb, 0xdc, 0x63, 0xbe, 0xa3, 0x84, 0x4d, 0x3e, 0x8b, 0x0a, 0xa5, 0x3e, 
    0xec, 0x38, 0x1d, 0xbe, 0xbc, 0x60, 0xc6, 0xbd, 0xbd, 0xb0, 0x56, 0xbe, 
    0x7e, 0x9e, 0x36, 0xbe, 0x57, 0x97, 0x5f, 0xbe, 0x0f, 0x31, 0xcc, 0x3d, 
    0x96, 0x42, 0x7e, 0xbd, 0xeb, 0x1b, 0x81, 0xbe, 0x7f, 0x97, 0x60, 0xbd, 
    0x31, 0x7d, 0xfe, 0xbd, 0x22, 0xa3, 0x45, 0x3e, 0xfd, 0x21, 0xe6, 0x3d, 
    0x98, 0x47, 0x09, 0xbe, 0x50, 0x71, 0xb9, 0xbd, 0x01, 0x07, 0x74, 0xbd, 
    0x25, 0xfa, 0xa6, 0x3e, 0xe6, 0x0a, 0x19, 0x3e, 0x84, 0xa9, 0x5b, 0x3e, 
    0x63, 0x4c, 0x3e, 0x3e, 0xa5, 0xa0, 0x6c, 0xbc, 0xe8, 0xb9, 0x9f, 0xbd, 
    0xf4, 0x6f, 0x1d, 0x3e, 0x34, 0xcd, 0x9b, 0x3d, 0xe5, 0xdf, 0x13, 0x3e, 
    0xe8, 0xce, 0xc8, 0x3d, 0x2c, 0x48, 0xb2, 0x3e, 0x53, 0xb4, 0xb4, 0x3e, 
    0x05, 0xd5, 0x20, 0x3e, 0xa0, 0x16, 0xa9, 0xbd, 0xe4, 0x38, 0x89, 0x3e, 
    0xad, 0x7d, 0x7b, 0xbe, 0xb5, 0x49, 0x79, 0x3d, 0x9e, 0x38, 0x48, 0xbe, 
    0xbc, 0x2f, 0x72, 0x3e, 0x6f, 0x6c, 0x3d, 0x3e, 0xff, 0x2c, 0xd0, 0xbd, 
    0x96, 0xda, 0xc5, 0xbb, 0x08, 0x32, 0x39, 0x3e, 0xca, 0x9c, 0xec, 0x3d, 
    0xa0, 0xa0, 0x7f, 0xbe, 0xb5, 0x16, 0x4f, 0xbe, 0x2a, 0x72, 0xd2, 0x3d, 
    0x4a, 0x3c, 0x29, 0x3d, 0xe8, 0xa3, 0x09, 0xbe, 0x5d, 0xf0, 0x4b, 0x3e, 
    0xd3, 0x52, 0x87, 0x3e, 0x7c, 0xc1, 0x89, 0x3e, 0x06, 0x0a, 0x1d, 0xbe, 
    0xa9, 0x7d, 0xb7, 0x3e, 0x33, 0x1a, 0xbb, 0x3d, 0x92, 0xb1, 0xdf, 0xbd, 
    0xed, 0x71, 0xfe, 0xbe, 0x3f, 0xd1, 0x2e, 0xbe, 0xa7, 0x2b, 0x5e, 0xbd, 
    0x12, 0x21, 0x53, 0xbe, 0x2b, 0xc7, 0x45, 0x3e, 0x2a, 0x51, 0x09, 0x3e, 
    0xd2, 0x05, 0x86, 0xbe, 0x94, 0xa7, 0x3e, 0xbe, 0xee, 0x26, 0x28, 0xbd, 
    0x67, 0x47, 0xeb, 0x3d, 0x92, 0x39, 0x3a, 0x3d, 0x7b, 0xfe, 0x35, 0xbd, 
    0xae, 0xfd, 0x4d, 0x3e, 0x72, 0x5f, 0x6c, 0x3e, 0x3d, 0xc8, 0x97, 0xbd, 
    0x14, 0xb7, 0x81, 0x3d, 0x75, 0xb4, 0x46, 0xbd, 0xe7, 0x50, 0x9d, 0x3e, 
    0x9e, 0x4d, 0x7c, 0x3d, 0x51, 0x00, 0x50, 0xbd, 0xe9, 0x11, 0x19, 0x3c, 
    0xc6, 0xca, 0x02, 0xbd, 0xe5, 0x13, 0x17, 0x3e, 0x37, 0x15, 0xac, 0x3e, 
    0x32, 0x4b, 0xb4, 0xbd, 0x90, 0xdf, 0xa7, 0x3d, 0x93, 0x87, 0x54, 0x3e, 
    0xe1, 0x35, 0x11, 0xbe, 0x72, 0xec, 0x2f, 0x3c, 0x9d, 0x9f, 0x92, 0xbe, 
    0x72, 0xc5, 0x8d, 0xbd, 0x9a, 0xcb, 0x7b, 0xbd, 0x62, 0x73, 0x4b, 0x3e, 
    0x90, 0xc7, 0x85, 0x3e, 0x4c, 0x88, 0x31, 0xbd, 0xb7, 0x48, 0x68, 0x3e, 
    0xb4, 0x6c, 0x4e, 0x3d, 0xca, 0xe9, 0xe7, 0x3d, 0xe6, 0xba, 0x9c, 0xbd, 
    0x87, 0xe9, 0x3e, 0xbe, 0x62, 0x14, 0x85, 0x3d, 0x2e, 0x3b, 0xea, 0x3d, 
    0xb8, 0xc9, 0x90, 0xbe, 0xff, 0xf6, 0xa3, 0x3e, 0xf6, 0x75, 0x66, 0xbf, 
    0x57, 0xbd, 0x01, 0x3e, 0x67, 0x85, 0xbf, 0x3d, 0x7a, 0xe1, 0x0b, 0xbe, 
