unsigned char modelo_entrenado_tflite[] = {
  0x1c, 0x00, 0x00, 0x00, 0x54, 0x46, 0x4c, 0x33, 0x14, 0x00, 0x20, 0x00,
  0x1c, 0x00, 0x18, 0x00, 0x14, 0x00, 0x10, 0x00, 0x0c, 0x00, 0x00, 0x00,
  0x08, 0x00, 0x04, 0x00, 0x14, 0x00, 0x00, 0x00, 0x1c, 0x00, 0x00, 0x00,
  0x88, 0x00, 0x00, 0x00, 0xe0, 0x00, 0x00, 0x00, 0x90, 0x3f, 0x00, 0x00,
  0xa0, 0x3f, 0x00, 0x00, 0x98, 0x4a, 0x00, 0x00, 0x03, 0x00, 0x00, 0x00,
  0x01, 0x00, 0x00, 0x00, 0x04, 0x00, 0x00, 0x00, 0x8a, 0xbe, 0xff, 0xff,
  0x0c, 0x00, 0x00, 0x00, 0x1c, 0x00, 0x00, 0x00, 0x3c, 0x00, 0x00, 0x00,
  0x0f, 0x00, 0x00, 0x00, 0x73, 0x65, 0x72, 0x76, 0x69, 0x6e, 0x67, 0x5f,
  0x64, 0x65, 0x66, 0x61, 0x75, 0x6c, 0x74, 0x00, 0x01, 0x00, 0x00, 0x00,
  0x04, 0x00, 0x00, 0x00, 0x94, 0xff, 0xff, 0xff, 0x15, 0x00, 0x00, 0x00,
  0x04, 0x00, 0x00, 0x00, 0x08, 0x00, 0x00, 0x00, 0x6f, 0x75, 0x74, 0x70,
  0x75, 0x74, 0x5f, 0x30, 0x00, 0x00, 0x00, 0x00, 0x01, 0x00, 0x00, 0x00,
  0x04, 0x00, 0x00, 0x00, 0x42, 0xc0, 0xff, 0xff, 0x04, 0x00, 0x00, 0x00,
  0x0b, 0x00, 0x00, 0x00, 0x69, 0x6e, 0x70, 0x75, 0x74, 0x5f, 0x6c, 0x61,
  0x79, 0x65, 0x72, 0x00, 0x02, 0x00, 0x00, 0x00, 0x34, 0x00, 0x00, 0x00,
  0x04, 0x00, 0x00, 0x00, 0xdc, 0xff, 0xff, 0xff, 0x18, 0x00, 0x00, 0x00,
  0x04, 0x00, 0x00, 0x00, 0x13, 0x00, 0x00, 0x00, 0x43, 0x4f, 0x4e, 0x56,
  0x45, 0x52, 0x53, 0x49, 0x4f, 0x4e, 0x5f, 0x4d, 0x45, 0x54, 0x41, 0x44,
  0x41, 0x54, 0x41, 0x00, 0x08, 0x00, 0x0c, 0x00, 0x08, 0x00, 0x04, 0x00,
  0x08, 0x00, 0x00, 0x00, 0x17, 0x00, 0x00, 0x00, 0x04, 0x00, 0x00, 0x00,
  0x13, 0x00, 0x00, 0x00, 0x6d, 0x69, 0x6e, 0x5f, 0x72, 0x75, 0x6e, 0x74,
  0x69, 0x6d, 0x65, 0x5f, 0x76, 0x65, 0x72, 0x73, 0x69, 0x6f, 0x6e, 0x00,
  0x19, 0x00, 0x00, 0x00, 0xac, 0x3e, 0x00, 0x00, 0xa4, 0x3e, 0x00, 0x00,
  0x88, 0x3e, 0x00, 0x00, 0xf8, 0x3d, 0x00, 0x00, 0x68, 0x3d, 0x00, 0x00,
  0x88, 0x35, 0x00, 0x00, 0x78, 0x03, 0x00, 0x00, 0xe8, 0x02, 0x00, 0x00,
  0x48, 0x01, 0x00, 0x00, 0x24, 0x01, 0x00, 0x00, 0x10, 0x01, 0x00, 0x00,
  0xf8, 0x00, 0x00, 0x00, 0xe4, 0x00, 0x00, 0x00, 0xdc, 0x00, 0x00, 0x00,
  0xd4, 0x00, 0x00, 0x00, 0xcc, 0x00, 0x00, 0x00, 0xc4, 0x00, 0x00, 0x00,
  0xbc, 0x00, 0x00, 0x00, 0xb4, 0x00, 0x00, 0x00, 0xac, 0x00, 0x00, 0x00,
  0xa4, 0x00, 0x00, 0x00, 0x9c, 0x00, 0x00, 0x00, 0x94, 0x00, 0x00, 0x00,
  0x74, 0x00, 0x00, 0x00, 0x04, 0x00, 0x00, 0x00, 0x1e, 0xc1, 0xff, 0xff,
  0x04, 0x00, 0x00, 0x00, 0x60, 0x00, 0x00, 0x00, 0x10, 0x00, 0x00, 0x00,
  0x00, 0x00, 0x00, 0x00, 0x08, 0x00, 0x0e, 0x00, 0x08, 0x00, 0x04, 0x00,
  0x08, 0x00, 0x00, 0x00, 0x10, 0x00, 0x00, 0x00, 0x24, 0x00, 0x00, 0x00,
  0x00, 0x00, 0x06, 0x00, 0x08, 0x00, 0x04, 0x00, 0x06, 0x00, 0x00, 0x00,
  0x04, 0x00, 0x00, 0x00, 0x00, 0x00, 0x00, 0x00, 0x0c, 0x00, 0x18, 0x00,
  0x14, 0x00, 0x10, 0x00, 0x0c, 0x00, 0x04, 0x00, 0x0c, 0x00, 0x00, 0x00,
  0x81, 0x83, 0xef, 0xb1, 0xee, 0x3f, 0x53, 0x53, 0x02, 0x00, 0x00, 0x00,
  0x02, 0x00, 0x00, 0x00, 0x04, 0x00, 0x00, 0x00, 0x06, 0x00, 0x00, 0x00,
  0x32, 0x2e, 0x31, 0x37, 0x2e, 0x30, 0x00, 0x00, 0x8a, 0xc1, 0xff, 0xff,
  0x04, 0x00, 0x00, 0x00, 0x10, 0x00, 0x00, 0x00, 0x31, 0x2e, 0x31, 0x30,
  0x2e, 0x30, 0x00, 0x00, 0x00, 0x00, 0x00, 0x00, 0x00, 0x00, 0x00, 0x00,
  0xe8, 0xb6, 0xff, 0xff, 0xec, 0xb6, 0xff, 0xff, 0xf0, 0xb6, 0xff, 0xff,
  0xf4, 0xb6, 0xff, 0xff, 0xf8, 0xb6, 0xff, 0xff, 0xfc, 0xb6, 0xff, 0xff,
  0x00, 0xb7, 0xff, 0xff, 0x04, 0xb7, 0xff, 0xff, 0x08, 0xb7, 0xff, 0xff,
  0x0c, 0xb7, 0xff, 0xff, 0xce, 0xc1, 0xff, 0xff, 0x04, 0x00, 0x00, 0x00,
  0x04, 0x00, 0x00, 0x00, 0xfd, 0xff, 0xff, 0xff, 0xde, 0xc1, 0xff, 0xff,
  0x04, 0x00, 0x00, 0x00, 0x08, 0x00, 0x00, 0x00, 0xff, 0xff, 0xff, 0xff,
  0x20, 0x00, 0x00, 0x00, 0xf2, 0xc1, 0xff, 0xff, 0x04, 0x00, 0x00, 0x00,
  0x04, 0x00, 0x00, 0x00, 0x01, 0x00, 0x00, 0x00, 0x02, 0xc2, 0xff, 0xff,
  0x04, 0x00, 0x00, 0x00, 0x14, 0x00, 0x00, 0x00, 0x48, 0x6c, 0x50, 0x3d,
  0xd4, 0x97, 0x7c, 0xbd, 0x91, 0x54, 0xf5, 0xbd, 0x72, 0x05, 0x9f, 0x3d,
  0xb4, 0x36, 0xc3, 0x3d, 0x22, 0xc2, 0xff, 0xff, 0x04, 0x00, 0x00, 0x00,
  0x90, 0x01, 0x00, 0x00, 0xa3, 0xc4, 0x10, 0xbd, 0xce, 0x9e, 0x0b, 0x3e,
  0x36, 0x56, 0x19, 0x3e, 0x00, 0x00, 0x00, 0x00, 0x19, 0x2e, 0x43, 0xbe,
  0xe4, 0xcc, 0x70, 0xbd, 0x84, 0x81, 0x3a, 0x3e, 0xb2, 0xa3, 0x61, 0x3e,
  0x95, 0x30, 0x2d, 0x3e, 0x1f, 0x13, 0x92, 0xbd, 0x73, 0x8b, 0x9b, 0x3d,
  0x9b, 0x00, 0x05, 0x3e, 0xbb, 0x08, 0xa9, 0xbd, 0x94, 0x69, 0xaf, 0x3d,
  0x7e, 0x30, 0x65, 0x3e, 0x11, 0xbb, 0x48, 0xbd, 0xd6, 0x05, 0x52, 0xba,
  0x64, 0xf6, 0xb5, 0xbb, 0xf2, 0xac, 0x1b, 0x3e, 0xdd, 0xd9, 0x59, 0xbe,
  0x6c, 0xff, 0x3a, 0x3e, 0xab, 0xb3, 0x06, 0xbe, 0x4f, 0x5e, 0x40, 0x3e,
  0x00, 0x00, 0x00, 0x00, 0x41, 0x36, 0x6e, 0x3e, 0x37, 0x53, 0x15, 0x3e,
  0xc0, 0x62, 0xa1, 0xbd, 0xaa, 0x81, 0x04, 0xbd, 0x00, 0x00, 0x00, 0x00,
  0xa0, 0xa8, 0xde, 0xbc, 0x35, 0xb4, 0xd9, 0xbd, 0x07, 0x34, 0xe2, 0x3d,
  0x70, 0x71, 0x46, 0x3e, 0x1c, 0x04, 0x57, 0xbc, 0x6d, 0x3a, 0x46, 0xbe,
  0xbe, 0xcc, 0xc3, 0x3d, 0x71, 0x32, 0x95, 0xbe, 0x5a, 0xdc, 0x5f, 0x3e,
  0x00, 0x00, 0x00, 0x00, 0x3d, 0xbb, 0x8b, 0x3d, 0x58, 0x14, 0x1c, 0xbd,
  0x35, 0xae, 0x75, 0xbd, 0x08, 0x52, 0x27, 0xbc, 0x0d, 0x17, 0x08, 0x3d,
  0xad, 0xb2, 0x64, 0xbe, 0x79, 0x14, 0xd7, 0x3d, 0xf8, 0xcb, 0x23, 0x3e,
  0x19, 0x44, 0x68, 0x3d, 0x69, 0xb9, 0x83, 0xbd, 0x46, 0x44, 0x98, 0xbc,
  0x2b, 0x9e, 0x61, 0x3e, 0x00, 0x00, 0x00, 0x00, 0xc4, 0xaf, 0xa4, 0xbd,
  0x00, 0x00, 0x00, 0x00, 0x51, 0xa6, 0x9f, 0xbc, 0xc9, 0x86, 0x3e, 0x3e,
  0xf4, 0x93, 0x32, 0xbe, 0xb1, 0x9d, 0xd8, 0xbd, 0x93, 0x45, 0xa4, 0xbc,
  0x10, 0x31, 0x43, 0x3d, 0xf4, 0xa7, 0x58, 0x3e, 0x5e, 0xca, 0x14, 0x3e,
  0xe9, 0x30, 0x51, 0x3e, 0x00, 0x00, 0x00, 0x00, 0x82, 0x4d, 0x44, 0xbe,
  0x09, 0xb0, 0x02, 0x3e, 0x42, 0xfe, 0x5e, 0x3e, 0xa2, 0x04, 0x74, 0x3d,
  0x90, 0xc9, 0x11, 0xbe, 0x1f, 0xb5, 0xd8, 0xbc, 0x63, 0x50, 0x76, 0xbd,
  0xaa, 0xb5, 0x71, 0x3e, 0x00, 0x00, 0x00, 0x00, 0xa0, 0x5b, 0x10, 0x3e,
  0xe0, 0x8a, 0x85, 0x3d, 0x9b, 0x74, 0x25, 0x3e, 0x26, 0x38, 0xe0, 0x3d,
  0x03, 0x4a, 0x40, 0xbc, 0x00, 0x00, 0x00, 0x00, 0x8b, 0xc7, 0xe0, 0xbc,
  0x00, 0x00, 0x00, 0x00, 0xdf, 0xa4, 0x53, 0xbc, 0x30, 0xb7, 0x67, 0x3e,
  0xa3, 0xeb, 0x1a, 0x3e, 0xfd, 0x32, 0x55, 0x3e, 0x00, 0x00, 0x00, 0x00,
  0x64, 0x18, 0x03, 0x3e, 0x8b, 0x4d, 0x1e, 0xbe, 0x2b, 0x5d, 0x6f, 0xbd,
  0x00, 0x00, 0x00, 0x00, 0x71, 0x27, 0xaa, 0x3d, 0x00, 0x00, 0x00, 0x00,
  0xd0, 0x4d, 0x9a, 0x3d, 0xb8, 0xa8, 0xde, 0x3d, 0x52, 0xfa, 0x19, 0xbe,
  0x55, 0xec, 0x31, 0xbe, 0x79, 0xf5, 0xc9, 0x3d, 0xdf, 0x07, 0xe1, 0x3d,
  0x6b, 0x84, 0x70, 0xbc, 0xb2, 0x54, 0x0a, 0xbe, 0xbe, 0xc3, 0xff, 0xff,
  0x04, 0x00, 0x00, 0x00, 0x80, 0x00, 0x00, 0x00, 0x1d, 0x50, 0xbd, 0x3e,
  0x44, 0x4e, 0x0b, 0x3e, 0x4b, 0x40, 0x77, 0x3d, 0x58, 0x00, 0xf6, 0x3d,
  0x2a, 0x69, 0x04, 0x3e, 0x0c, 0xb2, 0xba, 0x3e, 0x55, 0xc9, 0xa7, 0x3d,
  0x61, 0xd7, 0x4d, 0xbe, 0xd7, 0x01, 0x15, 0x3d, 0x65, 0x57, 0xbe, 0x3e,
  0x33, 0x4d, 0x95, 0x3c, 0x24, 0xfe, 0xc3, 0x3d, 0xf6, 0x9a, 0x2f, 0x3d,
  0x49, 0x79, 0x1a, 0xbe, 0xe3, 0x8f, 0x86, 0x3e, 0xe4, 0x9b, 0x62, 0x3d,
  0xa4, 0x31, 0x9d, 0x3e, 0x27, 0xb7, 0xeb, 0xbd, 0xe7, 0xb6, 0xd0, 0xbd,
  0x05, 0x23, 0x0c, 0xbe, 0x37, 0xe3, 0x28, 0xbe, 0xd1, 0x02, 0x9a, 0x3d,
  0x25, 0x43, 0x91, 0x3e, 0xc3, 0x96, 0x50, 0x3d, 0x3a, 0xd4, 0x0f, 0xbe,
  0x34, 0xfc, 0x2c, 0xbd, 0x4a, 0x6b, 0x2c, 0xbc, 0xea, 0xf6, 0xf6, 0x3d,
  0xf6, 0x62, 0x27, 0xbe, 0x40, 0x23, 0x02, 0x3e, 0x7a, 0x92, 0x79, 0xbe,
  0xa7, 0x95, 0x3c, 0xbe, 0x4a, 0xc4, 0xff, 0xff, 0x04, 0x00, 0x00, 0x00,
  0x00, 0x32, 0x00, 0x00, 0x26, 0xfa, 0x1a, 0x3c, 0x53, 0x27, 0x0e, 0x3d,
  0xf3, 0xd5, 0xd6, 0xbd, 0xc3, 0xa7, 0xec, 0x3d, 0x2c, 0x9c, 0x80, 0x3e,
  0x62, 0x91, 0x3a, 0xbe, 0xf9, 0x4b, 0x53, 0x3e, 0x6d, 0xb5, 0x6e, 0x3c,
  0x4e, 0x62, 0x01, 0xbe, 0x92, 0x15, 0x84, 0x3b, 0xc0, 0x5f, 0xb5, 0xbc,
  0x8c, 0x7b, 0x05, 0xbd, 0x74, 0x00, 0xb2, 0x3d, 0x8d, 0x14, 0x8b, 0xbd,
  0x22, 0x08, 0x18, 0xbd, 0x49, 0x37, 0x3c, 0x3e, 0x0c, 0xe9, 0xa7, 0xbe,
  0xf9, 0x88, 0x1f, 0x3e, 0xd7, 0x09, 0xef, 0xbd, 0xb5, 0x48, 0x5b, 0x3e,
  0x76, 0x62, 0x5e, 0x3e, 0x1f, 0xf5, 0xee, 0x3d, 0x44, 0x3e, 0x3d, 0xbd,
  0x17, 0x6a, 0xcf, 0xbd, 0x9d, 0x0b, 0x76, 0x3e, 0xae, 0xff, 0x1b, 0xbe,
  0x9b, 0xe1, 0x20, 0x3e, 0xd8, 0x68, 0xe5, 0x3d, 0x50, 0xce, 0xc3, 0x3d,
  0xb1, 0xb4, 0xc3, 0xbd, 0xf5, 0x8e, 0x12, 0xbd, 0x73, 0x6c, 0x27, 0xbe,
  0x1e, 0xbc, 0x91, 0x3e, 0x33, 0xd8, 0x5e, 0x3d, 0x92, 0x16, 0x0f, 0xbe,
  0xed, 0x82, 0xab, 0x3d, 0x38, 0x2f, 0x25, 0x3e, 0xf0, 0xcd, 0x9d, 0x3e,
  0x41, 0x54, 0x27, 0xbe, 0x48, 0xb6, 0x8b, 0xbe, 0xe1, 0x26, 0x10, 0xbe,
  0x96, 0xe3, 0xa1, 0x3e, 0x93, 0xac, 0x4c, 0x3e, 0x7b, 0x76, 0x08, 0xbe,
  0x5d, 0x4e, 0x4d, 0x3e, 0xc6, 0xd4, 0x71, 0xbe, 0xea, 0xf7, 0x41, 0x3e,
  0x9d, 0xeb, 0x22, 0x3e, 0x3f, 0xb7, 0x43, 0x3e, 0xb8, 0x9d, 0x04, 0xbe,
  0x17, 0x03, 0xf7, 0xbd, 0xb1, 0xba, 0xbb, 0xbe, 0x98, 0x06, 0xf6, 0xbd,
  0xcc, 0x7a, 0xf2, 0x3b, 0xd4, 0x54, 0x2c, 0x3e, 0x62, 0xf7, 0xdb, 0xbc,
  0xf8, 0xb8, 0x17, 0x3c, 0x80, 0x80, 0x28, 0xbd, 0xc9, 0xeb, 0xc6, 0xbd,
  0x85, 0x6a, 0x29, 0xbe, 0xb0, 0x04, 0x54, 0xbd, 0x52, 0x2c, 0x19, 0x3e,
  0x8f, 0x14, 0x8a, 0x3b, 0x66, 0x49, 0x79, 0xbd, 0xa0, 0x0a, 0xb7, 0x3e,
  0xe6, 0xcc, 0xb0, 0xbd, 0x49, 0xfc, 0x78, 0xbe, 0x2c, 0x86, 0x8d, 0x3e,
  0xce, 0xe9, 0x2a, 0x3e, 0x95, 0xb3, 0xb0, 0x3e, 0x6f, 0x3e, 0x35, 0x3e,
  0x86, 0x79, 0x22, 0xbe, 0x58, 0x02, 0xd4, 0xbe, 0xc9, 0xab, 0x09, 0x3d,
  0xbf, 0xa2, 0x33, 0x3e, 0xae, 0x4b, 0x5c, 0xbe, 0x9b, 0x88, 0xcd, 0xbe,
  0xb7, 0xb4, 0x5c, 0xbd, 0x5d, 0x23, 0xaa, 0x3d, 0xd3, 0x9c, 0x17, 0x3e,
  0x77, 0xe7, 0x53, 0xbd, 0x9a, 0x7f, 0xb6, 0x3a, 0xe2, 0x6d, 0x07, 0x3e,
  0x9a, 0x65, 0xdc, 0x3d, 0xda, 0xf9, 0x1b, 0x3d, 0xe8, 0x94, 0x6c, 0x3e,
  0xcc, 0xe3, 0x0d, 0x3d, 0xec, 0x97, 0xb4, 0xbe, 0xca, 0xda, 0x3c, 0xbe,
  0xe4, 0x47, 0x09, 0xbe, 0xc3, 0x6d, 0x2d, 0x3e, 0xd1, 0x10, 0xb7, 0xbd,
  0x2b, 0xcf, 0xa6, 0xbe, 0x89, 0x0c, 0xcc, 0xbd, 0x94, 0x32, 0x04, 0x3d,
  0x02, 0xfb, 0x25, 0x3d, 0x06, 0x04, 0x10, 0x3e, 0x49, 0x21, 0xd2, 0xbd,
  0x0d, 0x79, 0xfd, 0xbd, 0x5a, 0x0b, 0x3d, 0xbe, 0x60, 0x9c, 0x04, 0x3e,
  0x9c, 0x1a, 0x2b, 0xbe, 0xf0, 0xcf, 0x1e, 0x3e, 0x8b, 0x45, 0xe5, 0xbd,
  0xea, 0x69, 0x48, 0x3e, 0x02, 0x80, 0x49, 0xbe, 0xb8, 0xf3, 0xda, 0x3d,
  0x15, 0x99, 0x56, 0xbe, 0x2d, 0xf2, 0x15, 0xbe, 0xba, 0x41, 0x01, 0x3e,
  0xdd, 0xd7, 0x1a, 0xbe, 0x91, 0x33, 0x2c, 0xbe, 0x60, 0x12, 0xff, 0x3d,
  0x60, 0xfc, 0x88, 0x3d, 0xb8, 0x61, 0x33, 0x3d, 0xf2, 0x3b, 0x27, 0x3e,
  0x0e, 0x91, 0x4d, 0xbe, 0xab, 0x61, 0x17, 0xbe, 0x6c, 0x1b, 0xd0, 0x3d,
  0x62, 0x43, 0x1d, 0x3e, 0x0d, 0xf4, 0x56, 0xbe, 0xcc, 0x58, 0x0c, 0xbe,
  0x12, 0x6a, 0x35, 0x3e, 0x85, 0x9a, 0xd4, 0xbd, 0x00, 0x85, 0x2a, 0xba,
  0x88, 0xc0, 0x0b, 0x3e, 0x73, 0xc6, 0x41, 0xbe, 0x6a, 0x58, 0x45, 0xbe,
  0x91, 0x5d, 0x16, 0xbe, 0x58, 0xce, 0x98, 0xbd, 0xd3, 0x74, 0xa5, 0x3e,
  0x16, 0x07, 0x6e, 0x3e, 0x9c, 0x93, 0xc1, 0x3d, 0x69, 0x3c, 0xce, 0xbe,
  0x5b, 0x38, 0x67, 0x3e, 0x5a, 0xd9, 0x83, 0x3e, 0xd1, 0x2f, 0x99, 0x3e,
  0x76, 0x2d, 0x57, 0xbe, 0xa7, 0x7d, 0xff, 0x3d, 0x41, 0xb3, 0x0f, 0x3e,
  0xa7, 0xd1, 0xb9, 0x3e, 0x61, 0xc4, 0x62, 0xbd, 0xfc, 0xfe, 0x02, 0xbe,
  0x97, 0xc9, 0x74, 0x3e, 0xb2, 0xc2, 0x59, 0xbe, 0x8d, 0x21, 0xa4, 0x3d,
  0xb4, 0xe1, 0x79, 0x3c, 0xd4, 0x13, 0xa0, 0x3d, 0x95, 0x12, 0xb4, 0x3d,
  0x5e, 0xb7, 0xff, 0x3d, 0x6f, 0x11, 0x6b, 0xbd, 0x44, 0x8d, 0x97, 0x3d,
  0xb6, 0x22, 0xb2, 0x3e, 0x66, 0x34, 0x3f, 0x3e, 0x58, 0xa4, 0xb2, 0x3d,
  0xbb, 0x48, 0xd8, 0x3d, 0x30, 0x0b, 0xad, 0x3d, 0x0a, 0x41, 0x6c, 0x3e,
  0x34, 0xfc, 0x5d, 0x3e, 0xc2, 0x8b, 0x08, 0x3e, 0xf8, 0x8b, 0x63, 0xbe,
  0xb9, 0x6f, 0x8e, 0x3e, 0xc9, 0x00, 0x6f, 0x3e, 0x88, 0xb2, 0x0e, 0xbe,
  0xa7, 0x21, 0xa2, 0xbd, 0xab, 0xb3, 0xf3, 0xbe, 0x70, 0x37, 0xf8, 0xbd,
  0x2e, 0x3e, 0x26, 0x3e, 0xd1, 0x56, 0x83, 0x3e, 0x74, 0xd2, 0x66, 0xbe,
  0x18, 0xdf, 0x04, 0xbe, 0x39, 0x47, 0x83, 0x3e, 0xde, 0xd0, 0x13, 0x3e,
  0x11, 0x78, 0x53, 0xbe, 0xc7, 0x8b, 0x80, 0xbe, 0x0d, 0x5b, 0x04, 0xbe,
  0xe3, 0x21, 0x06, 0x3d, 0x66, 0x36, 0xe1, 0x3d, 0x65, 0x3b, 0x98, 0xbd,
  0xac, 0xa5, 0x19, 0xbd, 0x0a, 0x9f, 0xa5, 0xbd, 0x4d, 0xf1, 0x2f, 0x3d,
  0x00, 0xe0, 0x12, 0xbe, 0x16, 0x3a, 0xcb, 0x3e, 0xd8, 0x0e, 0xd2, 0xbd,
  0xa2, 0x1d, 0x8b, 0x3e, 0xca, 0xf0, 0x1e, 0xbe, 0x47, 0x27, 0x62, 0xbe,
  0xd3, 0x84, 0xd1, 0x3e, 0x28, 0x72, 0x15, 0x3e, 0x73, 0x06, 0x13, 0x3e,
  0x54, 0x97, 0x35, 0xbc, 0xba, 0x72, 0x9b, 0x3e, 0x82, 0x3e, 0xe0, 0x3d,
  0x00, 0xe1, 0x53, 0xbe, 0x32, 0x0f, 0xbf, 0x3c, 0x55, 0xa8, 0x26, 0xbe,
  0xe7, 0xcd, 0xe8, 0x3e, 0x5c, 0x56, 0x25, 0xbe, 0x32, 0x8d, 0xb7, 0xbe,
  0xab, 0x24, 0x2c, 0xbd, 0x1c, 0xc2, 0xda, 0x3e, 0xd8, 0x27, 0x96, 0x3d,
  0xb9, 0xec, 0x5c, 0x3c, 0xb9, 0x97, 0x42, 0x3d, 0xae, 0x9b, 0x1c, 0xbe,
  0xd7, 0x0f, 0xc2, 0xbb, 0xa9, 0x6c, 0x6c, 0xbe, 0x50, 0x9a, 0xa5, 0x3e,
  0x68, 0xde, 0xab, 0xbd, 0xc8, 0xe2, 0xb6, 0xbe, 0x50, 0x36, 0x84, 0xbe,
  0x25, 0x70, 0x44, 0xbe, 0x63, 0x1d, 0xd3, 0x3d, 0x73, 0xfe, 0x8c, 0x3d,
  0x51, 0x17, 0x0e, 0x3e, 0xef, 0x33, 0x53, 0xbd, 0xa7, 0xe2, 0x45, 0xbe,
  0xf3, 0xb1, 0x1e, 0x3c, 0x1a, 0x0a, 0xbe, 0x3d, 0x85, 0xa5, 0x15, 0x3d,
  0xad, 0xed, 0x89, 0x3c, 0x0d, 0x0e, 0xdb, 0xbd, 0x10, 0x8f, 0x00, 0xbd,
  0xe2, 0x42, 0x9f, 0x3e, 0xab, 0xea, 0x50, 0xbd, 0xda, 0x4a, 0x9c, 0x3d,
  0x0a, 0x53, 0xdd, 0x3d, 0x98, 0xa8, 0x9c, 0x3d, 0x03, 0xac, 0xcd, 0x3e,
  0x7e, 0x0d, 0xa7, 0xbd, 0x06, 0xb4, 0x8b, 0xbd, 0x2d, 0x10, 0x2b, 0xbd,
  0x23, 0x60, 0x31, 0x3e, 0xd3, 0xea, 0xe0, 0x3d, 0x3a, 0x4d, 0x04, 0xbe,
  0xfa, 0x0c, 0x93, 0x3d, 0x05, 0x48, 0xd6, 0xbd, 0xa2, 0x93, 0x34, 0x3e,
  0x05, 0xf4, 0xdb, 0xbd, 0x48, 0x6c, 0x66, 0x3e, 0xd7, 0x63, 0xa9, 0xbd,
  0x6c, 0x80, 0x17, 0xbe, 0x66, 0x9f, 0x9b, 0xbe, 0xe4, 0x60, 0xd5, 0x3a,
  0xfa, 0xcf, 0xef, 0x3d, 0x34, 0x77, 0xd3, 0xbc, 0x50, 0x8b, 0xc8, 0x3d,
  0x38, 0x23, 0x0c, 0xbd, 0xcc, 0xcc, 0x46, 0xbe, 0xfe, 0x88, 0x30, 0x3d,
  0x15, 0xa9, 0x1c, 0xbe, 0xa9, 0xf9, 0x3a, 0xbe, 0xf2, 0xcb, 0x82, 0xbc,
  0x64, 0x0f, 0xaa, 0xbd, 0x54, 0xf1, 0x93, 0x3d, 0x11, 0xc5, 0xe3, 0x3e,
  0x9d, 0x46, 0xab, 0xbe, 0xea, 0x5b, 0x72, 0xbe, 0xa3, 0x7d, 0x5c, 0x3e,
  0xc6, 0x90, 0x5b, 0x3e, 0x17, 0xf3, 0x06, 0x3e, 0x97, 0x79, 0x46, 0x3e,
  0x59, 0xa6, 0xfd, 0xbd, 0x2a, 0x2b, 0xbf, 0xbe, 0xf8, 0x4c, 0x6a, 0x3e,
  0xe2, 0xbf, 0x0c, 0xbd, 0xcf, 0xf7, 0x6a, 0xbe, 0x43, 0x21, 0xbc, 0xbd,
  0x4e, 0x53, 0xaf, 0xbe, 0x24, 0xdd, 0x06, 0xbe, 0xc7, 0xe0, 0x20, 0xbc,
  0xeb, 0x0d, 0x99, 0x3e, 0x72, 0xcb, 0x05, 0xbe, 0x5a, 0xe3, 0x6d, 0xbd,
  0x27, 0xf3, 0xaf, 0xbe, 0x9d, 0xb0, 0x99, 0xbe, 0xb4, 0x89, 0xeb, 0xbd,
  0xc3, 0x94, 0x1d, 0xbe, 0x79, 0xf8, 0x9e, 0xbe, 0xe5, 0xd1, 0x98, 0xbe,
  0x97, 0x96, 0xd5, 0xbd, 0x94, 0xb9, 0x32, 0x3e, 0x83, 0xdc, 0x11, 0x3e,
  0x46, 0xa2, 0xa6, 0xbe, 0x43, 0x57, 0x79, 0xbe, 0xb5, 0xf3, 0xca, 0xbe,
  0x90, 0xfe, 0xca, 0xbe, 0xf2, 0x27, 0x62, 0xbe, 0x1e, 0x42, 0x87, 0x3e,
  0xc0, 0x6a, 0xa9, 0xbc, 0xeb, 0xff, 0xa6, 0xbd, 0x7f, 0xef, 0x11, 0x3e,
  0xec, 0x34, 0x89, 0xbe, 0x45, 0x68, 0x23, 0x3e, 0xd2, 0x3c, 0xcd, 0xbd,
  0x42, 0x65, 0xa6, 0x3e, 0x5b, 0x11, 0x11, 0xbe, 0x3a, 0x06, 0x6f, 0x3e,
  0x91, 0x2f, 0x80, 0x3e, 0x16, 0x2c, 0xa3, 0xbb, 0x5f, 0x2a, 0x02, 0xbd,
  0x9e, 0xb4, 0xfd, 0x3d, 0xb6, 0x98, 0xe3, 0x3d, 0xc3, 0x91, 0x20, 0x3d,
  0x7e, 0x59, 0x15, 0x3e, 0xf5, 0x18, 0x1e, 0x3e, 0x57, 0x6e, 0x30, 0x3e,
  0x3d, 0x02, 0x67, 0xbd, 0xeb, 0x42, 0x11, 0xbd, 0xdc, 0xcf, 0xa2, 0x3a,
  0xac, 0xc9, 0x5f, 0x3e, 0x36, 0x87, 0x9e, 0xbd, 0x35, 0x99, 0x1b, 0x3e,
  0xdd, 0x72, 0xf5, 0xbd, 0xe6, 0x7d, 0xa2, 0xbd, 0xa5, 0x2a, 0x77, 0x3e,
  0xa6, 0x64, 0xef, 0x3d, 0xde, 0x56, 0x8c, 0xbc, 0x04, 0xff, 0x42, 0x3e,
  0xc7, 0x4f, 0x8f, 0x3e, 0xcb, 0x0a, 0x02, 0x3e, 0xeb, 0x2e, 0xe8, 0x3d,
  0x97, 0xc2, 0xec, 0xbd, 0x6b, 0xb8, 0x64, 0xbe, 0x98, 0xa6, 0x6d, 0x3e,
  0xae, 0xa9, 0x7c, 0xbe, 0x4b, 0xa3, 0x9c, 0xbe, 0x6b, 0xca, 0x96, 0x3e,
  0xe6, 0x54, 0x9e, 0x3d, 0xfa, 0x56, 0x5c, 0xbe, 0xdc, 0x1a, 0x91, 0x3e,
  0x20, 0x26, 0xf8, 0xbc, 0x5f, 0xd0, 0x74, 0xbb, 0x7e, 0x8e, 0x50, 0x3d,
  0xf4, 0x7c, 0x91, 0xbd, 0x77, 0x79, 0x7a, 0x3e, 0x6f, 0x14, 0x64, 0xbd,
  0x21, 0x52, 0x5a, 0xbe, 0x77, 0x7f, 0x9c, 0xbe, 0x61, 0x09, 0x3e, 0xbe,
  0x54, 0x52, 0xd2, 0xbd, 0x08, 0x5a, 0x6d, 0x3e, 0x08, 0x33, 0xcc, 0x3d,
  0x6e, 0x46, 0xaf, 0x3d, 0x0d, 0x30, 0xec, 0xbb, 0xf0, 0x1e, 0x0a, 0xbd,
  0x4c, 0x4b, 0x21, 0xbd, 0xaf, 0xc3, 0x9a, 0xbc, 0x24, 0x7a, 0xa0, 0xbd,
  0xda, 0x65, 0xd2, 0xbd, 0x1b, 0xb8, 0x31, 0xbe, 0x1e, 0xa8, 0x28, 0x3e,
  0xb6, 0x0c, 0x83, 0xbe, 0xd3, 0x84, 0x87, 0xbe, 0xa8, 0xff, 0x25, 0x3c,
  0x64, 0xe0, 0x10, 0x3e, 0xc5, 0x32, 0x56, 0x3e, 0x0d, 0x8c, 0x08, 0x3e,
  0x05, 0x63, 0x10, 0xbe, 0x72, 0x58, 0xc9, 0xbd, 0xd1, 0x28, 0xae, 0xbd,
  0x83, 0x4a, 0xc8, 0xbd, 0x3b, 0x32, 0xda, 0x3d, 0x36, 0xdb, 0x89, 0xbd,
  0xf0, 0x46, 0xb8, 0xbc, 0x7c, 0x0c, 0x24, 0x3e, 0xcb, 0xb1, 0x0a, 0x3e,
  0x06, 0xb3, 0x9b, 0x3e, 0x98, 0x81, 0x68, 0x3c, 0x7a, 0x48, 0xab, 0xbe,
  0xaa, 0x0c, 0xd7, 0xbd, 0x1d, 0xdb, 0xc7, 0xbd, 0x83, 0x13, 0x39, 0x3d,
  0xf7, 0xee, 0x0a, 0x3e, 0xd1, 0xae, 0x7c, 0x3d, 0xb9, 0x6f, 0x23, 0x3d,
  0xae, 0x98, 0x53, 0x3d, 0x74, 0x58, 0x66, 0x3d, 0x1e, 0x53, 0x0b, 0x3e,
  0x90, 0xc4, 0xa8, 0xbe, 0x0c, 0xc5, 0xd5, 0x3d, 0x12, 0x74, 0x6e, 0xbe,
  0x01, 0xbf, 0x82, 0x3b, 0xea, 0xf8, 0xb2, 0xbd, 0x20, 0x39, 0x7e, 0xbc,
  0x8c, 0xf0, 0xa6, 0x3d, 0x59, 0x06, 0x9a, 0xbd, 0xd3, 0x94, 0x02, 0x3e,
  0xf8, 0x3a, 0x50, 0x3d, 0xb2, 0x45, 0x13, 0xbb, 0x52, 0x70, 0x44, 0x3e,
  0x6e, 0xa3, 0x8e, 0xbc, 0x1a, 0x16, 0x2b, 0xbe, 0x79, 0x7a, 0x1f, 0xbd,
  0x5c, 0x65, 0xd7, 0xbc, 0xa4, 0x53, 0x2e, 0x3c, 0xdb, 0x23, 0x81, 0x3e,
  0x83, 0xcb, 0x30, 0xbe, 0xf9, 0x1e, 0xa2, 0x3d, 0x00, 0xf7, 0xc9, 0xbe,
  0x86, 0x13, 0xb7, 0xbd, 0x11, 0xc8, 0x28, 0x3e, 0x61, 0xa5, 0xaa, 0xbd,
  0x58, 0x70, 0xea, 0x3d, 0x57, 0xaf, 0x4a, 0x3e, 0x42, 0xf1, 0xdc, 0x3d,
  0x2c, 0x50, 0x86, 0x3b, 0x80, 0x33, 0x5d, 0x3e, 0x7d, 0x93, 0x04, 0xbe,
  0xbf, 0x46, 0x1a, 0xbe, 0x35, 0x9a, 0x3f, 0x3e, 0xbe, 0x23, 0x1e, 0x3c,
  0xba, 0x05, 0x02, 0x3e, 0x8f, 0x93, 0xcd, 0x3d, 0xc0, 0x41, 0xa2, 0x3d,
  0xab, 0x50, 0x82, 0xbd, 0xf6, 0x7f, 0xec, 0x3d, 0x37, 0x63, 0x95, 0xbd,
  0x40, 0xad, 0x54, 0x3e, 0x0c, 0x74, 0x1c, 0x3e, 0xde, 0x2c, 0x2e, 0x3e,
  0xcf, 0xc6, 0x74, 0x3e, 0x1d, 0x54, 0xe9, 0x3b, 0xae, 0xf8, 0xac, 0x3d,
  0xce, 0xea, 0x78, 0x3e, 0xfa, 0x1e, 0xb4, 0xbd, 0x77, 0xb1, 0x61, 0x3e,
  0xaa, 0x27, 0x0e, 0x3e, 0xc7, 0x63, 0x57, 0xbe, 0x8e, 0x90, 0xb9, 0xbd,
  0x6f, 0x43, 0x6c, 0x3e, 0xde, 0x57, 0xef, 0x3c, 0x04, 0xc3, 0x25, 0xbe,
  0xc7, 0xf2, 0x60, 0xbe, 0x64, 0xe1, 0x2c, 0x3d, 0x41, 0xc6, 0x6c, 0xbe,
  0x1a, 0x9b, 0x37, 0x3e, 0x76, 0x2f, 0xc7, 0x3c, 0x87, 0x23, 0xc5, 0xbd,
  0xe6, 0xfc, 0xd0, 0xbc, 0xd3, 0xdf, 0xa5, 0xbc, 0x1b, 0xdc, 0x1d, 0xbe,
  0x5c, 0x0b, 0x5a, 0x3e, 0xdd, 0xe8, 0x84, 0xbc, 0xe0, 0x17, 0xaf, 0xbd,
  0x85, 0x8e, 0x7d, 0x3d, 0x64, 0x3a, 0xb4, 0x3d, 0xae, 0x7c, 0x16, 0x3f,
  0x93, 0x1e, 0x48, 0x3e, 0xc0, 0xec, 0xfb, 0x3d, 0x07, 0x7f, 0xdd, 0xbd,
  0x0b, 0xdd, 0xfc, 0xbd, 0xd0, 0x9c, 0x73, 0x3e, 0xa3, 0x19, 0xeb, 0x3c,
  0x51, 0x0e, 0x52, 0xbe, 0x70, 0x1e, 0x50, 0x3d, 0x55, 0x9f, 0x66, 0x3e,
  0x3b, 0x51, 0x27, 0xbe, 0x5d, 0x8f, 0x7e, 0x3d, 0xd0, 0x2e, 0x23, 0x3e,
  0x3c, 0x74, 0xb0, 0xbe, 0x7a, 0xac, 0x13, 0x3d, 0x43, 0x6c, 0xa3, 0x3d,
  0xac, 0xad, 0xac, 0x3e, 0x0a, 0x06, 0x8b, 0x3d, 0x97, 0xde, 0x67, 0xbe,
  0x4a, 0xb3, 0x65, 0xbd, 0x32, 0x08, 0x8e, 0xbe, 0x18, 0x88, 0xaf, 0xbd,
  0x1d, 0xd3, 0x63, 0x3e, 0xcb, 0x88, 0x6d, 0x3e, 0xe3, 0x19, 0xb8, 0xbe,
  0x99, 0xb7, 0x9e, 0x3e, 0x09, 0xa6, 0xab, 0xbd, 0x26, 0x7b, 0x85, 0xbd,
  0xbc, 0xa7, 0x66, 0x3e, 0xaa, 0x4f, 0x2e, 0x3d, 0x52, 0xfb, 0xb8, 0xbe,
  0x93, 0x37, 0x76, 0x3c, 0x55, 0xf1, 0x8b, 0x3c, 0x2e, 0x87, 0xfb, 0x3d,
  0xec, 0x27, 0x66, 0xbd, 0x19, 0x45, 0x97, 0xbd, 0xd3, 0x59, 0x32, 0xbd,
  0xad, 0x21, 0x15, 0xbe, 0x0a, 0x91, 0x50, 0x3b, 0x20, 0x45, 0xf5, 0x3d,
  0x70, 0xe1, 0x82, 0x3e, 0x47, 0x4f, 0x18, 0xbe, 0x4a, 0x17, 0x42, 0x3e,
  0x84, 0x82, 0x3c, 0x3e, 0xea, 0x3b, 0x53, 0x3e, 0xae, 0x65, 0x5f, 0xbd,
  0x50, 0x2e, 0x70, 0x3d, 0xb5, 0x66, 0x13, 0x3e, 0x57, 0x5a, 0x6e, 0x3e,
  0x6e, 0x24, 0x1d, 0x3e, 0x0e, 0x39, 0x35, 0x3e, 0xed, 0xa1, 0xc5, 0xbd,
  0x3c, 0x8d, 0x7b, 0x3e, 0x9b, 0xe4, 0x0f, 0x3e, 0x10, 0x8a, 0x2f, 0x3e,
  0x6e, 0x45, 0xa0, 0x3e, 0xe4, 0x22, 0x45, 0x3d, 0x5d, 0x1c, 0x2b, 0x3e,
  0x74, 0x44, 0x44, 0xbd, 0x97, 0x13, 0xdc, 0xbb, 0xcf, 0x9a, 0xfb, 0x3d,
  0x59, 0xf8, 0xf3, 0x3d, 0x99, 0xcd, 0xa8, 0x3d, 0x3e, 0x4a, 0x1f, 0x3d,
  0x6d, 0xb7, 0x4e, 0x3d, 0x00, 0xe2, 0x49, 0xbe, 0x7a, 0xd6, 0x06, 0x3e,
  0x54, 0xc8, 0x19, 0x3d, 0xea, 0xa5, 0x19, 0x3e, 0x21, 0x10, 0x50, 0xbe,
  0x86, 0x09, 0x0e, 0xbe, 0xd2, 0x71, 0x45, 0xbe, 0xfb, 0x60, 0x0e, 0xbe,
  0x0b, 0xff, 0x87, 0x3d, 0x00, 0x4e, 0xa3, 0xbb, 0x87, 0x47, 0x2d, 0xbe,
  0x36, 0x63, 0x84, 0xbd, 0x69, 0x1c, 0xb9, 0x3d, 0xfb, 0x1a, 0x1d, 0xbe,
  0x29, 0x7c, 0x71, 0x3d, 0x62, 0xe6, 0x98, 0x3d, 0x90, 0xc7, 0x7e, 0xbd,
  0x70, 0x5a, 0xc1, 0x3d, 0xb6, 0x22, 0x43, 0xbe, 0xd7, 0x51, 0x7d, 0xbd,
  0xfc, 0x9b, 0x30, 0x3e, 0xab, 0x3b, 0xf3, 0xbd, 0x4f, 0x08, 0x35, 0xbe,
  0xc0, 0x85, 0x4c, 0xbc, 0x04, 0x09, 0xfd, 0x3d, 0xfa, 0x25, 0x53, 0x3e,
  0x13, 0x68, 0x43, 0x3c, 0x93, 0xf5, 0x38, 0xbe, 0x66, 0x59, 0x40, 0x3e,
  0xe8, 0x47, 0x14, 0xbd, 0x1a, 0x5c, 0xfb, 0x3d, 0x4d, 0x25, 0x12, 0xbe,
  0x07, 0xa4, 0x37, 0x3e, 0x21, 0x68, 0x98, 0x3c, 0xa9, 0xac, 0x29, 0xbe,
  0x23, 0x39, 0x51, 0xbe, 0xa0, 0xba, 0x18, 0x3d, 0xbd, 0x98, 0x14, 0xbe,
  0x51, 0x49, 0x0e, 0xbe, 0x98, 0x0e, 0x9e, 0xbd, 0x2c, 0x7f, 0x59, 0xbd,
  0xa8, 0xe3, 0x2a, 0x3e, 0xb6, 0x23, 0x7f, 0xbd, 0xbf, 0x86, 0x3d, 0xbe,
  0xc2, 0xac, 0x2e, 0xbe, 0x3e, 0xa6, 0x1b, 0xbe, 0x0c, 0x6d, 0x03, 0x3e,
  0x29, 0xa4, 0x2d, 0xbc, 0xce, 0x9d, 0x16, 0xbe, 0xd8, 0x8d, 0xce, 0xbc,
  0x40, 0x15, 0x57, 0x3b, 0xf2, 0xd8, 0x0f, 0x3e, 0xdf, 0x9c, 0x3f, 0x3e,
  0x88, 0x8d, 0x4b, 0x3e, 0x9a, 0xc3, 0x0d, 0xbe, 0x99, 0x71, 0xc1, 0xbd,
  0x18, 0xec, 0x53, 0x3d, 0x13, 0x56, 0xca, 0xbd, 0x18, 0xf3, 0xd6, 0xbc,
  0x8b, 0xda, 0x78, 0xbd, 0x45, 0xe5, 0x08, 0x3d, 0x40, 0x51, 0x19, 0x3e,
  0x8a, 0xcb, 0x06, 0x3e, 0xea, 0x14, 0xaa, 0x3e, 0x00, 0xb5, 0x21, 0xbe,
  0x20, 0x04, 0x81, 0xbe, 0x36, 0xab, 0xd8, 0xbd, 0xfd, 0x6b, 0x00, 0x3e,
  0x49, 0x57, 0x52, 0x3e, 0xc5, 0x33, 0xd1, 0x3d, 0x10, 0x60, 0x89, 0x3d,
  0x20, 0xff, 0xb4, 0xbe, 0x59, 0x89, 0x15, 0x3e, 0x30, 0x56, 0x95, 0x3e,
  0xc8, 0x67, 0xd8, 0xbe, 0x86, 0x7c, 0xc2, 0xbe, 0xf6, 0x23, 0xc3, 0xbd,
  0x6e, 0x2e, 0x2d, 0x3e, 0x79, 0x14, 0x5f, 0x3e, 0xbc, 0xbf, 0x5b, 0x3e,
  0x57, 0x6d, 0x72, 0x3d, 0xec, 0x94, 0x07, 0xbe, 0x16, 0x32, 0x7d, 0xbe,
  0x50, 0xb9, 0x94, 0xbe, 0x9a, 0xc8, 0x98, 0x3e, 0x6b, 0x18, 0x98, 0x3e,
  0x96, 0x99, 0x8a, 0xbe, 0x03, 0x29, 0xa8, 0xbd, 0x49, 0x72, 0xe6, 0xbe,
  0xa1, 0xa0, 0xe7, 0x3d, 0x95, 0x3d, 0x47, 0x3e, 0x44, 0xd8, 0xab, 0xbe,
  0x14, 0xf6, 0x15, 0xbe, 0x71, 0xc9, 0x48, 0xbe, 0xf5, 0xff, 0x3a, 0x3e,
  0x89, 0x5b, 0xac, 0xbe, 0x1f, 0x32, 0x6f, 0x3e, 0xcf, 0xe2, 0x48, 0x3e,
  0x16, 0x2d, 0x22, 0xbe, 0xeb, 0x66, 0x34, 0x3d, 0x2c, 0x0c, 0xaa, 0xbd,
  0x2b, 0xbf, 0x70, 0xbd, 0x4d, 0x33, 0x05, 0xbc, 0xec, 0xd4, 0x7f, 0x3e,
  0x29, 0x1c, 0x00, 0xbe, 0xee, 0xd4, 0x81, 0x3d, 0x2f, 0xbd, 0x89, 0x3e,
  0x3d, 0x6f, 0xbe, 0x3d, 0xd1, 0x2d, 0x9f, 0x3e, 0x44, 0xea, 0xc2, 0xbd,
  0xb0, 0x46, 0xcc, 0x3d, 0x4a, 0x64, 0xfa, 0xbd, 0x5c, 0x2d, 0x87, 0x3e,
  0x94, 0x62, 0x81, 0x3e, 0x0f, 0x93, 0xab, 0x3d, 0xcd, 0xc7, 0x95, 0x3e,
  0x35, 0x85, 0x61, 0x3e, 0x24, 0x6d, 0x46, 0x3e, 0xd8, 0xf4, 0xbe, 0x3d,
  0xe1, 0x56, 0x91, 0x3e, 0x0a, 0x7b, 0x6f, 0x3d, 0x9f, 0x3c, 0x36, 0xbe,
  0xb5, 0x21, 0xbd, 0x3c, 0x8c, 0xb3, 0x90, 0x3e, 0xad, 0x0f, 0x16, 0x3e,
  0xfb, 0xea, 0x03, 0x3e, 0x5f, 0x8f, 0x92, 0x3e, 0x2d, 0x57, 0x5f, 0x3e,
  0x44, 0xac, 0xa2, 0x3e, 0x07, 0x6c, 0x6c, 0x3e, 0x74, 0xca, 0x08, 0xbd,
  0x6e, 0x5c, 0x29, 0xbc, 0x74, 0x21, 0x3d, 0x3e, 0x75, 0x0f, 0x15, 0xbe,
  0x4e, 0xe8, 0xa8, 0x3c, 0x47, 0x0b, 0xbd, 0x3d, 0xec, 0x6a, 0xfe, 0x3b,
  0x9e, 0x27, 0xc9, 0x3d, 0x2c, 0x3b, 0x23, 0x3e, 0x04, 0x5b, 0x32, 0x3e,
  0x56, 0x73, 0x93, 0x3d, 0xe7, 0x81, 0xd7, 0xbc, 0x3f, 0x1b, 0xbb, 0x3d,
  0x59, 0xd1, 0x0b, 0x3e, 0xb6, 0xc5, 0x27, 0xbe, 0xce, 0x1a, 0x86, 0xbe,
  0x66, 0x2c, 0x77, 0xbd, 0x81, 0x90, 0x43, 0xbe, 0xc0, 0x91, 0x11, 0x3d,
  0x31, 0xf0, 0x29, 0x3e, 0x88, 0xe5, 0x64, 0x3c, 0xc3, 0x91, 0x8b, 0xbc,
  0xdc, 0x5d, 0x62, 0x3d, 0xd8, 0x55, 0xf6, 0x3d, 0x34, 0x33, 0x76, 0xbe,
  0x3f, 0x0d, 0xf9, 0x3d, 0x83, 0xdc, 0x24, 0x3d, 0x94, 0xda, 0x60, 0xbe,
  0x82, 0xee, 0xa8, 0x3b, 0x59, 0x23, 0x6b, 0xbe, 0xa7, 0x75, 0x1b, 0x3e,
  0xf1, 0xf9, 0x94, 0x3e, 0xc3, 0x5c, 0x1e, 0xbe, 0xcd, 0x47, 0x34, 0xbe,
  0xd3, 0x1e, 0x41, 0xbe, 0x1c, 0xba, 0xaa, 0x3c, 0x88, 0x35, 0x24, 0xbd,
  0x58, 0x8d, 0x74, 0x3e, 0x3e, 0x82, 0x72, 0xbe, 0x52, 0xf6, 0x2d, 0xbe,
  0x70, 0x20, 0x31, 0x3c, 0x6c, 0x3f, 0x83, 0x3d, 0x20, 0x96, 0x3d, 0xbd,
  0xd3, 0xc2, 0xfa, 0xbe, 0x15, 0x8c, 0xc4, 0xbd, 0x9a, 0xa0, 0xa8, 0x3d,
  0xd2, 0x1b, 0x4b, 0x3e, 0x40, 0xc0, 0xf8, 0x3d, 0xaa, 0xde, 0x10, 0x3e,
  0x64, 0xc6, 0xde, 0x3d, 0x90, 0x21, 0x50, 0xbc, 0x37, 0xed, 0x0e, 0xbf,
  0x32, 0x49, 0xfb, 0x3d, 0xc4, 0x86, 0x04, 0x3e, 0x8d, 0x3f, 0x1f, 0x3e,
  0x5b, 0x6e, 0x3c, 0xbd, 0x42, 0xff, 0x20, 0x3d, 0xea, 0xae, 0xa0, 0x3e,
  0x1f, 0xc0, 0x64, 0x3e, 0xde, 0x0a, 0xec, 0xbd, 0x62, 0xcb, 0xe7, 0xbd,
  0x74, 0x4d, 0xba, 0x3e, 0x9d, 0xe5, 0x35, 0x3d, 0xcb, 0x02, 0x10, 0x3c,
  0xee, 0x31, 0xbf, 0xbe, 0x1e, 0x94, 0x04, 0xbe, 0xc7, 0x3e, 0x15, 0x3d,
  0xac, 0xe4, 0x6b, 0xbe, 0xad, 0xbd, 0xe5, 0x3d, 0x5e, 0x3a, 0xcb, 0x3d,
  0x88, 0x17, 0x6a, 0x3e, 0xce, 0x57, 0x0e, 0xbe, 0x2a, 0x7c, 0x53, 0x3e,
  0x65, 0x4a, 0x5c, 0x3e, 0x80, 0x42, 0x69, 0x3d, 0x5a, 0x5d, 0x8f, 0xbe,
  0x24, 0x6f, 0x02, 0xbe, 0xfa, 0x95, 0x3f, 0x3e, 0x20, 0x92, 0x90, 0xbe,
  0x7e, 0x11, 0x38, 0xbd, 0x50, 0x6d, 0xdc, 0x3c, 0x0e, 0x57, 0x54, 0xbc,
  0x9e, 0xf8, 0xbb, 0xbe, 0x8a, 0x00, 0x95, 0xbe, 0x66, 0x24, 0x13, 0x3e,
  0x8e, 0xbe, 0x36, 0x3d, 0xf6, 0x50, 0x08, 0x3c, 0x7e, 0x36, 0x1d, 0x3d,
  0xcb, 0xfb, 0x26, 0xbe, 0xc7, 0x6a, 0x07, 0xbe, 0xfa, 0x50, 0x57, 0x3e,
  0xe6, 0x49, 0x40, 0xbe, 0xfb, 0x60, 0x12, 0xbd, 0x15, 0x10, 0x4f, 0xbe,
  0x90, 0x03, 0x4a, 0x3d, 0x90, 0x60, 0x33, 0xbd, 0xa5, 0x9f, 0x07, 0xbe,
  0xf0, 0xfc, 0x76, 0x3c, 0x82, 0x02, 0xae, 0xbd, 0xae, 0x75, 0x15, 0x3e,
  0x9e, 0xb6, 0x3d, 0xbe, 0x7b, 0xa8, 0xce, 0xbd, 0x90, 0xba, 0x1a, 0xbe,
  0x1c, 0x5c, 0xde, 0x3d, 0x0d, 0xa3, 0x02, 0xbe, 0x1b, 0x14, 0x0a, 0xbe,
  0xc6, 0x40, 0xc1, 0xbd, 0xd7, 0xfa, 0xbc, 0xbd, 0xe4, 0xa3, 0x05, 0x3e,
  0x20, 0xdc, 0xd0, 0x3b, 0x7d, 0xb3, 0x1c, 0xbe, 0x1b, 0xac, 0xd0, 0xbd,
  0x98, 0x80, 0x37, 0x3e, 0x3d, 0x59, 0xe4, 0xbd, 0xe8, 0xab, 0x61, 0xbd,
  0x94, 0xb6, 0x51, 0xbe, 0x9f, 0xde, 0x0b, 0xbe, 0x54, 0x92, 0xeb, 0x3d,
  0x48, 0x20, 0x4c, 0x3d, 0xac, 0x59, 0xac, 0x3d, 0x1c, 0x79, 0x5f, 0xbd,
  0xf0, 0xea, 0xb9, 0xbc, 0x38, 0xff, 0x2f, 0x3d, 0x20, 0x65, 0x83, 0x3d,
  0xb0, 0x9d, 0x1f, 0xbe, 0x94, 0xfd, 0x9a, 0x3e, 0xb1, 0x4c, 0xee, 0xbd,
  0x07, 0x89, 0xc8, 0xbe, 0x10, 0xf9, 0xd3, 0xbc, 0x8e, 0x11, 0x1c, 0xbe,
  0x33, 0xc3, 0x60, 0x3e, 0xbe, 0xeb, 0xc9, 0x3d, 0xed, 0xd8, 0xbc, 0xbc,
  0x36, 0xe2, 0x81, 0xbc, 0x39, 0x02, 0x46, 0x3e, 0xa9, 0x0d, 0xa3, 0xbd,
  0x71, 0x5b, 0xc6, 0xbe, 0x72, 0x60, 0x82, 0xbe, 0xd9, 0xe2, 0xd5, 0xbe,
  0xe5, 0xdb, 0xf6, 0x3d, 0x77, 0x76, 0xfe, 0xbc, 0x66, 0x9f, 0xc6, 0x3e,
  0x2f, 0xfb, 0x5d, 0xbe, 0x9a, 0x5c, 0xa8, 0xbe, 0x8d, 0x72, 0xab, 0xbe,
  0x16, 0x0e, 0x11, 0xbe, 0x96, 0x9c, 0xf2, 0x3d, 0xe7, 0xb9, 0x1b, 0x3e,
  0x5c, 0x83, 0x23, 0xbe, 0x00, 0xb0, 0x9c, 0xbd, 0x91, 0xa4, 0x33, 0xbe,
  0x25, 0xfb, 0x05, 0xbe, 0xb5, 0x72, 0x49, 0x3e, 0x19, 0x1c, 0xe7, 0xbe,
  0xbc, 0xd0, 0x8e, 0xbe, 0x9d, 0x51, 0xca, 0xbe, 0xb3, 0xdb, 0xa1, 0xbe,
  0x94, 0xf6, 0xca, 0x3e, 0xf4, 0x1f, 0xe7, 0x3d, 0xa8, 0x41, 0x1b, 0x3e,
  0x9c, 0x93, 0x88, 0xbc, 0xf5, 0x48, 0xa8, 0xbd, 0x5d, 0x3a, 0x4f, 0xbd,
  0x82, 0x8e, 0xe4, 0xbd, 0xa2, 0x14, 0x7e, 0x3d, 0x17, 0x36, 0x81, 0x3e,
  0x2f, 0xdb, 0x73, 0x3e, 0xc7, 0x95, 0xed, 0x3d, 0xf9, 0x25, 0x3e, 0x3e,
  0xa9, 0x75, 0xf1, 0x3d, 0xf7, 0x25, 0xeb, 0xbb, 0x04, 0x5f, 0xe3, 0xbd,
  0x64, 0x84, 0xf1, 0x3d, 0x93, 0x45, 0xd7, 0x3e, 0x79, 0x0f, 0x0d, 0xbe,
  0xaf, 0xf4, 0x15, 0x3e, 0x39, 0xeb, 0xa5, 0xbe, 0xb8, 0xbc, 0xe1, 0xbc,
  0xc1, 0xb8, 0xa0, 0xbd, 0x25, 0x9b, 0xd6, 0xbd, 0x94, 0xdf, 0x9b, 0x3e,
  0x9d, 0xde, 0x1a, 0xbe, 0x8c, 0x1d, 0x10, 0x3e, 0x82, 0x7d, 0xd7, 0xbd,
  0xa3, 0xba, 0x3b, 0x3e, 0xde, 0x90, 0x85, 0x3e, 0xa2, 0x3b, 0x85, 0x3e,
  0x66, 0x66, 0x6c, 0xbe, 0x36, 0xa4, 0x87, 0xbe, 0x6c, 0x82, 0x68, 0xbd,
  0x53, 0xa1, 0x34, 0xbe, 0xb2, 0x18, 0xbd, 0x3d, 0x83, 0x9c, 0xfd, 0xbd,
  0x85, 0xbd, 0x25, 0x3e, 0xac, 0xa5, 0x1c, 0xbd, 0xa8, 0x6a, 0x1c, 0x3e,
  0xa5, 0xba, 0x9a, 0x3d, 0x79, 0x95, 0x3d, 0xbc, 0x36, 0x16, 0x15, 0xbe,
  0x16, 0x89, 0x0d, 0x3e, 0x2e, 0x24, 0x9a, 0xbd, 0x2f, 0xb8, 0x36, 0x3e,
  0x55, 0x37, 0x4d, 0x3d, 0x4b, 0xf3, 0x0f, 0x3e, 0x09, 0x4f, 0xd0, 0xbb,
  0xc8, 0xd0, 0x66, 0xbe, 0x76, 0x35, 0x62, 0x3e, 0x6d, 0x56, 0xfc, 0xbc,
  0xd9, 0x8d, 0x61, 0x3d, 0x09, 0x6d, 0x37, 0x3e, 0xb1, 0xed, 0xf2, 0x3c,
  0x7d, 0x35, 0x3d, 0x3d, 0x20, 0x40, 0x54, 0xbe, 0x2e, 0xe8, 0x25, 0x3e,
  0xea, 0x83, 0x32, 0x3e, 0xf2, 0xc0, 0x16, 0xbc, 0x19, 0xc8, 0x5e, 0x3e,
  0x4c, 0xaa, 0xf3, 0xbd, 0xd0, 0x8e, 0x2d, 0x3e, 0x31, 0x78, 0x4a, 0x3e,
  0x17, 0xb5, 0x34, 0x3e, 0x85, 0xa3, 0xf9, 0xbd, 0xa0, 0x40, 0x60, 0x3d,
  0x44, 0x69, 0x00, 0x3d, 0x32, 0x16, 0x5b, 0xbe, 0x39, 0xc3, 0x17, 0x3e,
  0xd9, 0xff, 0xed, 0xbd, 0x18, 0xfc, 0x9f, 0xbd, 0x8d, 0xba, 0x9d, 0x3d,
  0xfd, 0x3b, 0x7a, 0xbd, 0xd0, 0x19, 0x40, 0x3d, 0x74, 0x3a, 0x02, 0xbe,
  0x39, 0x72, 0xdc, 0x3c, 0xd3, 0x43, 0x92, 0xbd, 0x0f, 0xe7, 0x19, 0x3e,
  0x68, 0x71, 0xb3, 0x3c, 0x3e, 0xb8, 0x1d, 0x3e, 0x42, 0x7b, 0x93, 0xbd,
  0xa7, 0x7f, 0x34, 0xbe, 0xa0, 0xc3, 0x5e, 0xbd, 0x25, 0x12, 0xbe, 0xbd,
  0x82, 0x6d, 0x3c, 0x3e, 0x76, 0xb5, 0x17, 0x3e, 0x78, 0xe0, 0x1f, 0x3e,
  0x43, 0x85, 0x39, 0x3d, 0x73, 0x3a, 0x5d, 0xbe, 0xb7, 0xbe, 0x14, 0xbd,
  0x9e, 0x11, 0x0a, 0x3e, 0x8a, 0x30, 0x68, 0x3d, 0xe2, 0xbb, 0xd4, 0x3d,
  0xe1, 0x7b, 0xa6, 0xbd, 0x92, 0x3b, 0xce, 0xbc, 0xd2, 0x90, 0x12, 0xbe,
  0x03, 0x07, 0x43, 0xbe, 0xf1, 0xc1, 0x3a, 0xbe, 0x9e, 0x78, 0xb2, 0xbd,
  0xb0, 0xa8, 0x10, 0xbe, 0x70, 0x65, 0x23, 0x3d, 0xd4, 0x87, 0xc2, 0x3d,
  0x1f, 0xd9, 0x34, 0xbe, 0x4a, 0xe7, 0x4d, 0x3e, 0x68, 0x66, 0x17, 0x3d,
  0x28, 0x5c, 0x05, 0xbd, 0x48, 0x65, 0x51, 0x3e, 0x90, 0x97, 0x44, 0xbe,
  0x14, 0x74, 0x9d, 0x3d, 0x70, 0x96, 0x5f, 0xbc, 0x40, 0x98, 0x2e, 0xbb,
  0x20, 0x0b, 0x13, 0xbc, 0x40, 0xc6, 0x0c, 0x3e, 0x70, 0xd3, 0x51, 0x3d,
  0x09, 0x57, 0x3d, 0xbe, 0x9b, 0xb2, 0x4f, 0xbe, 0x76, 0x3f, 0x1a, 0x3e,
  0x46, 0x91, 0x2f, 0x3e, 0xe7, 0x69, 0x4d, 0xbe, 0x6c, 0xa8, 0xca, 0xbd,
  0x4c, 0xd2, 0x41, 0xbe, 0xf0, 0x09, 0x40, 0x3e, 0x6f, 0xb5, 0xd2, 0xbd,
  0xcf, 0xa9, 0xc8, 0xbd, 0x26, 0x7f, 0x1c, 0xbe, 0xd4, 0x22, 0x28, 0x3e,
  0x12, 0x5b, 0x59, 0xbe, 0xc0, 0x14, 0x41, 0x3e, 0x02, 0xc6, 0x05, 0xbd,
  0xa0, 0x6f, 0xce, 0x3c, 0x74, 0x6c, 0x72, 0xbc, 0x31, 0xd8, 0xad, 0xbc,
  0x67, 0x1a, 0x50, 0xbe, 0xc7, 0x3d, 0xcc, 0x3c, 0xa1, 0x13, 0x38, 0x3e,
  0xf6, 0x45, 0x2c, 0x3e, 0xda, 0x3c, 0x02, 0xbe, 0x2f, 0x52, 0x15, 0xbe,
  0x4d, 0x7a, 0x2a, 0x3e, 0x70, 0xce, 0x0c, 0xbe, 0x8b, 0x97, 0x66, 0xbd,
  0x85, 0x42, 0x9e, 0x3c, 0x78, 0x79, 0x35, 0x3e, 0x4d, 0xb4, 0x8f, 0x3d,
  0x77, 0xe6, 0xbf, 0xbe, 0x30, 0xad, 0xbf, 0xbd, 0xc4, 0xde, 0xd7, 0x3d,
  0xe9, 0x5e, 0x10, 0xbe, 0x22, 0xa3, 0xe5, 0xbc, 0x78, 0x94, 0x50, 0x3e,
  0x75, 0xe6, 0xb1, 0x3d, 0xe5, 0xb8, 0x96, 0xbe, 0x4b, 0xd3, 0xee, 0xbd,
  0x05, 0x27, 0x48, 0xbe, 0x6b, 0x73, 0x28, 0x3e, 0x40, 0xb3, 0x49, 0x3d,
  0x80, 0xf5, 0xeb, 0x3a, 0x48, 0x70, 0xa4, 0x3d, 0x2f, 0xbb, 0x90, 0xbc,
  0x20, 0xf3, 0x28, 0x38, 0xe7, 0x99, 0xa4, 0xbe, 0xf8, 0x05, 0x4d, 0x3d,
  0xf8, 0xd3, 0x3e, 0x3d, 0x14, 0x67, 0x14, 0x3e, 0xf6, 0xa8, 0x40, 0x3e,
  0xbd, 0xc4, 0x02, 0x3e, 0x80, 0x72, 0x46, 0xbd, 0xef, 0x43, 0xa1, 0x3e,
  0xe8, 0x01, 0x0b, 0xbe, 0x73, 0x4e, 0x26, 0xbe, 0x1f, 0x7d, 0xaf, 0x3e,
  0x82, 0x43, 0xfb, 0xbd, 0x11, 0x07, 0x12, 0xbe, 0x35, 0x15, 0xb6, 0x3e,
  0x97, 0x74, 0xfa, 0x3a, 0xff, 0x9f, 0x8e, 0x3e, 0xdf, 0x46, 0x81, 0xbe,
  0x35, 0x7a, 0xba, 0x3e, 0x74, 0xa9, 0x65, 0x3e, 0xa0, 0xca, 0xd8, 0x3e,
  0x08, 0x31, 0xf0, 0x3e, 0x0d, 0xdc, 0x64, 0x3e, 0xcc, 0xe8, 0x04, 0xbd,
  0xba, 0xd2, 0xe1, 0xbd, 0xe9, 0x4e, 0xc2, 0x3e, 0x34, 0x99, 0x22, 0xbd,
  0x01, 0xe7, 0x51, 0xbe, 0x62, 0x42, 0xcb, 0x3c, 0x54, 0xf8, 0x0f, 0xbe,
  0x9e, 0x34, 0x1f, 0xbd, 0x9d, 0x9d, 0x5a, 0x3e, 0xfc, 0xac, 0x6d, 0x3e,
  0x0d, 0x65, 0x53, 0x3d, 0x0e, 0xbb, 0x04, 0x3e, 0x17, 0xd4, 0x0b, 0x3d,
  0x21, 0x1f, 0x38, 0x3d, 0xec, 0x8b, 0x4c, 0xbd, 0x8e, 0x60, 0xf0, 0x3d,
  0xff, 0x76, 0x0e, 0xbe, 0x31, 0x81, 0x46, 0xbd, 0x47, 0x39, 0x63, 0x3e,
  0x68, 0xe6, 0x5c, 0x3e, 0xfe, 0xea, 0xc6, 0x3c, 0xe2, 0x9d, 0x29, 0x3c,
  0x86, 0x45, 0x75, 0x3d, 0x32, 0x06, 0xdb, 0x3b, 0x39, 0x8d, 0x1e, 0x3c,
  0x57, 0x83, 0x0d, 0xbe, 0xe6, 0x06, 0xb3, 0x3e, 0x3c, 0x89, 0x15, 0x3b,
  0xcf, 0x41, 0x1b, 0xbe, 0xae, 0xa6, 0xd5, 0xbd, 0xed, 0x1d, 0x6c, 0x3d,
  0x14, 0x45, 0xde, 0x3d, 0x8a, 0x30, 0xc9, 0x3a, 0x07, 0x5f, 0x27, 0x3e,
  0x94, 0xd9, 0x21, 0xbe, 0x11, 0xa5, 0x3f, 0x3e, 0x07, 0xa1, 0x8f, 0x3d,
  0x3d, 0x65, 0x29, 0x3e, 0x0e, 0x05, 0x7c, 0x3d, 0xf8, 0xff, 0x92, 0x3e,
  0x4d, 0x5c, 0x2a, 0xbe, 0xbc, 0xb9, 0x81, 0xbe, 0xc0, 0x66, 0x02, 0x3e,
  0x6b, 0xcd, 0xb7, 0x3e, 0x6e, 0x10, 0x3f, 0x3d, 0x51, 0x2c, 0x25, 0xbe,
  0x96, 0x90, 0x5b, 0xbe, 0xa6, 0xd1, 0x3c, 0x3e, 0xa1, 0x26, 0x97, 0xbe,
  0x40, 0x26, 0xbf, 0x3d, 0x2d, 0x65, 0xc3, 0x3d, 0xa2, 0xda, 0x1f, 0x3e,
  0x77, 0x59, 0x6d, 0xbc, 0xc1, 0xab, 0xfc, 0x3d, 0xea, 0xab, 0x36, 0x3e,
  0x90, 0x9d, 0xd7, 0x3c, 0x71, 0x26, 0x93, 0xbe, 0x2f, 0x61, 0x50, 0x3d,
  0xbf, 0x37, 0x5b, 0x3d, 0xa9, 0x32, 0x3d, 0xbc, 0x49, 0xc2, 0x20, 0xbd,
  0x10, 0xd1, 0x2c, 0x3c, 0xca, 0xcc, 0x4b, 0x3e, 0xdb, 0x9a, 0xc7, 0xbd,
  0x35, 0x02, 0xab, 0xbe, 0xb2, 0x91, 0xed, 0x3d, 0xe8, 0x87, 0x52, 0x3d,
  0x39, 0x30, 0x1a, 0x3e, 0xfc, 0xb6, 0x22, 0xbe, 0x34, 0xeb, 0xa6, 0xbd,
  0xa1, 0x61, 0x32, 0x3e, 0x7b, 0xea, 0x97, 0x3e, 0x03, 0x5e, 0xea, 0xbd,
  0x40, 0x5c, 0x1e, 0x3d, 0x9c, 0xeb, 0x03, 0xbe, 0x80, 0x41, 0x9c, 0x3a,
  0xec, 0xcd, 0x27, 0xbd, 0x08, 0x04, 0x54, 0xbc, 0xbd, 0x75, 0x2e, 0xbe,
  0x5d, 0xfd, 0xca, 0xbc, 0x10, 0x16, 0x2d, 0x3e, 0xe1, 0xf0, 0x1f, 0xbd,
  0x14, 0xb2, 0x10, 0x3e, 0xfa, 0x39, 0xcb, 0xbd, 0x90, 0xd7, 0x4c, 0xbe,
  0xf5, 0x61, 0x13, 0xbe, 0x2c, 0x77, 0x02, 0x3e, 0x1f, 0x6a, 0x4e, 0xbe,
  0x02, 0xa4, 0x02, 0xbe, 0x6c, 0x93, 0x2f, 0x3e, 0x30, 0x62, 0x14, 0x3e,
  0xf4, 0x23, 0x3b, 0xbb, 0x16, 0xcb, 0x2a, 0x3e, 0xb7, 0xfa, 0x89, 0xbd,
  0x74, 0xd3, 0x1e, 0x3e, 0x56, 0x9d, 0x12, 0x3e, 0x74, 0x4c, 0x15, 0xbc,
  0x00, 0x3e, 0xfd, 0xba, 0x41, 0x35, 0x71, 0xbd, 0xd7, 0x84, 0x45, 0xbe,
  0xb8, 0x0b, 0x34, 0xbe, 0x09, 0x2e, 0x42, 0x3e, 0x91, 0x90, 0xc2, 0xbd,
  0xb8, 0x13, 0x8e, 0xbc, 0x0b, 0x59, 0x9c, 0xbd, 0x36, 0x58, 0x3a, 0xbe,
  0x57, 0x0c, 0x88, 0xbe, 0xa9, 0xf7, 0x17, 0x3e, 0x1e, 0x81, 0xa5, 0x3e,
  0x2f, 0xd7, 0x2b, 0xbe, 0x32, 0x67, 0x10, 0x3e, 0x8f, 0xb5, 0xa7, 0xbc,
  0xdd, 0x33, 0x45, 0x3e, 0xfd, 0x91, 0xa0, 0x3e, 0x48, 0x90, 0x09, 0x3e,
  0xf2, 0x28, 0x6f, 0xbe, 0x85, 0xb9, 0x71, 0x3e, 0x7c, 0x60, 0x4b, 0x3e,
  0xab, 0x1b, 0xb1, 0x3e, 0xee, 0x24, 0x46, 0x3e, 0xcf, 0xe1, 0x71, 0xbd,
  0xe8, 0x13, 0x2d, 0x3e, 0x4d, 0x2d, 0x4e, 0x3e, 0x4f, 0x01, 0x68, 0x3e,
  0xc5, 0x50, 0x5c, 0x3e, 0x02, 0xf3, 0x7f, 0x3e, 0xe7, 0x93, 0x8f, 0x3c,
  0x0d, 0x60, 0x2b, 0xbd, 0xda, 0x0f, 0x07, 0xbe, 0x4e, 0x96, 0x28, 0xba,
  0xa2, 0x25, 0x66, 0x3e, 0x5c, 0xe0, 0x98, 0x3e, 0x2c, 0x52, 0x0b, 0xbe,
  0xe4, 0x96, 0x14, 0x3c, 0x02, 0x11, 0x33, 0x3a, 0x5e, 0x8d, 0x76, 0x3e,
  0x68, 0xe1, 0x8d, 0x3e, 0xcb, 0x7f, 0xc6, 0xbb, 0x34, 0x4f, 0x66, 0x3e,
  0x1b, 0x9f, 0x96, 0x3d, 0xed, 0xe0, 0xf0, 0x3d, 0x14, 0xd7, 0x96, 0xbe,
  0x82, 0xc3, 0x82, 0xbd, 0xe7, 0xe2, 0x45, 0x3e, 0x38, 0xc2, 0x7c, 0xbe,
  0x24, 0xff, 0x11, 0x3e, 0xbd, 0x59, 0xd7, 0x3c, 0x7f, 0x13, 0xaf, 0x3d,
  0x65, 0xf5, 0x80, 0xbd, 0x23, 0x63, 0xac, 0x3c, 0x6f, 0xfb, 0xb4, 0xbd,
  0x30, 0xe0, 0x4c, 0xbe, 0x14, 0xa6, 0x98, 0xbe, 0x1b, 0xde, 0x05, 0xbe,
  0x12, 0x3e, 0x43, 0xbd, 0xea, 0xa0, 0x0a, 0x3e, 0xb8, 0xb8, 0x3a, 0xbe,
  0x9c, 0x56, 0xb1, 0x3d, 0xda, 0xb8, 0x18, 0xbe, 0xa0, 0x10, 0x5c, 0xbe,
  0xc8, 0x54, 0x22, 0xbf, 0x34, 0x44, 0x00, 0x3e, 0xf0, 0x78, 0xec, 0x3d,
  0x67, 0xad, 0x9f, 0xbd, 0xe7, 0xcb, 0x5f, 0xbe, 0x37, 0xbd, 0x0e, 0xbd,
  0x0a, 0xae, 0xcc, 0x3c, 0x30, 0x98, 0xa2, 0xbc, 0x80, 0xd1, 0x1f, 0xbe,
  0x00, 0x09, 0x69, 0xbb, 0x87, 0x5a, 0x67, 0xbe, 0x00, 0xca, 0x81, 0x3e,
  0xa5, 0x3c, 0x4b, 0x3e, 0x00, 0xdc, 0xf4, 0x3b, 0x18, 0x21, 0x0e, 0x3d,
  0x2b, 0xc3, 0x4e, 0xbf, 0x90, 0xb7, 0x09, 0xbe, 0x60, 0x0f, 0x8c, 0x3d,
  0xb5, 0x72, 0x81, 0x3d, 0x09, 0xe7, 0x0d, 0xbf, 0x00, 0x7e, 0xe2, 0x3a,
  0x4c, 0xc7, 0xa5, 0x3e, 0x52, 0x2d, 0xb5, 0x3d, 0xc8, 0xb4, 0x05, 0x3d,
  0x6c, 0x15, 0xff, 0x3d, 0x5b, 0x7c, 0xb6, 0xbd, 0x47, 0xa6, 0x80, 0xbe,
  0xe2, 0x18, 0xc6, 0xbd, 0x0a, 0xee, 0x2f, 0xbe, 0x56, 0xce, 0x0d, 0x3e,
  0xe0, 0x24, 0x82, 0xbb, 0xcc, 0x68, 0xdc, 0xbd, 0x40, 0x65, 0x08, 0xbe,
  0xad, 0xc8, 0xc1, 0x3b, 0x90, 0xa8, 0x88, 0x3d, 0x51, 0x62, 0xf5, 0x3d,
  0x1b, 0x54, 0x5c, 0x3d, 0xf2, 0x33, 0x92, 0xbd, 0xa4, 0xed, 0xc7, 0x3e,
  0x21, 0x57, 0x0f, 0x3d, 0xba, 0x8c, 0x2b, 0x3e, 0x18, 0x67, 0xcf, 0xbc,
  0x1a, 0xbc, 0x8a, 0x3e, 0xdc, 0x64, 0xa5, 0xbd, 0xf7, 0x6a, 0x88, 0x3e,
  0x0e, 0x83, 0xbc, 0xbe, 0x80, 0xad, 0xbb, 0xbe, 0x19, 0xfe, 0xaf, 0x3e,
  0x6e, 0xbb, 0x51, 0xbe, 0xc7, 0x48, 0x13, 0xbe, 0xcc, 0xa9, 0x3b, 0x3e,
  0xb7, 0x54, 0xbb, 0x3e, 0x85, 0xe1, 0xd9, 0xbe, 0xf9, 0x51, 0x5d, 0xbd,
  0x06, 0x38, 0xfe, 0xbd, 0xd7, 0x8d, 0x1b, 0x3e, 0xc3, 0x3f, 0xae, 0xbe,
  0xe3, 0x30, 0x14, 0xbd, 0x11, 0x1a, 0x79, 0x3e, 0x2f, 0x1c, 0x03, 0xbe,
  0xab, 0x02, 0x08, 0xbe, 0x48, 0xb8, 0xac, 0x3d, 0x70, 0x6f, 0x01, 0xbc,
  0x8d, 0xc2, 0xb3, 0xbe, 0x3a, 0xa7, 0x15, 0xbe, 0x45, 0x73, 0xe7, 0x3b,
  0x06, 0xbe, 0x3a, 0x3d, 0x2d, 0x7e, 0x61, 0x3e, 0x5b, 0x1a, 0xca, 0xbd,
  0xa8, 0x8a, 0x35, 0xbe, 0x26, 0x5d, 0x38, 0xbe, 0xaa, 0xbb, 0x9a, 0x3e,
  0xce, 0x80, 0xf2, 0xbd, 0xe5, 0xf2, 0x78, 0x3d, 0x64, 0xcd, 0x80, 0x3d,
  0x3c, 0x8b, 0xc4, 0xbd, 0xba, 0x12, 0x02, 0x3e, 0xa0, 0x67, 0x12, 0x3c,
  0x9c, 0x1f, 0x94, 0xbd, 0x6d, 0x51, 0x2a, 0xbe, 0x4c, 0x3e, 0x58, 0x3e,
  0xe2, 0x42, 0x9f, 0xbd, 0x98, 0x81, 0x25, 0xbe, 0xce, 0xb2, 0xdc, 0xbd,
  0xd4, 0x4a, 0x37, 0xbe, 0x89, 0xac, 0x21, 0xbe, 0x68, 0xaa, 0xb1, 0x3d,
  0x5d, 0xd4, 0x54, 0xbe, 0x60, 0x23, 0x41, 0x3e, 0xe4, 0x24, 0x5a, 0xbd,
  0xf0, 0xe8, 0xdf, 0x3c, 0x62, 0x07, 0xb1, 0xbd, 0xef, 0x19, 0x22, 0xbe,
  0x61, 0x39, 0x52, 0xbe, 0xc1, 0xa1, 0x1d, 0xbe, 0x7e, 0xa3, 0x02, 0xbe,
  0xf4, 0x51, 0x2d, 0xbd, 0x8a, 0xa8, 0x1e, 0x3e, 0x78, 0x31, 0x65, 0x3d,
  0xf4, 0x1b, 0x2b, 0xbe, 0xc4, 0xd0, 0xa3, 0xbd, 0xa2, 0xdb, 0xdc, 0xbd,
  0x66, 0x9e, 0x55, 0x3e, 0x28, 0x26, 0x81, 0x3d, 0x06, 0x2d, 0x4f, 0x3e,
  0x70, 0x6b, 0x7c, 0x3d, 0x7c, 0xda, 0x8e, 0x3e, 0x08, 0x29, 0x37, 0x3e,
  0x53, 0xa2, 0x42, 0xbd, 0xc0, 0xce, 0xf2, 0x3d, 0xce, 0xea, 0x88, 0xbc,
  0x2c, 0x31, 0x19, 0x3e, 0x60, 0x3e, 0x3d, 0x3d, 0xc7, 0x5a, 0x7f, 0xbd,
  0xde, 0xd3, 0x58, 0x3e, 0xda, 0xdc, 0x1a, 0x3e, 0x32, 0xb7, 0xab, 0xbd,
  0x99, 0x7a, 0xdb, 0x3d, 0x2f, 0xf6, 0xa5, 0x3d, 0xb0, 0x46, 0x32, 0xbe,
  0x31, 0x12, 0x8b, 0x3d, 0xe6, 0x60, 0x5d, 0xbe, 0xc5, 0x24, 0x5a, 0x3e,
  0xe7, 0x90, 0xa6, 0xbc, 0x9a, 0xc7, 0x00, 0x3e, 0x20, 0xe4, 0x3a, 0x3c,
  0x53, 0x82, 0xc4, 0xbd, 0x88, 0x1d, 0x36, 0xbd, 0x10, 0x95, 0x2c, 0x3e,
  0xba, 0x5f, 0x43, 0x3e, 0xfd, 0xae, 0x0d, 0x3e, 0x3a, 0x65, 0x15, 0x3d,
  0x29, 0xa8, 0x10, 0xbe, 0x22, 0x12, 0x29, 0xbe, 0xe5, 0xa4, 0x86, 0x3d,
  0xce, 0x0e, 0x9c, 0x3e, 0xc4, 0x5b, 0x8c, 0xbe, 0x4d, 0xef, 0x2b, 0xbe,
  0xf0, 0x68, 0xaa, 0xbc, 0x1a, 0xae, 0xfa, 0x3d, 0x09, 0x10, 0xac, 0xbc,
  0xfd, 0xbf, 0x09, 0xbd, 0x89, 0x7e, 0xe3, 0x3d, 0x90, 0x10, 0x58, 0x3d,
  0xde, 0x44, 0x62, 0x3d, 0xe3, 0x43, 0x64, 0xbe, 0xe8, 0x99, 0x72, 0xbe,
  0x50, 0xa1, 0x90, 0x3c, 0x46, 0x1c, 0xe9, 0x3d, 0x18, 0x68, 0x09, 0xbe,
  0x92, 0x69, 0x87, 0x3d, 0xb2, 0x8d, 0x83, 0xbe, 0x47, 0x8b, 0xd6, 0x3d,
  0x9d, 0x4d, 0x01, 0xbd, 0xa5, 0x90, 0x0b, 0xbe, 0x81, 0xde, 0x3b, 0xbe,
  0x61, 0x9c, 0xb5, 0x3d, 0xdd, 0x60, 0x84, 0xbd, 0xe8, 0x3e, 0x71, 0x3d,
  0x37, 0x7d, 0x10, 0x3d, 0xdd, 0x90, 0x64, 0xbd, 0x58, 0x59, 0x28, 0xbe,
  0x2f, 0xbc, 0x2a, 0x3e, 0xfc, 0x21, 0xd8, 0x3d, 0x76, 0x1a, 0xa7, 0xbd,
  0x6c, 0x58, 0x5b, 0xbe, 0x8e, 0x0f, 0x81, 0xbd, 0x8b, 0x69, 0x78, 0xbe,
  0x82, 0xce, 0x32, 0xbe, 0x90, 0x14, 0xdd, 0xbd, 0x04, 0x4e, 0x92, 0xbe,
  0x70, 0xf2, 0xee, 0x3d, 0x50, 0x93, 0x26, 0x3c, 0xc5, 0x4e, 0x10, 0x3e,
  0x21, 0x24, 0x30, 0x3e, 0xf8, 0x32, 0x8f, 0xbc, 0x77, 0x5c, 0x37, 0x3e,
  0xa0, 0xe9, 0x43, 0x3e, 0xee, 0xd8, 0x08, 0x3e, 0xa6, 0x38, 0x51, 0xbe,
  0x5c, 0xc2, 0xd3, 0xbd, 0x30, 0x5b, 0x26, 0xbe, 0x18, 0x38, 0xb0, 0x3d,
  0x0b, 0xe1, 0x97, 0x3e, 0x94, 0xd3, 0x69, 0x3c, 0xfd, 0x59, 0xd0, 0x3d,
  0xce, 0x50, 0x0d, 0xbf, 0x8d, 0xad, 0x86, 0x3e, 0x06, 0x5a, 0x7e, 0x3e,
  0x19, 0xb0, 0x0e, 0x3e, 0x34, 0xf3, 0x20, 0x3e, 0xfd, 0xa0, 0x60, 0x3e,
  0x2d, 0xb2, 0x6f, 0x3e, 0xaf, 0x6f, 0x48, 0xbe, 0xdd, 0xef, 0xdb, 0x3d,
  0x32, 0x01, 0x15, 0xbe, 0x45, 0xf8, 0x4c, 0x3e, 0xcd, 0x2f, 0x64, 0x3e,
  0x60, 0x44, 0x80, 0xbd, 0x0c, 0x0c, 0x56, 0xbe, 0xea, 0x02, 0x95, 0x3c,
  0xeb, 0x7e, 0x04, 0x3e, 0xfa, 0xc3, 0x39, 0xbe, 0xc8, 0x40, 0x03, 0xbe,
  0x5f, 0x84, 0x41, 0xbe, 0x18, 0x96, 0x34, 0x3e, 0x33, 0x58, 0x04, 0x3d,
  0xc8, 0xce, 0x26, 0xbe, 0xda, 0xc8, 0xdb, 0xbd, 0xd9, 0x9f, 0xe2, 0xbd,
  0x4f, 0x7e, 0xd8, 0x3c, 0xa0, 0xd1, 0x11, 0x3e, 0x2e, 0x46, 0xf8, 0x3c,
  0xe8, 0x57, 0x4b, 0xbd, 0x86, 0xf7, 0x4e, 0xbd, 0x70, 0x3e, 0x13, 0x3e,
  0xde, 0xa8, 0xf7, 0xbd, 0x59, 0xea, 0x26, 0x3e, 0x6e, 0xc9, 0xa5, 0xbd,
  0xe6, 0x98, 0x98, 0x3d, 0xd6, 0x1b, 0x16, 0xbd, 0x80, 0x1d, 0x05, 0x3d,
  0x5d, 0xf1, 0xb9, 0x3d, 0x5c, 0xbc, 0x30, 0xbe, 0xa6, 0xd0, 0x2b, 0xbe,
  0x90, 0x6e, 0x4b, 0x3e, 0x5e, 0x0f, 0x75, 0x3d, 0x96, 0xfa, 0x0d, 0x3e,
  0xfe, 0x53, 0x3f, 0xbe, 0x24, 0xc5, 0xfa, 0xbd, 0xe1, 0x59, 0x50, 0x3e,
  0x4e, 0x19, 0x7b, 0xbd, 0xb9, 0xd5, 0x08, 0xbe, 0xc4, 0x66, 0xd7, 0x3d,
  0x21, 0xf3, 0x61, 0x3e, 0x95, 0x30, 0x84, 0x3e, 0x1f, 0x2a, 0xfb, 0x3d,
  0x65, 0x87, 0xc0, 0xbd, 0x49, 0x80, 0x77, 0x3e, 0xce, 0xdd, 0xc8, 0x3c,
  0xd2, 0xa0, 0x2f, 0x3e, 0xc0, 0x8f, 0x4e, 0xbe, 0x81, 0x01, 0x81, 0x3d,
  0xce, 0x47, 0x02, 0xbe, 0xba, 0x3a, 0xef, 0xbd, 0x5e, 0x73, 0x4a, 0xbd,
  0xb2, 0x2e, 0xae, 0x3d, 0x21, 0xda, 0x8a, 0xbe, 0x1c, 0x08, 0x0e, 0x3e,
  0x5f, 0x60, 0x8a, 0x3d, 0xd2, 0x5f, 0x8d, 0xbc, 0xc2, 0xbe, 0x06, 0x3d,
  0x91, 0x93, 0x87, 0x3c, 0xd2, 0x0a, 0x2c, 0xbe, 0x37, 0x0a, 0x5d, 0xbe,
  0x45, 0x94, 0x13, 0xbd, 0x1f, 0xb2, 0x03, 0xbd, 0xc8, 0x0e, 0x0f, 0x3b,
  0x7d, 0xef, 0xdc, 0x3d, 0xf5, 0xbb, 0xac, 0x3e, 0x62, 0x06, 0x09, 0xbe,
  0x2f, 0x15, 0xc0, 0xbd, 0x0b, 0x4c, 0x7e, 0x3e, 0xaa, 0xcd, 0x2a, 0x3e,
  0xb9, 0x03, 0xf1, 0xbd, 0x6a, 0xed, 0xc0, 0x3d, 0xc3, 0x50, 0x0c, 0xbd,
  0x9c, 0x51, 0x8a, 0x3d, 0x5e, 0x02, 0xaf, 0x3e, 0x56, 0xf3, 0x15, 0x3e,
  0x10, 0xd8, 0x28, 0xbc, 0x89, 0x20, 0x1f, 0xbe, 0x5f, 0xf8, 0x45, 0x3d,
  0x50, 0x79, 0x92, 0x3e, 0xf2, 0xd5, 0xaf, 0x3e, 0xe2, 0x2f, 0xe3, 0xbe,
  0xc6, 0xa1, 0x2c, 0x3e, 0x63, 0x00, 0x67, 0x3d, 0x83, 0xa7, 0x90, 0x3d,
  0x9a, 0x56, 0x87, 0x3e, 0xa9, 0xa5, 0x2c, 0x3c, 0x79, 0x91, 0xdc, 0x3d,
  0x15, 0xe3, 0x94, 0xbd, 0xf3, 0x36, 0x27, 0xbd, 0xed, 0xf5, 0x31, 0x3e,
  0xfd, 0xa9, 0xca, 0x3e, 0x59, 0x46, 0x50, 0x3e, 0xca, 0xe4, 0xc9, 0x3d,
  0xb1, 0x81, 0xe5, 0x3d, 0x9f, 0x3c, 0xa0, 0x3e, 0xcd, 0x27, 0x1a, 0x3e,
  0x5a, 0x1d, 0x8b, 0x3e, 0x9d, 0xc2, 0x17, 0xbe, 0xef, 0x41, 0xbb, 0x3d,
  0xbe, 0x4d, 0x8c, 0x3e, 0x64, 0x7f, 0xbc, 0x3d, 0x60, 0x8d, 0xfd, 0x3c,
  0x20, 0xa7, 0xa7, 0x3e, 0x94, 0x75, 0x6f, 0x3d, 0x57, 0xfe, 0x1b, 0xbd,
  0xa6, 0xab, 0x60, 0xbe, 0x19, 0x1f, 0x27, 0x3e, 0xce, 0x04, 0x1e, 0x3e,
  0x16, 0x10, 0xb8, 0xbc, 0x07, 0x70, 0x2f, 0xbe, 0xfe, 0xca, 0x98, 0xbe,
  0x3e, 0xa1, 0xc1, 0xbc, 0xe1, 0x94, 0x2b, 0xbc, 0x02, 0xa4, 0x1c, 0x3e,
  0x73, 0x50, 0xea, 0xbd, 0x67, 0x4d, 0xf4, 0xbd, 0x33, 0x54, 0x4a, 0x3d,
  0xc7, 0xf4, 0x81, 0x3d, 0x74, 0xde, 0x00, 0xbe, 0x54, 0x97, 0x79, 0x3e,
  0xd6, 0x11, 0x40, 0xbe, 0x72, 0xf8, 0x31, 0xbe, 0x81, 0xe4, 0xb7, 0xbe,
  0xcb, 0x89, 0x7c, 0xbd, 0x6b, 0xab, 0x05, 0x3e, 0xbf, 0x90, 0x01, 0x3d,
  0x0b, 0x6b, 0xa1, 0x3d, 0x7f, 0x17, 0x86, 0xbe, 0x3e, 0x61, 0x11, 0x3d,
  0x95, 0x2e, 0xce, 0xbc, 0x02, 0xd8, 0x2c, 0x3e, 0x08, 0x09, 0x6c, 0x3d,
  0x6c, 0xcc, 0x9e, 0xbc, 0xb6, 0xe1, 0xf3, 0xbc, 0xe9, 0x86, 0x0c, 0xbd,
  0x98, 0x9b, 0x88, 0x3d, 0x83, 0x4e, 0x08, 0xbf, 0x0e, 0x08, 0x7f, 0xbe,
  0xd0, 0xbe, 0x28, 0xbd, 0xc7, 0x11, 0x2c, 0xbd, 0x99, 0xd5, 0xd9, 0x3c,
  0x4b, 0x5d, 0x35, 0x3e, 0xa4, 0x87, 0xb9, 0xbd, 0x35, 0x54, 0xbb, 0xbe,
  0x5c, 0xa3, 0x6b, 0x3e, 0xb3, 0xa7, 0xe5, 0x3d, 0x10, 0xad, 0x01, 0xbf,
  0x7a, 0xd8, 0xbd, 0xbe, 0x2d, 0x61, 0x2d, 0x3e, 0x82, 0xe0, 0x13, 0x3e,
  0x8d, 0xf0, 0x06, 0xbc, 0xdf, 0x2a, 0xa0, 0x3d, 0x9c, 0xf7, 0x29, 0x3e,
  0x91, 0x43, 0x4a, 0x3e, 0xd2, 0x8a, 0x08, 0x3e, 0x54, 0xfa, 0x76, 0x3c,
  0xdd, 0x99, 0x3e, 0x3c, 0xdb, 0x06, 0x7f, 0x3d, 0xb8, 0xc3, 0x08, 0xbc,
  0x06, 0x83, 0xe1, 0xbd, 0x4b, 0x74, 0x85, 0xbe, 0x2f, 0x27, 0x29, 0xbe,
  0xf1, 0x70, 0xcd, 0xbc, 0xe7, 0x26, 0xb3, 0xbe, 0x60, 0x44, 0xf1, 0xbe,
  0x64, 0x40, 0x1f, 0x3e, 0x55, 0xed, 0x51, 0xbe, 0xca, 0xa7, 0x25, 0xbe,
  0x62, 0x6c, 0x49, 0xbe, 0x60, 0x33, 0x93, 0xbe, 0x61, 0xed, 0xe9, 0x3c,
  0xf6, 0x0f, 0x41, 0x3e, 0xca, 0x0b, 0x7d, 0x3e, 0x24, 0xb1, 0x1c, 0x3e,
  0x0d, 0x18, 0x5a, 0xbd, 0x77, 0xec, 0x32, 0xbe, 0xed, 0xde, 0x81, 0x3e,
  0x39, 0x9d, 0x31, 0x3e, 0xdf, 0x3b, 0xd7, 0xbe, 0xaa, 0xae, 0x43, 0xbe,
  0xc3, 0x2d, 0x68, 0x3e, 0x5c, 0x42, 0x96, 0x3e, 0xb0, 0x2a, 0x0b, 0x3e,
  0xd3, 0x1f, 0x13, 0xbe, 0xb8, 0x0a, 0x34, 0xbd, 0xa3, 0x87, 0xa9, 0x3d,
  0xc2, 0x7f, 0xf9, 0xbd, 0x2d, 0xa5, 0x3e, 0x3d, 0x8b, 0x82, 0xd6, 0x3c,
  0xf5, 0xdf, 0x68, 0xbc, 0x90, 0xb1, 0xb9, 0xbe, 0x02, 0x25, 0xac, 0xbd,
  0xee, 0x5c, 0xd8, 0x3d, 0x60, 0xc2, 0x1b, 0x3e, 0x7a, 0xf0, 0x7a, 0xbc,
  0xd0, 0x1a, 0x97, 0xbd, 0xda, 0xb4, 0x49, 0xbe, 0x49, 0x02, 0xc0, 0xbd,
  0x92, 0xd1, 0x41, 0x3e, 0xeb, 0x7c, 0x57, 0xbe, 0xa4, 0xb2, 0x9a, 0x3e,
  0xd3, 0x2d, 0x8b, 0x3e, 0x25, 0x72, 0x29, 0x3e, 0x3c, 0x21, 0x49, 0xbe,
  0x7d, 0x1e, 0x3e, 0xbe, 0xc5, 0xb7, 0xa5, 0xbd, 0x0b, 0xae, 0xbf, 0x3e,
  0xd9, 0x00, 0xb5, 0x3e, 0xe4, 0x1f, 0x3d, 0xbe, 0x6a, 0x41, 0xcd, 0x3d,
  0xab, 0x02, 0x51, 0x3e, 0x89, 0x35, 0x9c, 0x3e, 0x31, 0xa6, 0xa9, 0x3e,
  0x89, 0xf0, 0xd7, 0x3d, 0x78, 0xee, 0x05, 0x3d, 0x2f, 0xd8, 0xab, 0xbb,
  0xa6, 0x7f, 0x47, 0x3d, 0xd9, 0x15, 0x1d, 0x3e, 0xb1, 0x4c, 0x40, 0x3e,
  0xa9, 0xf2, 0xbd, 0x3e, 0x9e, 0xee, 0x4e, 0x3e, 0x34, 0x3e, 0x84, 0xbd,
  0xa0, 0x8c, 0x9a, 0x3e, 0xf7, 0xd8, 0xb1, 0x3d, 0xa4, 0x9e, 0x79, 0x3e,
  0xe9, 0xcd, 0xd6, 0xbb, 0x2f, 0x2f, 0xf4, 0x3d, 0x67, 0x74, 0x4d, 0x3e,
  0x79, 0xe1, 0xa0, 0x3e, 0x55, 0xe6, 0x3d, 0x3e, 0x97, 0xb2, 0x2d, 0x3c,
  0x70, 0xd9, 0xa8, 0xbd, 0x46, 0x62, 0xde, 0xbd, 0x69, 0x20, 0x28, 0x3e,
  0xf6, 0xbb, 0xb1, 0xbd, 0x3c, 0x60, 0x36, 0xbd, 0x0c, 0x71, 0x07, 0x3e,
  0x84, 0x94, 0x49, 0xbe, 0x8e, 0x30, 0x53, 0x3e, 0xcf, 0xdb, 0x89, 0xbd,
  0xcc, 0xab, 0x51, 0xbe, 0x8c, 0xeb, 0x2d, 0xbe, 0x01, 0xe1, 0x2a, 0xbe,
  0x1f, 0xf9, 0x3c, 0x3e, 0xaa, 0x29, 0x99, 0xbd, 0x72, 0x1d, 0x3a, 0xbe,
  0xe2, 0xe0, 0x59, 0x3e, 0x29, 0x6c, 0xc6, 0xbd, 0x40, 0x49, 0x17, 0x3b,
  0xcd, 0xd1, 0x2b, 0xbe, 0x24, 0x7d, 0xa9, 0x3d, 0xa0, 0xcd, 0x45, 0x3e,
  0x4e, 0x8b, 0x15, 0xbe, 0x68, 0x2a, 0xa9, 0x3c, 0x72, 0x15, 0x51, 0xbe,
  0xd0, 0xbd, 0x2f, 0x3e, 0x13, 0x63, 0xc1, 0xbd, 0xe0, 0xce, 0xbe, 0x3b,
  0xed, 0x6d, 0x28, 0xbe, 0x11, 0x86, 0xb8, 0x3d, 0xd4, 0x9f, 0x40, 0x3e,
  0x94, 0x36, 0xaf, 0xbd, 0xe8, 0x95, 0xc0, 0x3c, 0xdf, 0x67, 0xe2, 0x3e,
  0xcd, 0xd7, 0x87, 0xbe, 0x68, 0x3f, 0x35, 0xbe, 0xce, 0x51, 0xf2, 0x3d,
  0x0e, 0x71, 0x01, 0x3e, 0x59, 0x42, 0x3c, 0x3e, 0x6d, 0xb8, 0xcf, 0xbd,
  0x29, 0x99, 0xca, 0xbc, 0x9b, 0x36, 0xbc, 0xbd, 0x0c, 0x09, 0xea, 0x3e,
  0xe6, 0x14, 0xa0, 0x3d, 0x31, 0x09, 0x42, 0xbd, 0xb7, 0xc9, 0x11, 0xbe,
  0xbf, 0x07, 0x95, 0xbe, 0xca, 0x85, 0x20, 0xbd, 0xd6, 0x40, 0x53, 0x3d,
  0x84, 0x5f, 0xde, 0x3b, 0xe1, 0x3a, 0x62, 0xbe, 0x5b, 0x71, 0x2b, 0xbe,
  0x5c, 0x54, 0xd9, 0xbe, 0x1b, 0xd0, 0x96, 0xbe, 0x27, 0xde, 0x7b, 0xbe,
  0x64, 0xb0, 0xc4, 0xbd, 0x6d, 0xe6, 0xc2, 0x3c, 0x90, 0xdf, 0x9e, 0xbe,
  0xc2, 0xb4, 0xe2, 0xbd, 0x18, 0xce, 0x61, 0xbb, 0x38, 0x64, 0xa6, 0x3c,
  0xe7, 0x50, 0xfc, 0xbe, 0x0e, 0x75, 0xe5, 0x3d, 0x8a, 0x19, 0x93, 0xbd,
  0x53, 0x52, 0x6f, 0xbe, 0x80, 0xa0, 0x7b, 0x3b, 0x60, 0x6f, 0xd8, 0xbd,
  0x89, 0x6c, 0xc6, 0xbd, 0x78, 0x52, 0x6a, 0x3d, 0x7e, 0x9f, 0x14, 0xbe,
  0x7c, 0xa4, 0xfe, 0x3d, 0x16, 0xb5, 0x18, 0x3e, 0xc0, 0x6e, 0x04, 0xbd,
  0xbc, 0x35, 0x12, 0x3d, 0x6c, 0x4e, 0x6b, 0xbd, 0xb8, 0x86, 0x2d, 0xbd,
  0x44, 0x09, 0x42, 0xbd, 0x50, 0xcf, 0x10, 0x3e, 0x50, 0xfc, 0x47, 0x3d,
  0x82, 0xf4, 0xec, 0xbd, 0x96, 0x16, 0x31, 0xbe, 0x11, 0x76, 0xb9, 0xbd,
  0x96, 0xfc, 0x19, 0x3e, 0xea, 0xa1, 0x0e, 0x3e, 0x26, 0x7f, 0x43, 0x3e,
  0xce, 0x7d, 0xa0, 0xbd, 0x70, 0xf9, 0x45, 0xbc, 0x88, 0x1a, 0xa2, 0x3d,
  0xc8, 0x45, 0xe3, 0xbd, 0xd3, 0x77, 0x37, 0xbe, 0x0c, 0xba, 0x0d, 0xbe,
  0xa8, 0x5f, 0xcc, 0xbc, 0x3c, 0x1f, 0x8d, 0xbd, 0x70, 0xf3, 0xe2, 0x3c,
  0x00, 0x08, 0x6f, 0xbc, 0xc1, 0x9d, 0x1a, 0xbe, 0x00, 0x6a, 0x1b, 0xbe,
  0xb7, 0x2d, 0x29, 0xbe, 0x9a, 0x96, 0x69, 0x3e, 0xfa, 0x07, 0xe7, 0x3e,
  0xeb, 0x2f, 0xea, 0xbd, 0xc9, 0xae, 0xd3, 0xbe, 0xa4, 0xa6, 0x7f, 0xbe,
  0x90, 0xcb, 0x1d, 0xbd, 0x20, 0x5c, 0x52, 0xbe, 0x4a, 0xc3, 0xe1, 0x3e,
  0xfa, 0x06, 0x6a, 0xbe, 0x22, 0x35, 0x68, 0xbe, 0x12, 0xe6, 0xd8, 0x3e,
  0xc2, 0x50, 0xf1, 0x3e, 0xc6, 0xcd, 0x8d, 0xbd, 0xb0, 0xbb, 0x00, 0xbf,
  0xa1, 0xf4, 0xf0, 0x3d, 0x21, 0xf4, 0x24, 0xbe, 0xa8, 0xf0, 0x21, 0xbd,
  0x3e, 0x57, 0x04, 0xbe, 0x4b, 0x7a, 0x31, 0xbe, 0xe3, 0x3b, 0x98, 0xbd,
  0x95, 0xa4, 0x24, 0xbe, 0x84, 0x55, 0x0a, 0xbf, 0x83, 0x19, 0xf7, 0x3d,
  0x3f, 0xf1, 0xc6, 0xbc, 0x52, 0x3b, 0xe1, 0x3d, 0xf0, 0xd1, 0x58, 0x3e,
  0xdf, 0xc0, 0x4b, 0x3d, 0x57, 0x0c, 0x05, 0x3f, 0x45, 0xbd, 0xe1, 0x3d,
  0x72, 0xc8, 0xa7, 0x3d, 0x9d, 0xaa, 0xc1, 0x3d, 0x18, 0x4b, 0x05, 0xbe,
  0x1c, 0xd1, 0xe2, 0xbd, 0x6a, 0x10, 0x3b, 0x3e, 0x26, 0x00, 0xa4, 0xbd,
  0xa0, 0x2e, 0x60, 0xbc, 0x58, 0x70, 0xbd, 0xbc, 0x8a, 0xf8, 0x50, 0xbe,
  0x01, 0xb9, 0x50, 0xbe, 0x0c, 0x5b, 0x98, 0xbd, 0x08, 0x38, 0xfd, 0x3d,
  0xe4, 0x97, 0xb5, 0x3d, 0x4a, 0x25, 0x58, 0xbe, 0x88, 0x7a, 0x02, 0x3e,
  0xa0, 0x42, 0x5a, 0x3d, 0x07, 0xa1, 0xdc, 0xbd, 0xd9, 0xed, 0xef, 0xbd,
  0x68, 0x05, 0x2b, 0xbe, 0x08, 0x87, 0xfa, 0xbc, 0x3f, 0x96, 0x58, 0xbe,
  0x37, 0x56, 0xd6, 0xbd, 0xdc, 0x00, 0x0c, 0x3d, 0x58, 0x97, 0xeb, 0x3d,
  0x98, 0xea, 0x28, 0x3d, 0xb8, 0x72, 0x76, 0x3d, 0xd8, 0x38, 0xba, 0xbc,
  0x54, 0x3b, 0x0d, 0xbd, 0xde, 0x35, 0x29, 0xbe, 0x90, 0x72, 0x33, 0x3c,
  0xb4, 0xc6, 0x21, 0x3e, 0x3c, 0xd2, 0xbf, 0x3d, 0x7c, 0xd2, 0x1b, 0x3e,
  0x7f, 0x13, 0x2f, 0xbe, 0x39, 0x0b, 0x8a, 0x3d, 0x89, 0xd1, 0x11, 0x3e,
  0x9e, 0xb6, 0x6e, 0x3d, 0x81, 0x0a, 0x2c, 0x3b, 0x06, 0xcd, 0x29, 0xbe,
  0xa5, 0x2c, 0xb2, 0x3c, 0x59, 0xf1, 0x5b, 0xbe, 0x68, 0x04, 0xff, 0x3d,
  0x95, 0x49, 0x26, 0xbe, 0x97, 0x34, 0xcd, 0x3d, 0xdc, 0xe1, 0x1e, 0xbe,
  0x0f, 0x97, 0x4d, 0xbe, 0x07, 0xdc, 0x5c, 0xbe, 0x80, 0x81, 0x3c, 0xbd,
  0x07, 0x34, 0x85, 0xbc, 0x72, 0x09, 0x78, 0xbd, 0x9b, 0x98, 0x3a, 0x3d,
  0x40, 0xbf, 0x55, 0xbd, 0xe8, 0x99, 0x1f, 0xbe, 0xa4, 0xac, 0x0a, 0xbd,
  0x6a, 0x99, 0x53, 0x3e, 0x92, 0x0f, 0xcf, 0xbd, 0xd5, 0xc9, 0x90, 0xbd,
  0xbe, 0x32, 0xd9, 0xbd, 0x40, 0xa6, 0xfe, 0x3d, 0x0a, 0x9f, 0x62, 0xbd,
  0x40, 0xe5, 0x61, 0x3d, 0xa3, 0xc6, 0x66, 0x3c, 0xb2, 0x94, 0xb8, 0x3d,
  0xf1, 0x22, 0x27, 0xbe, 0xbc, 0x77, 0x8c, 0x3d, 0xb8, 0x10, 0xdd, 0xbd,
  0x57, 0x06, 0xe5, 0xbb, 0x4d, 0x7f, 0xe6, 0xbe, 0xc8, 0x5a, 0x0f, 0xbf,
  0xe2, 0x6d, 0x02, 0x3e, 0x04, 0xf1, 0xef, 0x3d, 0x89, 0x51, 0xbc, 0xbb,
  0xe6, 0x08, 0x0a, 0xbe, 0xad, 0x57, 0x01, 0x3e, 0xa3, 0xb7, 0x93, 0xbe,
  0xd3, 0x50, 0x07, 0x3e, 0x6c, 0x65, 0x36, 0x3d, 0x78, 0xb2, 0x0a, 0xbf,
  0x6d, 0x66, 0xd8, 0xbe, 0x57, 0x51, 0x0f, 0xbc, 0xcc, 0x64, 0x6f, 0x3d,
  0xbd, 0xa9, 0xf0, 0xbc, 0x94, 0x67, 0x69, 0x3d, 0x66, 0xf4, 0xda, 0x3d,
  0x9f, 0x92, 0x04, 0x3e, 0x4f, 0x45, 0xf6, 0xbc, 0x11, 0x5f, 0x2e, 0x3e,
  0x5c, 0xa6, 0x80, 0x3e, 0xc2, 0xec, 0x76, 0x3e, 0xc1, 0x5f, 0xae, 0xbe,
  0x2d, 0xba, 0xec, 0x3d, 0x42, 0x02, 0x21, 0xbe, 0x3f, 0xaa, 0xe7, 0xbd,
  0x9a, 0xd4, 0xde, 0x3c, 0x8a, 0x05, 0x09, 0xbe, 0x91, 0x4e, 0xea, 0xbe,
  0x4b, 0x10, 0x54, 0xbe, 0x3b, 0x45, 0x1c, 0xbd, 0xef, 0xf9, 0x83, 0xbe,
  0x6a, 0x71, 0xc9, 0x3a, 0xe2, 0xbf, 0x5f, 0x3e, 0x15, 0x08, 0xcd, 0xbd,
  0x47, 0x1e, 0x77, 0x3e, 0x44, 0x5e, 0x2a, 0xbe, 0xfd, 0x38, 0x89, 0xbd,
  0x6c, 0x9d, 0xcd, 0x3e, 0x04, 0x6c, 0xdb, 0x3e, 0x08, 0x26, 0xd4, 0xbe,
  0xb8, 0xd0, 0xcc, 0x3d, 0x5f, 0x5b, 0xbe, 0x3e, 0xb8, 0x50, 0xb4, 0x3e,
  0x39, 0xa5, 0x9f, 0x3e, 0x05, 0x26, 0x62, 0x3e, 0xd3, 0xef, 0x6c, 0x3d,
  0x40, 0xe9, 0x30, 0xbe, 0x74, 0x8f, 0x35, 0x3e, 0x5b, 0xa9, 0xdf, 0x3d,
  0x14, 0x18, 0xe5, 0x3e, 0x3d, 0xdc, 0x95, 0x3e, 0xda, 0x3a, 0x89, 0xbd,
  0x45, 0xfc, 0x7a, 0x3e, 0x9b, 0x4d, 0xd9, 0x3e, 0xa4, 0xc2, 0x9b, 0x3e,
  0x51, 0x52, 0x64, 0x3e, 0x8f, 0x75, 0xd6, 0x3d, 0x57, 0x27, 0x80, 0x3e,
  0x80, 0x6c, 0x05, 0x3f, 0xce, 0x7e, 0x28, 0x3e, 0x4d, 0x5c, 0xb3, 0x3e,
  0xb4, 0x49, 0x97, 0x3e, 0xa4, 0x4f, 0x99, 0xbe, 0xd0, 0xf0, 0x0c, 0xbd,
  0xad, 0xde, 0x51, 0xbe, 0x7d, 0xf7, 0x73, 0xbd, 0x3d, 0x26, 0x50, 0x3e,
  0x69, 0x6a, 0xac, 0x3d, 0x66, 0xb6, 0xbc, 0x3d, 0xe0, 0x24, 0x78, 0x3e,
  0x4c, 0xb5, 0x0a, 0xbe, 0x2c, 0x8f, 0xe7, 0xbb, 0xe6, 0xea, 0xee, 0xbd,
  0xea, 0x99, 0x19, 0x3e, 0xd4, 0xc7, 0x4a, 0xbe, 0x6c, 0x58, 0x69, 0xbd,
  0x84, 0x15, 0xfc, 0x3d, 0x31, 0xaf, 0x1f, 0x3e, 0x8d, 0x66, 0x4d, 0xbe,
  0xee, 0x1f, 0x1e, 0x3e, 0x00, 0x90, 0x97, 0x3e, 0xea, 0xda, 0x1f, 0x3e,
  0xcb, 0xa0, 0x66, 0x3e, 0x2a, 0x81, 0x79, 0x3e, 0x72, 0x42, 0x18, 0x3d,
  0x28, 0x49, 0x2a, 0xbe, 0x3b, 0x3d, 0xa6, 0x3e, 0x50, 0x15, 0x94, 0xbc,
  0x9d, 0x76, 0x58, 0x3e, 0x8d, 0x3c, 0x62, 0x3e, 0xbb, 0x9b, 0x31, 0xbe,
  0xd9, 0x8c, 0x86, 0xbe, 0x18, 0x16, 0x4f, 0x3e, 0xc9, 0xfd, 0x9b, 0x3e,
  0xbd, 0xc2, 0x6c, 0x3d, 0x5c, 0x37, 0x31, 0xbd, 0xdb, 0x99, 0x2d, 0x3d,
  0x1d, 0xac, 0x2e, 0x3e, 0x51, 0xee, 0x63, 0xbe, 0x3d, 0x5f, 0x0b, 0x3e,
  0xfe, 0x1e, 0x0e, 0xbe, 0xc0, 0x51, 0x67, 0x3b, 0x28, 0x1c, 0xc8, 0xbd,
  0x16, 0x53, 0xa3, 0x3d, 0x4c, 0xf8, 0xf9, 0x3a, 0x56, 0xa7, 0x8f, 0xbd,
  0x0d, 0xa9, 0x3e, 0x3e, 0x4e, 0x15, 0x1b, 0xbe, 0x15, 0xf0, 0x54, 0xbe,
  0x62, 0x30, 0xc4, 0x3d, 0x75, 0x6d, 0x81, 0xbc, 0x90, 0xf9, 0x27, 0xbe,
  0xf8, 0x3d, 0x94, 0x3d, 0xc4, 0x92, 0x7b, 0xbd, 0xac, 0xe0, 0x2c, 0xbe,
  0x56, 0xa0, 0x1f, 0xbe, 0xfa, 0x76, 0xa8, 0x3d, 0xe2, 0x01, 0x6f, 0xbd,
  0x38, 0xdd, 0x06, 0xbe, 0xe3, 0x57, 0x3c, 0xbe, 0x92, 0xa7, 0xa7, 0xbd,
  0x45, 0xdd, 0xe6, 0xbd, 0xf6, 0x3d, 0x2f, 0xba, 0xa8, 0xcd, 0x8e, 0xbd,
  0xa8, 0x91, 0xe5, 0xbd, 0x31, 0x3d, 0x3a, 0xbe, 0xb4, 0x7d, 0xaf, 0xbc,
  0x32, 0x32, 0x68, 0x3d, 0xb8, 0xb4, 0x55, 0x3e, 0x68, 0xc3, 0x61, 0x3e,
  0xc9, 0xab, 0x2f, 0x3e, 0xba, 0xca, 0x32, 0x3e, 0x55, 0x6d, 0x80, 0x3e,
  0x77, 0x61, 0x1a, 0x3e, 0x89, 0xb1, 0x83, 0x3d, 0x29, 0x76, 0x3d, 0xbe,
  0x8e, 0x68, 0x23, 0x3e, 0xe2, 0x08, 0x0d, 0xbd, 0x06, 0x90, 0x6f, 0xbd,
  0xca, 0x9c, 0x36, 0xbe, 0xb1, 0x23, 0x25, 0xbe, 0x7e, 0x73, 0x4f, 0x3e,
  0xdf, 0xd4, 0x7a, 0x3e, 0x0c, 0x18, 0x5b, 0xbd, 0xcf, 0x1e, 0x1d, 0xbe,
  0xa4, 0xe1, 0xbe, 0xbd, 0x35, 0x69, 0xbf, 0xbb, 0x4c, 0x7e, 0xba, 0xbd,
  0x84, 0xc6, 0xcd, 0x3d, 0x0a, 0x08, 0x24, 0x3e, 0xe7, 0xa1, 0x79, 0xbe,
  0x70, 0xee, 0x8a, 0x3e, 0x0b, 0x2d, 0x44, 0x3d, 0xd7, 0x9c, 0x26, 0xbe,
  0x29, 0xaf, 0x45, 0x3d, 0xf4, 0x82, 0xe4, 0xbd, 0x1d, 0xa1, 0x02, 0xbe,
  0x73, 0x53, 0xd8, 0x3c, 0x1b, 0xcb, 0xb5, 0x3e, 0x24, 0xf9, 0xd5, 0x3d,
  0x84, 0xe6, 0xbe, 0x3e, 0xe1, 0x62, 0x03, 0x3e, 0x96, 0xab, 0x8e, 0x3d,
  0x84, 0xe6, 0x16, 0x3e, 0xcc, 0x62, 0x83, 0xbd, 0x58, 0xd7, 0x60, 0xbe,
  0x90, 0xb8, 0xb8, 0x3d, 0x91, 0x43, 0xa5, 0x3e, 0xd1, 0xb2, 0x8c, 0xbe,
  0xfb, 0x57, 0xbd, 0x3e, 0x70, 0x3a, 0x27, 0x3d, 0x1e, 0x95, 0x96, 0xbd,
  0x40, 0x15, 0x1f, 0x3d, 0x29, 0x44, 0xdf, 0xbd, 0xea, 0x57, 0xf2, 0x3d,
  0xe6, 0xf6, 0x3f, 0xbc, 0xf0, 0x24, 0xf1, 0x3d, 0xf1, 0xae, 0x12, 0x3d,
  0x34, 0x7e, 0x2c, 0xbc, 0x82, 0x7f, 0x47, 0xbe, 0x3c, 0xb9, 0x98, 0xbd,
  0xec, 0x69, 0xe5, 0x3d, 0x4c, 0x5d, 0x0e, 0xbe, 0xe0, 0x45, 0x83, 0x3e,
  0x47, 0x0f, 0x58, 0x3d, 0x6d, 0xe5, 0xb2, 0x3d, 0xcf, 0x47, 0x3a, 0x3e,
  0x77, 0xc1, 0xcf, 0x3d, 0x64, 0x2b, 0x1d, 0xbe, 0xc7, 0x01, 0x8a, 0xbe,
  0x33, 0xfe, 0xe6, 0x3e, 0x4a, 0x2d, 0xcd, 0xbd, 0x62, 0x30, 0xbf, 0xbd,
  0x1a, 0xc3, 0x46, 0x3d, 0x56, 0x62, 0x2f, 0x3e, 0xec, 0xe8, 0x9d, 0x3e,
  0x0a, 0xfe, 0xb2, 0xbd, 0x58, 0x4c, 0x76, 0xbc, 0x5b, 0xfa, 0xbe, 0xbc,
  0xb6, 0x0f, 0x61, 0x3e, 0x05, 0xb0, 0xbc, 0xbd, 0x91, 0x82, 0x19, 0xbe,
  0xd5, 0x19, 0xe6, 0xbd, 0x7f, 0x72, 0x3e, 0xbe, 0x8b, 0x35, 0x4b, 0x3e,
  0x96, 0x62, 0x1a, 0x3e, 0xee, 0x46, 0x58, 0x3e, 0x45, 0xde, 0x15, 0x3e,
  0x4a, 0xa0, 0x0a, 0x3e, 0xc9, 0x09, 0x23, 0x3d, 0xab, 0x1a, 0x18, 0x3e,
  0x7f, 0xcc, 0x17, 0x3e, 0x42, 0x9e, 0xaa, 0xbd, 0xa6, 0x75, 0xf8, 0xbd,
  0x56, 0x8b, 0xa3, 0xbc, 0x49, 0x21, 0x4e, 0xbe, 0x02, 0x28, 0xe9, 0x3d,
  0x67, 0x55, 0x73, 0xbd, 0xc8, 0x58, 0x1d, 0xbe, 0x10, 0x6b, 0x3e, 0xbe,
  0x1e, 0x1b, 0xbb, 0x3d, 0xaf, 0x2f, 0xe5, 0x3d, 0xb7, 0x59, 0xc4, 0x3d,
  0xd3, 0x93, 0x6e, 0xbe, 0x37, 0x0b, 0x08, 0xbe, 0x4b, 0xbe, 0x04, 0xbe,
  0xcd, 0x4c, 0x48, 0xbd, 0x47, 0x8e, 0xf0, 0x3e, 0x17, 0x6c, 0xb9, 0xbd,
  0x16, 0x13, 0x11, 0xbe, 0x34, 0xd2, 0x93, 0xbe, 0xa0, 0x76, 0xc2, 0x3e,
  0x42, 0x80, 0xdc, 0x3d, 0xc0, 0x31, 0xa9, 0xbc, 0xea, 0xbe, 0x0e, 0xbc,
  0x59, 0xaa, 0x15, 0x3e, 0xd4, 0x86, 0xa9, 0x3d, 0x03, 0xfc, 0x40, 0xbe,
  0xae, 0xf1, 0xa9, 0x3e, 0x21, 0xc2, 0x90, 0xbe, 0x69, 0x1b, 0x08, 0x3e,
  0x99, 0xfb, 0xbe, 0xbb, 0x64, 0xf9, 0x53, 0xbe, 0x05, 0xc2, 0x39, 0xbe,
  0x94, 0xb0, 0x10, 0x3e, 0xb0, 0x0d, 0x72, 0xbe, 0x3d, 0x45, 0x7c, 0xbe,
  0x22, 0x4d, 0xc3, 0xbc, 0x72, 0xd0, 0xe5, 0xbd, 0xa1, 0x3f, 0x5b, 0xbe,
  0xbf, 0x28, 0xc5, 0xbe, 0x8a, 0x6f, 0x91, 0x3d, 0xc0, 0xa5, 0x98, 0xbb,
  0x99, 0x61, 0x76, 0x3b, 0x30, 0x6b, 0x41, 0x3d, 0xd0, 0x43, 0x6c, 0xbd,
  0xe4, 0x10, 0x88, 0xbd, 0x02, 0x6d, 0x9c, 0xbd, 0xa2, 0x9b, 0x1c, 0x3e,
  0xb6, 0x8c, 0x19, 0xbe, 0xcc, 0x2d, 0xe3, 0x3d, 0x60, 0xe8, 0xe9, 0x3b,
  0x3c, 0x15, 0xb0, 0x3d, 0x00, 0x1b, 0x33, 0xbb, 0x58, 0x5c, 0x21, 0xbe,
  0x66, 0xe8, 0xb9, 0xbd, 0x74, 0x44, 0x1e, 0xbd, 0x8f, 0x5a, 0x41, 0xbe,
  0xdb, 0x85, 0x37, 0xbe, 0xe0, 0xb9, 0x64, 0xbc, 0x18, 0xa5, 0x27, 0xbe,
  0x20, 0x6e, 0x92, 0x3c, 0xc0, 0xb9, 0xbf, 0x3b, 0x43, 0x4c, 0xe9, 0xbd,
  0x28, 0x80, 0x63, 0x3d, 0xda, 0x6e, 0xe2, 0xbd, 0x98, 0xe7, 0x6b, 0x3d,
  0x53, 0x53, 0xe8, 0xbd, 0x90, 0x65, 0xf7, 0x3d, 0xe8, 0xe3, 0x48, 0xbd,
  0x44, 0xfc, 0x4f, 0xbe, 0x71, 0x38, 0x2b, 0xbe, 0x2e, 0x80, 0x47, 0xbe,
  0xd0, 0xe8, 0x2e, 0xbe, 0xe6, 0xc7, 0x16, 0xbe, 0x08, 0xfa, 0x8b, 0x3c,
  0x6f, 0x18, 0x8f, 0xbe, 0x1a, 0x44, 0x7c, 0x3e, 0x6f, 0x47, 0x22, 0x3e,
  0xca, 0xbc, 0x31, 0x3e, 0xb3, 0xa2, 0x37, 0xbe, 0x52, 0x0b, 0x86, 0xbe,
  0x9e, 0x1e, 0xce, 0x3d, 0xd4, 0xab, 0x4e, 0x3e, 0x8e, 0x2c, 0x89, 0x3e,
  0x9a, 0xfe, 0xf8, 0xbd, 0x26, 0x00, 0x42, 0x3e, 0x6f, 0x29, 0x92, 0x3e,
  0x0a, 0x1c, 0x59, 0x3d, 0x4d, 0x81, 0x75, 0x3d, 0xd2, 0x6f, 0x04, 0x3d,
  0xa2, 0x52, 0x9a, 0x3d, 0xac, 0xe6, 0x6b, 0x3d, 0x14, 0x8e, 0xbc, 0xbb,
  0x35, 0x25, 0xff, 0x3d, 0xba, 0xa9, 0x95, 0x3e, 0xe8, 0xfe, 0x93, 0x3e,
  0x51, 0x83, 0x33, 0xbd, 0x8a, 0xa8, 0x2f, 0xbe, 0x14, 0xe9, 0xe7, 0x3d,
  0x29, 0xfa, 0x56, 0xbd, 0x3e, 0x71, 0x56, 0x3d, 0x6e, 0x7a, 0x78, 0x3c,
  0xf8, 0xf8, 0xa9, 0xbd, 0x0f, 0x58, 0x87, 0x3e, 0xbe, 0xe7, 0x8a, 0x3c,
  0x47, 0x86, 0x5e, 0x3e, 0x3e, 0xc2, 0x28, 0x3e, 0xad, 0x7e, 0x89, 0x3d,
  0x12, 0x25, 0xda, 0xbe, 0xab, 0x60, 0xb6, 0xbd, 0x80, 0x27, 0xa3, 0x3e,
  0xab, 0xfa, 0x6b, 0xbc, 0xc8, 0x54, 0x9e, 0x3e, 0x87, 0x7e, 0x99, 0xbc,
  0xb5, 0x4c, 0x21, 0x3e, 0xd2, 0x2b, 0x35, 0xbe, 0x77, 0x19, 0x74, 0x3e,
  0x28, 0x90, 0x74, 0x3e, 0xaa, 0xc0, 0x57, 0xbe, 0xbc, 0x13, 0x50, 0xbe,
  0xd2, 0x72, 0xfa, 0x3d, 0xd6, 0x8d, 0xc0, 0xbc, 0x8a, 0x4d, 0xb0, 0x3d,
  0x2a, 0xe0, 0xf0, 0xbd, 0x1e, 0x59, 0x30, 0xbd, 0x99, 0x74, 0x16, 0x3e,
  0x67, 0xc8, 0xa3, 0x3d, 0xf9, 0x86, 0x03, 0xbe, 0x1c, 0x20, 0x77, 0xbc,
  0xa8, 0x71, 0x1c, 0x3e, 0xf1, 0x5d, 0x85, 0xbe, 0x97, 0x7f, 0xf2, 0xbd,
  0x30, 0xcc, 0xc1, 0xbd, 0x65, 0x1f, 0x1b, 0x3e, 0xfe, 0x0d, 0x94, 0x3e,
  0xf5, 0x5a, 0x3c, 0x3d, 0xee, 0x14, 0xa3, 0xbe, 0x79, 0x02, 0xce, 0xbd,
  0xa8, 0xc2, 0x84, 0xbd, 0xc0, 0x39, 0xa5, 0x3e, 0x40, 0x52, 0x44, 0xbd,
  0x58, 0x53, 0x00, 0xbe, 0xe3, 0x90, 0x9b, 0xbc, 0xcf, 0x17, 0x05, 0x3e,
  0x24, 0xc4, 0xa5, 0x3e, 0x0c, 0x88, 0x16, 0x3e, 0x7a, 0xde, 0xaa, 0xbe,
  0x50, 0x1d, 0x60, 0xbe, 0x2a, 0x8b, 0x84, 0x3e, 0x95, 0xdd, 0xe0, 0xbd,
  0xc4, 0x05, 0x00, 0xbe, 0x28, 0xd6, 0x57, 0xbd, 0x4c, 0x24, 0x3d, 0xbd,
  0x44, 0x66, 0x3a, 0x3e, 0x15, 0x50, 0x64, 0xbe, 0x70, 0xa5, 0x9d, 0x3e,
  0xb9, 0xf7, 0x22, 0xbe, 0xf9, 0x38, 0xa7, 0xbd, 0x4d, 0x22, 0x04, 0xbe,
  0x32, 0x36, 0x42, 0xbe, 0x81, 0x0b, 0x59, 0xbe, 0x8b, 0xa3, 0x6e, 0x3e,
  0xcf, 0x5d, 0x52, 0xbd, 0xca, 0x5a, 0x50, 0xbe, 0x12, 0x8b, 0x37, 0xbe,
  0x5f, 0xd2, 0xc6, 0xbd, 0x4d, 0x65, 0x22, 0xbe, 0xdb, 0x2c, 0x0c, 0xbf,
  0x68, 0x3f, 0x4a, 0x3d, 0x05, 0xfc, 0x77, 0xbe, 0xae, 0x38, 0xa1, 0x3d,
  0xb8, 0xdf, 0x80, 0xbd, 0xb2, 0x86, 0xbe, 0x3c, 0x2b, 0xec, 0x95, 0xbe,
  0x2d, 0x43, 0xf2, 0xbd, 0x72, 0x12, 0x8c, 0x3e, 0x94, 0x03, 0xaa, 0x3e,
  0x31, 0xaf, 0x68, 0xbc, 0xcd, 0x10, 0xe4, 0xbd, 0x2f, 0xc8, 0x7a, 0xbe,
  0xdc, 0xdf, 0x50, 0x3e, 0x4d, 0xed, 0x63, 0x3d, 0xaf, 0x3b, 0xbe, 0xbd,
  0xa8, 0x83, 0x60, 0xbe, 0xad, 0xbb, 0x39, 0x3d, 0x06, 0x48, 0xa0, 0x3d,
  0xa8, 0x3b, 0xb1, 0x3d, 0xaa, 0xd0, 0x08, 0xbf, 0x33, 0x97, 0x5b, 0x3e,
  0xd2, 0x10, 0x79, 0x3e, 0xac, 0xb4, 0x77, 0x3e, 0x2f, 0xdc, 0xdc, 0x3d,
  0x53, 0xb3, 0x9a, 0xbd, 0x65, 0x51, 0xf3, 0xba, 0xf2, 0x9a, 0xab, 0xbe,
  0x99, 0x7b, 0x19, 0x3e, 0x0f, 0x11, 0x55, 0xbe, 0x1d, 0x15, 0x48, 0x3e,
  0xf2, 0xba, 0x43, 0x3e, 0xde, 0xda, 0xc1, 0x3c, 0x59, 0x5c, 0x7e, 0x3d,
  0x61, 0x9a, 0x37, 0x3e, 0x7b, 0xf9, 0x60, 0x3e, 0x99, 0x9d, 0x87, 0xbe,
  0xf2, 0x8b, 0x95, 0xbd, 0x7d, 0xf6, 0x54, 0xbe, 0x39, 0x26, 0x88, 0x3d,
  0xa0, 0xa4, 0xf4, 0x3d, 0x74, 0x43, 0x01, 0xbe, 0xc2, 0xf7, 0x61, 0x3e,
  0x3d, 0x29, 0x2a, 0x3d, 0xf0, 0x49, 0x19, 0xbd, 0x02, 0xb2, 0x8b, 0xbe,
  0x32, 0xd7, 0x4b, 0x3e, 0x38, 0xd7, 0x4a, 0x3d, 0x8c, 0x9d, 0x22, 0xbe,
  0x8e, 0x87, 0xdf, 0x3d, 0xa2, 0xe4, 0xf8, 0xbd, 0x61, 0xad, 0x12, 0x3e,
  0x5b, 0xc7, 0x75, 0x3d, 0x89, 0xc4, 0x34, 0x3d, 0xa0, 0x19, 0x6b, 0x3e,
  0x66, 0x96, 0x9e, 0x3e, 0xce, 0x24, 0x48, 0x3d, 0x59, 0x44, 0xcc, 0x3d,
  0x05, 0xce, 0x3b, 0x3d, 0x93, 0x2f, 0x43, 0xbd, 0xf9, 0xb6, 0x97, 0x3e,
  0x7a, 0xaa, 0xad, 0xbd, 0xaa, 0xd9, 0xdd, 0xbd, 0x7d, 0xb6, 0x19, 0xbe,
  0xf0, 0x27, 0xcb, 0x3d, 0x0c, 0x6b, 0xbf, 0x3d, 0xc6, 0x9a, 0xc2, 0xbd,
  0xa9, 0x7e, 0x4f, 0x3e, 0x01, 0xb7, 0x33, 0x3d, 0x9b, 0x11, 0x83, 0xbc,
  0xea, 0xdc, 0xda, 0x3d, 0xf7, 0xbe, 0x43, 0xbe, 0x1c, 0xc9, 0x42, 0xbe,
  0x1c, 0xbe, 0x4b, 0xbd, 0x5d, 0x6f, 0x0d, 0x3e, 0xce, 0x64, 0xb4, 0xbd,
  0xcd, 0xb5, 0x67, 0xbe, 0xad, 0x43, 0xae, 0xbc, 0x34, 0xac, 0x3a, 0xbe,
  0x0e, 0xfe, 0x00, 0xbd, 0x98, 0xe2, 0xd3, 0x3d, 0xb8, 0xd4, 0x82, 0xbc,
  0xc4, 0x97, 0x06, 0x3d, 0x3c, 0xe8, 0x93, 0x3d, 0x7e, 0xe7, 0xca, 0xbd,
  0x84, 0xe7, 0x2c, 0x3e, 0x66, 0x64, 0x02, 0x3d, 0xac, 0x5d, 0xca, 0xbd,
  0x03, 0x4b, 0x21, 0x3e, 0xee, 0xef, 0x01, 0x3e, 0xdf, 0x5c, 0x08, 0x3e,
  0x56, 0x1d, 0x9c, 0x3d, 0x01, 0xb9, 0xf4, 0xbd, 0x1b, 0xa3, 0x4b, 0x3d,
  0xe1, 0x63, 0xf3, 0xbc, 0x06, 0x99, 0x4d, 0x3d, 0x0c, 0x34, 0x15, 0x3e,
  0x10, 0xc4, 0x91, 0xbd, 0xd4, 0x22, 0xcf, 0xbd, 0x0b, 0xdb, 0x28, 0xbe,
  0x49, 0xff, 0x47, 0xbe, 0xce, 0x3a, 0xb5, 0x3c, 0x58, 0x7c, 0x7f, 0x3e,
  0xe9, 0x75, 0x87, 0x3d, 0x06, 0xe1, 0xf2, 0xbd, 0x71, 0x5c, 0xca, 0x3d,
  0x76, 0x7a, 0x1b, 0x3e, 0x18, 0x4b, 0x12, 0x3e, 0x59, 0x59, 0x98, 0xbc,
  0x28, 0x70, 0x2c, 0xbd, 0x99, 0x37, 0x04, 0x3e, 0xc1, 0x7c, 0x13, 0x3e,
  0x45, 0x9c, 0x6b, 0x3e, 0x5c, 0x11, 0x13, 0xbc, 0x48, 0xbd, 0x0e, 0x3e,
  0x20, 0xd3, 0x27, 0x3e, 0x9f, 0x90, 0xe5, 0xbd, 0xd8, 0x17, 0x8e, 0xbd,
  0x24, 0xaa, 0x2c, 0xbd, 0x7d, 0x7a, 0x91, 0xbd, 0xd9, 0x93, 0x97, 0x3d,
  0xe0, 0xa5, 0x66, 0x3c, 0xb7, 0x45, 0x1d, 0xbe, 0xea, 0xb6, 0x60, 0x3e,
  0xa3, 0x81, 0x24, 0xbd, 0x9c, 0xbd, 0x23, 0x3e, 0xa0, 0x78, 0x40, 0xbe,
  0x3b, 0x24, 0x55, 0xbe, 0x1b, 0x5a, 0x65, 0x3e, 0x8b, 0x2e, 0xc8, 0x3d,
  0x8e, 0xba, 0x4d, 0x3e, 0xba, 0x6a, 0x68, 0x3d, 0x90, 0x28, 0xd9, 0x3e,
  0x2a, 0xc9, 0x2e, 0xbd, 0xc4, 0x71, 0x36, 0xbe, 0x0e, 0x4f, 0x57, 0xbd,
  0xd1, 0xa8, 0x17, 0x3c, 0x93, 0x68, 0xd9, 0x3e, 0x31, 0x0a, 0x22, 0xbe,
  0x56, 0x27, 0xca, 0xbe, 0x58, 0x7b, 0xf7, 0x3d, 0xcc, 0xae, 0xf5, 0x3e,
  0xe7, 0x7b, 0x07, 0x3e, 0x1f, 0x33, 0xa9, 0xbd, 0x9d, 0x4e, 0xc0, 0x3c,
  0x00, 0x0d, 0xd0, 0xbe, 0x91, 0x8e, 0x04, 0xbd, 0x6d, 0x95, 0x12, 0x3e,
  0xbf, 0x6e, 0x41, 0x3e, 0x04, 0x43, 0x84, 0xbd, 0xef, 0x24, 0x99, 0xbe,
  0x3c, 0x92, 0x88, 0xbe, 0x0f, 0x3f, 0xd0, 0xbd, 0x2c, 0x21, 0x53, 0xbe,
  0x05, 0x93, 0x94, 0xbd, 0x27, 0xc3, 0x13, 0xbe, 0xf8, 0x7e, 0x55, 0xbe,
  0xae, 0x42, 0x7f, 0xbe, 0xb2, 0x59, 0x28, 0x3e, 0x07, 0xdc, 0x8f, 0xbc,
  0x61, 0xa6, 0x83, 0xbd, 0x72, 0x5a, 0xb3, 0x3c, 0x57, 0xd6, 0x96, 0xbe,
  0xfa, 0x7d, 0x07, 0xbe, 0x70, 0x8f, 0x0c, 0xbd, 0xfa, 0x35, 0x4f, 0xbe,
  0x02, 0xa3, 0x0f, 0xbe, 0x08, 0x69, 0xf3, 0xbc, 0xf9, 0x49, 0x37, 0xbe,
  0x72, 0x7f, 0x22, 0xbe, 0xf1, 0x4a, 0x43, 0xbe, 0xc8, 0x4c, 0x92, 0xbd,
  0x54, 0x53, 0x03, 0x3e, 0xa4, 0x10, 0xbf, 0x3d, 0xd0, 0x27, 0xf0, 0x3d,
  0xf4, 0x5f, 0x62, 0xbd, 0x54, 0xba, 0x85, 0x3d, 0x7a, 0xb9, 0xeb, 0xbd,
  0xfc, 0xc1, 0xca, 0x3d, 0x74, 0x9c, 0x21, 0x3e, 0x30, 0x69, 0x2b, 0xbc,
  0xce, 0x1e, 0x05, 0xbe, 0x7a, 0x56, 0x88, 0xbd, 0x23, 0xa1, 0x19, 0xbe,
  0x50, 0x07, 0x62, 0xbd, 0x58, 0x71, 0xc2, 0xbc, 0x84, 0x6c, 0xac, 0xbd,
  0x1a, 0xd7, 0x39, 0x3e, 0xea, 0x33, 0xb1, 0xbd, 0x9e, 0x03, 0x47, 0x3e,
  0x76, 0x7f, 0x14, 0x3e, 0x00, 0x24, 0xad, 0x3b, 0x63, 0xf2, 0x23, 0xbe,
  0xc0, 0x73, 0x02, 0x3b, 0x10, 0xf5, 0x7e, 0x3d, 0xf4, 0xea, 0xd7, 0x3d,
  0x93, 0x12, 0x40, 0x3c, 0x83, 0x76, 0x8c, 0xbd, 0xeb, 0xd1, 0x40, 0x3d,
  0xb7, 0xf5, 0x99, 0x3d, 0xdb, 0xcf, 0x5e, 0x3e, 0x56, 0xd7, 0x8c, 0x3e,
  0x62, 0x32, 0x10, 0x3e, 0xb4, 0x31, 0x24, 0xbe, 0xcb, 0xaf, 0x51, 0xbe,
  0x28, 0xa5, 0xc5, 0x3e, 0x94, 0x92, 0x23, 0x3d, 0xcb, 0x57, 0xa0, 0xbc,
  0xe2, 0x0a, 0x6a, 0xbc, 0xa2, 0x57, 0x32, 0x3c, 0xc9, 0x5e, 0xd6, 0x3d,
  0x1b, 0x45, 0x84, 0xbd, 0x93, 0x56, 0x00, 0xbe, 0xa4, 0xe2, 0xa8, 0x3d,
  0xd5, 0x06, 0x39, 0xbe, 0x9c, 0x2c, 0x16, 0xbe, 0xb1, 0xf9, 0x96, 0xbe,
  0x16, 0xe8, 0x42, 0xbe, 0x7e, 0x59, 0x7a, 0x3d, 0x93, 0xde, 0x5c, 0xbe,
  0x77, 0x39, 0x00, 0xbe, 0x21, 0x5e, 0xe4, 0xbd, 0x7e, 0x92, 0x29, 0xbe,
  0x69, 0xba, 0x76, 0x3d, 0xbf, 0xc4, 0xe9, 0xbc, 0xab, 0x1a, 0x30, 0x3d,
  0x51, 0xab, 0x29, 0xbe, 0x44, 0xbb, 0x60, 0xbe, 0xc3, 0x59, 0x4e, 0x3e,
  0xf1, 0xc7, 0x9f, 0x3e, 0x88, 0x9d, 0x6b, 0x3e, 0xc9, 0x4b, 0x5d, 0xbe,
  0x70, 0x0b, 0x87, 0x3d, 0x6a, 0x17, 0x5a, 0xbe, 0x50, 0x5e, 0xbd, 0x3d,
  0x34, 0x9d, 0xeb, 0xbd, 0x3c, 0xd8, 0x01, 0x3e, 0x95, 0x58, 0x1a, 0x3e,
  0x36, 0x90, 0x2e, 0x3d, 0xbc, 0x9b, 0xb0, 0x3e, 0x1b, 0xba, 0xaf, 0x3e,
  0x9c, 0x38, 0xfb, 0xbd, 0x18, 0x5d, 0x35, 0xbe, 0x00, 0xd2, 0x92, 0xbd,
  0x5f, 0x5a, 0x1d, 0x3e, 0xc8, 0x27, 0xc9, 0x3d, 0x2a, 0x14, 0x52, 0xbe,
  0x15, 0x1e, 0x98, 0xbe, 0xa1, 0x5b, 0x35, 0xbe, 0x8a, 0xe4, 0x52, 0x3d,
  0x3b, 0xaf, 0x1f, 0x3e, 0xea, 0x60, 0xb8, 0x3e, 0xd2, 0x1b, 0xd9, 0xbd,
  0x33, 0x04, 0x91, 0x3d, 0x37, 0x40, 0x26, 0x3e, 0xab, 0x17, 0x6d, 0xbc,
  0xdc, 0xb6, 0x80, 0x3e, 0x53, 0x2d, 0xdf, 0x3e, 0x2b, 0xe3, 0x05, 0xbe,
  0xe3, 0x0a, 0x7e, 0xbe, 0xb9, 0x12, 0xad, 0x3e, 0xaa, 0x83, 0xb1, 0xbd,
  0x6d, 0x29, 0xef, 0x3d, 0x72, 0x18, 0xc6, 0x3d, 0x45, 0xb0, 0x56, 0xbe,
  0xa0, 0x19, 0x67, 0x3d, 0x9a, 0xbd, 0x0e, 0xbe, 0x8d, 0xba, 0x6f, 0xbe,
  0x71, 0xa3, 0xa8, 0xbe, 0x75, 0xe8, 0xa8, 0x3e, 0x59, 0x05, 0x4d, 0x3d,
  0x08, 0x17, 0x7b, 0xbe, 0x2b, 0xb0, 0x67, 0xbd, 0x18, 0x80, 0xcc, 0xbd,
  0x4f, 0x07, 0x44, 0x3e, 0xa5, 0x03, 0x76, 0xbe, 0x4d, 0x2f, 0x59, 0x3e,
  0xbf, 0x27, 0x62, 0xbd, 0x94, 0x97, 0xc7, 0x3d, 0x4e, 0x8f, 0x59, 0xbe,
  0xec, 0x05, 0x72, 0xbe, 0x8a, 0x85, 0x28, 0xbc, 0x74, 0x36, 0xcf, 0x3d,
  0x33, 0xb0, 0x49, 0x3d, 0x37, 0x4a, 0x88, 0xbe, 0xb5, 0xba, 0xa3, 0xbd,
  0x90, 0x0f, 0x61, 0xbc, 0x1d, 0x1c, 0xcf, 0x3d, 0xb4, 0xc4, 0x52, 0xbe,
  0xa0, 0xe4, 0x15, 0xbd, 0x3d, 0x53, 0xaf, 0x3d, 0x6f, 0xf4, 0x89, 0xbd,
  0x35, 0x38, 0x28, 0xbe, 0x42, 0x6e, 0x0a, 0xbf, 0x66, 0x1c, 0xaa, 0xbe,
  0x42, 0x02, 0x0a, 0x3e, 0xd7, 0x6d, 0x04, 0x3e, 0x0b, 0x90, 0x66, 0x3e,
  0x11, 0x18, 0x09, 0xbe, 0xac, 0x3c, 0x03, 0x3e, 0xad, 0x07, 0xcb, 0xbd,
  0xea, 0x5b, 0xaf, 0x3e, 0x61, 0x75, 0x45, 0xbd, 0x6a, 0xc1, 0xac, 0xbe,
  0x3f, 0x0d, 0x89, 0xbe, 0x1c, 0xad, 0x17, 0x3c, 0xfc, 0x76, 0x42, 0x3d,
  0x43, 0x22, 0x10, 0x3e, 0xcd, 0x3f, 0xa1, 0xbe, 0xd0, 0xb5, 0x48, 0xbc,
  0x60, 0xac, 0x1f, 0x3e, 0x2b, 0xaf, 0x41, 0x3e, 0x4b, 0xe0, 0xee, 0x3d,
  0x48, 0x58, 0x92, 0x3e, 0x4f, 0xda, 0x48, 0x3e, 0x32, 0x11, 0x1f, 0xbe,
  0x27, 0x29, 0x52, 0x3e, 0x4d, 0xfc, 0x35, 0xbe, 0x58, 0x32, 0x46, 0x3e,
  0x47, 0xe0, 0x8e, 0x3e, 0xad, 0xd6, 0xc3, 0x3d, 0x00, 0x6e, 0x80, 0xbe,
  0xa5, 0x4d, 0xa0, 0xbd, 0x64, 0x09, 0xde, 0x3c, 0x66, 0x0e, 0xc4, 0xbd,
  0xd1, 0x17, 0x91, 0x3b, 0x00, 0xf8, 0xdd, 0x3a, 0x88, 0x8a, 0x6c, 0x3e,
  0xcd, 0x9c, 0xb1, 0xbc, 0x52, 0x39, 0x55, 0x3e, 0x28, 0xdd, 0xd2, 0xbd,
  0xc0, 0x86, 0x25, 0x3e, 0x00, 0xf0, 0x0b, 0xbe, 0xdc, 0xc0, 0x8e, 0x3d,
  0x63, 0x6f, 0x3c, 0x3e, 0xe5, 0xb7, 0x30, 0xbe, 0x76, 0x54, 0x41, 0xbe,
  0x7b, 0x1a, 0x45, 0x3e, 0xf9, 0xca, 0xd5, 0x3d, 0x51, 0xc0, 0x03, 0x3e,
  0x66, 0x72, 0x44, 0xbf, 0x87, 0x3b, 0x0c, 0xbd, 0xa3, 0xf1, 0x72, 0x3e,
  0x7e, 0xbb, 0x66, 0x3d, 0x6e, 0x70, 0x10, 0x3e, 0xa0, 0x52, 0x25, 0xbe,
  0x04, 0x72, 0x3d, 0x3c, 0x38, 0x20, 0x80, 0xbe, 0x6b, 0x2b, 0x56, 0x3e,
  0xb8, 0xc8, 0x57, 0xbe, 0xfb, 0xaf, 0xc2, 0xbd, 0xb2, 0xf0, 0x7e, 0x3e,
  0x50, 0xbb, 0x92, 0x3c, 0xa0, 0xf8, 0x72, 0xbe, 0x2f, 0x21, 0xf2, 0xbd,
  0x02, 0x21, 0xf5, 0xbd, 0x6d, 0x9d, 0xb5, 0xbd, 0x74, 0xd3, 0x06, 0xbe,
  0x80, 0x36, 0x7d, 0xbd, 0x82, 0x73, 0x38, 0xbe, 0xaa, 0xd9, 0x1a, 0xbe,
  0x5c, 0xe1, 0xc0, 0x3d, 0xd8, 0xe2, 0xcf, 0xbd, 0x0e, 0xa2, 0xca, 0xbd,
  0x00, 0x42, 0xd3, 0xb9, 0xba, 0xde, 0x1d, 0xbe, 0xa0, 0xf5, 0x34, 0xbe,
  0xde, 0xd7, 0x41, 0xbe, 0xd4, 0xcd, 0x50, 0x3e, 0xac, 0xdf, 0x85, 0xbd,
  0xf4, 0xa2, 0x9b, 0xbd, 0x66, 0xf1, 0x31, 0x3e, 0x81, 0xed, 0x40, 0xbe,
  0x58, 0x89, 0x3e, 0xbd, 0x80, 0x8f, 0x1a, 0x3b, 0x94, 0x71, 0x52, 0xbd,
  0x64, 0x20, 0xc0, 0x3d, 0xcf, 0x50, 0x57, 0xbe, 0x68, 0xba, 0x30, 0xbe,
  0xa0, 0xd4, 0x5a, 0xbc, 0x64, 0x9f, 0x27, 0xbd, 0x6a, 0x16, 0x3e, 0x3e,
  0x30, 0xd8, 0x44, 0xbe, 0x2c, 0x3f, 0xbb, 0x3d, 0xd4, 0x0b, 0xaa, 0x3d,
  0x7f, 0xa5, 0xd1, 0xbd, 0xad, 0x62, 0x46, 0xbe, 0xb8, 0x93, 0x3f, 0xbe,
  0x0d, 0xc7, 0x5b, 0xbe, 0xce, 0x13, 0x42, 0xbe, 0xca, 0x5f, 0x70, 0x3d,
  0x16, 0x20, 0xb4, 0xbc, 0xd7, 0x36, 0x1c, 0xbe, 0x8a, 0xc1, 0x3f, 0x3e,
  0x2a, 0x1e, 0x59, 0xbe, 0x8e, 0x8c, 0x96, 0x3a, 0xd0, 0xd4, 0x01, 0x3e,
  0xbe, 0x1f, 0xf0, 0x3d, 0x9e, 0xbb, 0xd3, 0x3d, 0xda, 0x28, 0x93, 0x3d,
  0x1c, 0x44, 0x73, 0x3d, 0xf3, 0xe1, 0xd3, 0x3d, 0x45, 0x2b, 0xd2, 0x3c,
  0x66, 0x93, 0x59, 0x3d, 0xdb, 0x46, 0x40, 0xbe, 0x75, 0x6f, 0x63, 0xbe,
  0xe2, 0x60, 0x45, 0xbd, 0x16, 0xab, 0xb3, 0x3d, 0xdd, 0x32, 0x90, 0x3d,
  0x03, 0x80, 0x4b, 0xbe, 0xff, 0x47, 0x94, 0x3d, 0x8e, 0x2e, 0xff, 0xbd,
  0x0d, 0x10, 0x86, 0x3c, 0x7c, 0x2b, 0x78, 0x3d, 0x08, 0xc0, 0x4d, 0xbe,
  0x3c, 0x0d, 0x65, 0xbe, 0xe3, 0x91, 0xbf, 0xbc, 0x9e, 0x2e, 0x0a, 0xbc,
  0x7a, 0x29, 0xd2, 0x3d, 0x9d, 0x4a, 0x2a, 0x3e, 0x3c, 0x75, 0x79, 0xbd,
  0x58, 0xe3, 0x62, 0xbd, 0x46, 0xf2, 0xad, 0xbd, 0x55, 0x59, 0x52, 0xbe,
  0xfc, 0x5c, 0x45, 0x3e, 0xc0, 0x1e, 0x09, 0xbe, 0x80, 0xb3, 0xbe, 0x3d,
  0x5a, 0x8e, 0xbf, 0xbd, 0x92, 0x59, 0x1e, 0x3e, 0x71, 0xc4, 0x35, 0xbe,
  0x9c, 0xe0, 0x53, 0xbe, 0x5c, 0x05, 0x73, 0xbd, 0xbe, 0x60, 0x0b, 0x3e,
  0x40, 0xe4, 0xca, 0x3d, 0x38, 0x67, 0x13, 0x3e, 0xe8, 0xf1, 0xe5, 0x3c,
  0x04, 0x7e, 0xc3, 0x3d, 0x24, 0xef, 0xdf, 0xbd, 0x7e, 0xf4, 0x54, 0x3e,
  0xcc, 0x24, 0xec, 0x3d, 0x3e, 0x62, 0x50, 0x3e, 0x34, 0xce, 0x9c, 0x3d,
  0xa8, 0x04, 0x87, 0xbd, 0x30, 0xe1, 0x2e, 0x3c, 0x4c, 0x6d, 0x9c, 0x3d,
  0xc8, 0x58, 0x3d, 0xbe, 0x1c, 0x81, 0x24, 0xbe, 0x15, 0xcf, 0x3f, 0xbe,
  0x7c, 0xa6, 0x8e, 0x3d, 0xe8, 0x41, 0xef, 0x3c, 0x90, 0xf6, 0x24, 0x3c,
  0xbf, 0x6b, 0xd1, 0xbd, 0x14, 0xb6, 0xef, 0xbd, 0x2f, 0x16, 0xa2, 0xbd,
  0x22, 0x7e, 0xe5, 0x3d, 0x48, 0xab, 0x3f, 0xbe, 0x32, 0x2f, 0x4f, 0xbe,
  0xcc, 0xb4, 0x0f, 0x3d, 0x5a, 0x9a, 0x17, 0x3e, 0x80, 0x31, 0x42, 0x3d,
  0x17, 0x6d, 0x54, 0x3d, 0xf2, 0x32, 0x01, 0x3e, 0x7c, 0x37, 0x91, 0x3d,
  0xf1, 0x65, 0x93, 0x3c, 0x5b, 0xe5, 0x06, 0xbd, 0x43, 0x9a, 0x2b, 0xbe,
  0xa4, 0x49, 0x25, 0x3e, 0x02, 0xaf, 0x09, 0xbe, 0x2d, 0x79, 0x36, 0xbd,
  0x97, 0x4d, 0x4e, 0xbe, 0x3a, 0xc0, 0xa9, 0xbd, 0xac, 0x8e, 0x30, 0x3e,
  0xd9, 0xcb, 0x42, 0xbe, 0x0e, 0x10, 0x29, 0x3e, 0xcb, 0x35, 0x1d, 0xbe,
  0x7c, 0x41, 0x66, 0xbe, 0x98, 0x39, 0xfd, 0x3d, 0xef, 0x00, 0x34, 0x3e,
  0x6e, 0xc0, 0x52, 0xbd, 0x63, 0x86, 0x47, 0xbe, 0xf0, 0x98, 0x26, 0xbe,
  0x5a, 0x03, 0x14, 0xbe, 0x68, 0x55, 0xf0, 0x3d, 0xc8, 0xad, 0xac, 0x3c,
  0x9f, 0x6e, 0xc6, 0x3e, 0xc7, 0x42, 0xa0, 0xbd, 0xb4, 0xa4, 0x37, 0x3e,
  0x8b, 0x87, 0x4c, 0xbe, 0x32, 0x7f, 0x90, 0xbe, 0xca, 0x3d, 0x8d, 0x3e,
  0x94, 0xba, 0x5a, 0xbe, 0xf3, 0xec, 0x9b, 0xbd, 0x70, 0xa1, 0x98, 0x3d,
  0xe6, 0x0b, 0x61, 0x3e, 0x5d, 0x2e, 0x21, 0x3c, 0xe7, 0x00, 0x3b, 0xbe,
  0xfb, 0xe9, 0x09, 0xbc, 0xf6, 0x06, 0xb7, 0xbd, 0x44, 0x49, 0x31, 0xbe,
  0xe0, 0xcc, 0xa3, 0xbe, 0x87, 0x3e, 0xaa, 0x3e, 0x03, 0xd4, 0xe0, 0xbd,
  0x82, 0x8c, 0x95, 0xbd, 0xcc, 0xdf, 0x4b, 0xbe, 0xda, 0x76, 0xef, 0xbd,
  0xd1, 0xf5, 0x55, 0xbc, 0x18, 0x68, 0x04, 0xbe, 0x64, 0x26, 0xee, 0xbd,
  0x82, 0x65, 0x58, 0xbe, 0x2f, 0xc0, 0x9e, 0xbc, 0xd9, 0xef, 0x3a, 0xbe,
  0x65, 0x23, 0xc6, 0xbe, 0xc0, 0x46, 0x3c, 0xbe, 0x64, 0x6f, 0x6c, 0xbd,
  0x4f, 0x37, 0xc4, 0xbd, 0xa3, 0x7b, 0x86, 0xbe, 0xe3, 0xaf, 0x09, 0x3e,
  0xb8, 0x39, 0xa0, 0x3e, 0x6c, 0x8d, 0xca, 0xbc, 0x73, 0xdd, 0x57, 0x3c,
  0x28, 0x02, 0xea, 0x3c, 0x80, 0xfe, 0x46, 0x3e, 0xa6, 0xfd, 0x35, 0x3e,
  0x47, 0x73, 0x2a, 0xbe, 0x48, 0xa9, 0x7c, 0x3e, 0x05, 0x08, 0x9b, 0x3e,
  0xdb, 0xa6, 0x41, 0xbc, 0xef, 0xef, 0xf8, 0x3d, 0xfe, 0xfd, 0xb3, 0x3e,
  0x6d, 0x5f, 0x5f, 0xbe, 0xbd, 0x92, 0xf7, 0xbc, 0x3a, 0x0d, 0x31, 0x3e,
  0x4d, 0xf3, 0x50, 0x3e, 0x7f, 0x84, 0x92, 0xbe, 0x73, 0x4a, 0x9f, 0xbd,
  0x2b, 0x95, 0x96, 0xbe, 0x77, 0x5b, 0x92, 0x3c, 0xe8, 0x06, 0x82, 0xbd,
  0x92, 0xbd, 0xe2, 0x39, 0x3c, 0x49, 0xad, 0x3e, 0xc7, 0x5a, 0xfc, 0xbd,
  0xc9, 0xa5, 0x1a, 0x3e, 0x4f, 0xfd, 0x33, 0xbe, 0x21, 0x4e, 0x11, 0xbe,
  0x25, 0x5e, 0x5e, 0x3e, 0xb8, 0xf3, 0x90, 0x3e, 0xa9, 0x19, 0x36, 0xbd,
  0xf6, 0x06, 0x37, 0xbe, 0xf6, 0x00, 0xf5, 0x3e, 0x24, 0xe9, 0x76, 0x3e,
  0x83, 0x7d, 0x8e, 0x3d, 0x46, 0xbb, 0x68, 0xbe, 0x25, 0x26, 0x16, 0xbd,
  0x72, 0x54, 0xbd, 0x3d, 0x9f, 0xb7, 0xbb, 0xbb, 0x28, 0xef, 0x3e, 0xbe,
  0x0b, 0x75, 0x38, 0xba, 0xf6, 0xbe, 0x51, 0x3e, 0x50, 0x9b, 0xc1, 0xbd,
  0x68, 0x93, 0x88, 0x3e, 0xf2, 0x8c, 0x59, 0x3e, 0x82, 0x6d, 0xf2, 0x3d,
  0x7f, 0x1f, 0xea, 0xbd, 0x6a, 0x0c, 0x42, 0xbe, 0x3f, 0xc8, 0xf8, 0x3e,
  0x5c, 0xa9, 0x53, 0xbd, 0xdb, 0x07, 0x62, 0xbe, 0x34, 0x9a, 0x7a, 0x3d,
  0x19, 0x06, 0x56, 0xbd, 0xfa, 0xa9, 0x0f, 0x3e, 0xee, 0x9e, 0x40, 0x3e,
  0x19, 0xed, 0xd1, 0x3e, 0x90, 0x0c, 0xcc, 0x3d, 0x81, 0x97, 0x73, 0x3d,
  0xe2, 0xce, 0x56, 0x3e, 0xbb, 0x50, 0x04, 0xbd, 0x3f, 0x00, 0x44, 0x3e,
  0x60, 0xbc, 0x88, 0x3e, 0x73, 0x7d, 0xcc, 0x3d, 0xb2, 0x4a, 0x33, 0xbe,
  0x58, 0x98, 0x9b, 0xbd, 0xdc, 0xd0, 0x91, 0x3d, 0xb8, 0x4c, 0x6f, 0xbd,
  0xd0, 0x62, 0x02, 0xbe, 0xcd, 0x18, 0x57, 0xbe, 0x4e, 0xb0, 0x54, 0xbe,
  0x88, 0x6c, 0xa2, 0xbc, 0xf9, 0x83, 0xd6, 0xbd, 0x1d, 0xa3, 0x41, 0xbe,
  0x2e, 0xfd, 0x22, 0xbe, 0xa8, 0x67, 0x98, 0x3d, 0xd4, 0xa5, 0x53, 0x3e,
  0x76, 0x6f, 0x18, 0x3e, 0xfc, 0x1a, 0x23, 0xbd, 0x80, 0x2b, 0x3c, 0x3e,
  0x98, 0x8f, 0xd2, 0x3d, 0x2e, 0x46, 0x16, 0xbe, 0x30, 0x82, 0x22, 0x3d,
  0x28, 0x23, 0x22, 0x3d, 0x70, 0x30, 0x33, 0xbe, 0x1a, 0xce, 0x44, 0x3e,
  0xef, 0x92, 0x3d, 0xbe, 0xf6, 0x97, 0xd3, 0xbd, 0xfc, 0x37, 0x73, 0xbd,
  0x92, 0x47, 0x56, 0xbe, 0xb1, 0x4c, 0xe9, 0xbd, 0xd0, 0xab, 0x3d, 0x3e,
  0x3e, 0x98, 0x36, 0x3e, 0x80, 0xc7, 0xf2, 0xbd, 0x48, 0x51, 0xf9, 0x3d,
  0xdb, 0x01, 0x35, 0xbe, 0xe0, 0x36, 0x34, 0x3e, 0xf8, 0x18, 0x16, 0x3e,
  0xac, 0x6a, 0x8a, 0xbe, 0xa4, 0x1b, 0x45, 0xbe, 0x98, 0x60, 0x50, 0x3e,
  0x58, 0x7e, 0x8d, 0x3d, 0x02, 0xe5, 0x8b, 0x3d, 0xa5, 0x0a, 0x44, 0x3e,
  0xbe, 0x24, 0x6e, 0xbe, 0xd3, 0x6d, 0x2c, 0x3d, 0xdf, 0x32, 0x6f, 0x3e,
  0x3a, 0xc5, 0x11, 0x3a, 0x00, 0x20, 0x70, 0xbe, 0x69, 0x98, 0x7a, 0xbc,
  0xa4, 0x26, 0x64, 0xbe, 0x6f, 0xe8, 0x0c, 0x3e, 0x7a, 0xfa, 0x10, 0x3e,
  0xe5, 0xfd, 0x52, 0x3e, 0xb2, 0xd2, 0xff, 0xbd, 0x84, 0x3f, 0xb5, 0x3d,
  0x68, 0xe7, 0xb4, 0xbd, 0x52, 0xaa, 0xa9, 0xbe, 0x51, 0x1c, 0xe0, 0xbd,
  0xa8, 0x18, 0x50, 0x3e, 0x4e, 0xbc, 0xcc, 0xbb, 0xbd, 0xc7, 0x4a, 0x3c,
  0xb9, 0xb8, 0x87, 0xbe, 0x50, 0x63, 0xd1, 0xbd, 0x64, 0x2c, 0x66, 0x3c,
  0xdc, 0x6e, 0xe7, 0xbd, 0x47, 0x8e, 0x55, 0xbe, 0x08, 0x17, 0xd5, 0xbd,
  0xfa, 0x35, 0x2b, 0xbe, 0x8b, 0x45, 0xb5, 0xbd, 0xb6, 0xc3, 0xd9, 0x3d,
  0x22, 0x08, 0xac, 0x3e, 0x0d, 0x71, 0x92, 0x3e, 0xd4, 0x5b, 0x7e, 0x3e,
  0x6e, 0x0e, 0xf5, 0xbc, 0x44, 0xda, 0x76, 0x3e, 0xc7, 0x98, 0xed, 0x3d,
  0x64, 0xce, 0x14, 0x3e, 0x61, 0x4a, 0xea, 0xbc, 0xc1, 0x67, 0xa0, 0x3e,
  0x33, 0x30, 0xae, 0x3e, 0xf3, 0xe1, 0xae, 0x3d, 0xbe, 0xb5, 0xcb, 0x3e,
  0x48, 0x1f, 0x72, 0x3b, 0xd5, 0x35, 0xbb, 0x3e, 0x5a, 0x48, 0x54, 0xbe,
  0x07, 0xd5, 0x6f, 0x3e, 0xd7, 0x6a, 0xbf, 0x3e, 0x68, 0x8f, 0x77, 0x3e,
  0x05, 0x02, 0xdc, 0x3e, 0x30, 0xcd, 0x8d, 0x3e, 0x9d, 0x83, 0x73, 0x3e,
  0x97, 0xa4, 0x41, 0x3d, 0x86, 0x78, 0x9a, 0x3e, 0xae, 0x60, 0x98, 0x3e,
  0xcc, 0x86, 0xdc, 0xbd, 0xa5, 0x42, 0x08, 0x3e, 0x0f, 0x67, 0xcd, 0x3e,
  0x09, 0x31, 0x99, 0x3d, 0xc1, 0x07, 0xa3, 0x3e, 0xde, 0x59, 0x86, 0x3e,
  0xf4, 0x6c, 0x76, 0xbd, 0x04, 0x59, 0xd4, 0x3d, 0xf9, 0x95, 0xd0, 0xbc,
  0xd2, 0xa2, 0x33, 0xbe, 0xf0, 0xfa, 0xd2, 0x3d, 0x33, 0x7f, 0xd2, 0x3d,
  0x00, 0x03, 0xba, 0xba, 0x05, 0x09, 0xe1, 0xbd, 0x1a, 0xd7, 0x1a, 0xbe,
  0xe5, 0x7e, 0x4c, 0xbd, 0x04, 0xdf, 0xd6, 0x3d, 0xff, 0x67, 0x61, 0x3d,
  0x1e, 0x18, 0x3c, 0xbe, 0xfb, 0xa3, 0x54, 0xbe, 0x70, 0x04, 0x11, 0xbc,
  0x92, 0x96, 0x3d, 0xbe, 0xe5, 0x36, 0x81, 0xbd, 0xe8, 0x95, 0x7c, 0xbd,
  0xfc, 0x50, 0x03, 0x3e, 0x4c, 0x2a, 0xb2, 0xbd, 0x0c, 0xd5, 0x26, 0x3e,
  0x78, 0x57, 0xbb, 0x3d, 0xca, 0x13, 0xa0, 0xbd, 0xba, 0xa9, 0xf3, 0x3d,
  0xb0, 0x32, 0xcd, 0x3d, 0x6f, 0x9f, 0xd6, 0x3d, 0xfe, 0x9c, 0x4a, 0x3d,
  0x20, 0x34, 0x83, 0xbb, 0x17, 0x8b, 0x8e, 0x3d, 0x8e, 0xbf, 0x84, 0xbd,
  0x02, 0x8c, 0xc0, 0xbd, 0x60, 0x18, 0x25, 0x3e, 0x47, 0xc8, 0x44, 0xbe,
  0xd8, 0x13, 0x5f, 0x3d, 0x08, 0x14, 0xcf, 0x3c, 0xc4, 0x8e, 0x11, 0x3e,
  0x7a, 0x34, 0x90, 0xbd, 0xb0, 0xe0, 0x1b, 0xbe, 0x0a, 0xba, 0x02, 0xbe,
  0x68, 0x28, 0x88, 0xbc, 0x38, 0x33, 0xef, 0x3d, 0xae, 0x47, 0x35, 0xbe,
  0x90, 0xfb, 0x3e, 0xbd, 0x22, 0xae, 0xaf, 0xbd, 0x60, 0x55, 0x88, 0x3b,
  0x48, 0xd8, 0xc9, 0x3c, 0xa8, 0x6d, 0x48, 0xbe, 0xde, 0x5f, 0x12, 0xbe,
  0xe0, 0x80, 0x4b, 0x3d, 0xb8, 0xfa, 0xe8, 0x3d, 0xa0, 0xae, 0x2e, 0xbe,
  0x5c, 0x30, 0x02, 0x3e, 0xa0, 0x06, 0x6a, 0x3d, 0xec, 0xff, 0x90, 0xbd,
  0xbb, 0x49, 0xc5, 0xbd, 0x74, 0x24, 0x04, 0x3d, 0x94, 0x81, 0x0b, 0x3d,
  0xf4, 0xe8, 0xf2, 0x3d, 0xd0, 0x8d, 0xf9, 0x3c, 0xe4, 0x2e, 0x07, 0x3e,
  0x7e, 0x4e, 0x26, 0xbe, 0x0e, 0x70, 0x47, 0xbe, 0x5b, 0x33, 0xd3, 0xbd,
  0x60, 0xde, 0x08, 0x3e, 0x21, 0x55, 0x06, 0x3e, 0xf7, 0xd9, 0xc9, 0xbe,
  0xe5, 0x00, 0xca, 0xbe, 0x29, 0xa8, 0x18, 0x3e, 0x54, 0x65, 0x14, 0xbe,
  0x6c, 0xa8, 0xa9, 0xb7, 0x0a, 0xeb, 0x0e, 0x3e, 0xe3, 0x6d, 0x44, 0x3e,
  0xfe, 0x40, 0xbb, 0xbe, 0x88, 0x6a, 0x7e, 0x3e, 0x68, 0xfd, 0x0c, 0xbe,
  0xfa, 0x22, 0x23, 0xbe, 0x42, 0xe2, 0xe5, 0xbe, 0x56, 0xe7, 0x12, 0x3e,
  0x1c, 0xe4, 0x17, 0xbc, 0x0a, 0x6d, 0xfd, 0x3a, 0x79, 0x15, 0xab, 0x3e,
  0x0b, 0x5d, 0x88, 0x3d, 0x6e, 0x0c, 0x9b, 0xbb, 0xed, 0x49, 0x77, 0xbd,
  0x13, 0xf8, 0xf6, 0xbd, 0x60, 0xc5, 0x70, 0x3e, 0x72, 0x08, 0x1d, 0x3e,
  0x33, 0x91, 0x0d, 0x3d, 0x37, 0x20, 0x27, 0x3d, 0x4b, 0x15, 0xca, 0xbe,
  0x00, 0xaf, 0x93, 0xbd, 0xad, 0xe7, 0x19, 0x3e, 0xd3, 0x1b, 0x6e, 0xbd,
  0x5d, 0x8d, 0x1b, 0xbd, 0xc9, 0xa6, 0xa6, 0xbd, 0x62, 0xdc, 0x0e, 0x3c,
  0xc6, 0x62, 0x49, 0xbe, 0x11, 0xed, 0x31, 0xbe, 0x57, 0x26, 0xc5, 0xbd,
  0x3c, 0xde, 0x8d, 0x3d, 0x50, 0x3b, 0xf9, 0xbc, 0x92, 0x37, 0x11, 0xbe,
  0x2a, 0x6c, 0x15, 0x3e, 0xc0, 0xea, 0x2d, 0x3d, 0xe0, 0x22, 0xcf, 0xbb,
  0x14, 0x26, 0x84, 0xbd, 0x2b, 0x60, 0xe5, 0xbd, 0x50, 0xbb, 0x01, 0x3e,
  0xd4, 0x2d, 0x21, 0x3e, 0x5c, 0x70, 0x90, 0x3d, 0x52, 0xa7, 0x2b, 0xbe,
  0x21, 0xf0, 0x3f, 0xbe, 0x22, 0x17, 0x43, 0xbe, 0xc0, 0xf1, 0x48, 0xbe,
  0x24, 0x5b, 0xfb, 0x3d, 0x5e, 0x8d, 0x21, 0xbe, 0xcc, 0x81, 0xe7, 0x3d,
  0x42, 0x8b, 0x50, 0x3e, 0x60, 0xb3, 0x56, 0x3e, 0xcc, 0x78, 0x16, 0xbe,
  0xd8, 0xe3, 0x73, 0x3d, 0xfc, 0xf8, 0x86, 0xbd, 0x8b, 0x3a, 0x47, 0xbe,
  0x9c, 0xf7, 0x42, 0xbe, 0x58, 0x3e, 0xee, 0x3c, 0x2b, 0x91, 0x02, 0xbe,
  0x0c, 0x1b, 0x76, 0xbd, 0x2c, 0x00, 0x40, 0x3e, 0x28, 0xb6, 0x46, 0xbe,
  0x91, 0x2d, 0xe1, 0xbd, 0xb8, 0x9d, 0xd6, 0xbe, 0x7a, 0x05, 0xa1, 0x3e,
  0xd9, 0x68, 0xd9, 0x3d, 0x97, 0x75, 0xb7, 0x3e, 0xf1, 0xa3, 0x87, 0x3d,
  0x91, 0xa3, 0x99, 0x3d, 0x57, 0xd3, 0xdb, 0xbd, 0x71, 0x1e, 0x26, 0x3e,
  0x61, 0xba, 0xa5, 0xbd, 0x95, 0x4e, 0xb6, 0xbe, 0xbb, 0x5f, 0x35, 0xbe,
  0x82, 0x49, 0x42, 0xbd, 0x55, 0x99, 0xf6, 0x3d, 0xb6, 0xee, 0xa3, 0x3e,
  0x0a, 0x78, 0xb9, 0x3c, 0x80, 0x94, 0x53, 0x3e, 0x45, 0xeb, 0x41, 0x3e,
  0x57, 0x41, 0x34, 0x3d, 0xbc, 0x0d, 0x7e, 0xbd, 0x85, 0x6c, 0x79, 0x3e,
  0xe6, 0x16, 0x56, 0x3e, 0x22, 0x29, 0xcb, 0xbd, 0x28, 0x3d, 0xd1, 0xbc,
  0xd2, 0xd2, 0xe2, 0xbc, 0x62, 0x1d, 0xc8, 0x3d, 0x12, 0x1e, 0x98, 0x3e,
  0x07, 0x54, 0x6f, 0xbd, 0x0f, 0x66, 0x1e, 0xbe, 0x60, 0x8c, 0x02, 0xbe,
  0x10, 0xb4, 0x61, 0x3d, 0x89, 0xad, 0x41, 0x3e, 0x4b, 0x88, 0xf2, 0x3d,
  0x53, 0x93, 0xba, 0x3d, 0x8d, 0x0b, 0x42, 0x3e, 0x07, 0xff, 0x9e, 0xbb,
  0xd5, 0xb0, 0xac, 0x3e, 0x32, 0x07, 0x2e, 0xbe, 0x36, 0xd4, 0x21, 0x3e,
  0xbb, 0xe7, 0x13, 0x3e, 0xf1, 0x4d, 0x82, 0x3e, 0x9f, 0x7c, 0x60, 0xbd,
  0x5e, 0x81, 0x16, 0x3e, 0xad, 0xcf, 0x4a, 0xbd, 0xdf, 0xf5, 0x0d, 0x3d,
  0x6e, 0xb0, 0x17, 0xbe, 0xcf, 0x60, 0x77, 0x3d, 0xfa, 0x97, 0xa3, 0x3d,
  0x99, 0x71, 0xf9, 0x3b, 0x78, 0xbb, 0x21, 0x3e, 0x6a, 0xc8, 0x36, 0xbe,
  0x3b, 0xc4, 0x17, 0xbe, 0x5e, 0xfc, 0x1f, 0xbe, 0x58, 0xd2, 0x2a, 0x3c,
  0xb1, 0x2b, 0x48, 0xbd, 0x6c, 0xbb, 0xaf, 0xbd, 0x81, 0x88, 0x6f, 0xbc,
  0x26, 0x33, 0xa3, 0x3d, 0x2e, 0x47, 0x55, 0x3e, 0x84, 0x68, 0xc8, 0x3d,
  0xaa, 0x80, 0x15, 0xbe, 0x98, 0xc1, 0x82, 0xbe, 0x48, 0xcb, 0x8e, 0xbd,
  0x87, 0x6d, 0xfa, 0xbe, 0x50, 0x5e, 0x70, 0x3d, 0x78, 0xee, 0x02, 0xbe,
  0xec, 0x11, 0x0a, 0xbe, 0xd3, 0x10, 0x32, 0x3e, 0x1b, 0x2a, 0x28, 0xbe,
  0xea, 0x75, 0xe2, 0x3a, 0xe6, 0x51, 0x40, 0x3d, 0xac, 0xec, 0x8b, 0x3d,
  0xde, 0xb8, 0x84, 0xbe, 0xfb, 0xc3, 0x4d, 0x3e, 0x30, 0x32, 0xc1, 0x3c,
  0x45, 0x2e, 0xb7, 0xbd, 0x2a, 0xeb, 0x91, 0x3e, 0x66, 0x9c, 0x55, 0x3e,
  0x62, 0xe6, 0x1e, 0x3e, 0xfe, 0x11, 0xe7, 0xbe, 0xd8, 0xd2, 0x8e, 0x3e,
  0x67, 0xdb, 0x8f, 0x3e, 0x92, 0x08, 0xcb, 0x3d, 0x51, 0xdf, 0xda, 0x3d,
  0x89, 0xf7, 0x8f, 0x3d, 0xce, 0x10, 0x70, 0xbd, 0x1b, 0x15, 0x35, 0xbd,
  0x19, 0xd4, 0x64, 0x3e, 0xa4, 0x97, 0x0d, 0x3d, 0x12, 0x60, 0xca, 0xbd,
  0x3e, 0x79, 0xa6, 0x3d, 0x5b, 0x73, 0x51, 0xbe, 0x40, 0xe7, 0x85, 0x3c,
  0xa2, 0xab, 0x61, 0x3e, 0xfe, 0x94, 0xa7, 0x3d, 0x4e, 0xfd, 0xe9, 0xbe,
  0x0c, 0x6a, 0xbb, 0x3e, 0xa5, 0x7d, 0x62, 0x3e, 0xc8, 0x74, 0x2a, 0x3e,
  0xa4, 0xb9, 0x32, 0x3e, 0xeb, 0x1c, 0xcf, 0x3c, 0x1d, 0xf1, 0x3f, 0x3d,
  0xca, 0x24, 0xa9, 0x3e, 0xdc, 0x66, 0x81, 0x3e, 0x88, 0xcd, 0x76, 0xbe,
  0x58, 0x6e, 0x48, 0x3c, 0x28, 0xf6, 0xc1, 0x3e, 0x54, 0xa1, 0x56, 0x3e,
  0xb4, 0x28, 0x85, 0x3e, 0x6c, 0xb7, 0x6f, 0x3e, 0x26, 0xab, 0xc7, 0xbd,
  0xb3, 0x79, 0x5e, 0xbd, 0x74, 0xfe, 0x15, 0x3e, 0x61, 0x72, 0x0c, 0xbd,
  0x95, 0x0f, 0x48, 0x3e, 0xcf, 0x8a, 0xa6, 0x3e, 0xb3, 0x1a, 0xd9, 0x3d,
  0x23, 0x41, 0xb1, 0xbd, 0x12, 0x19, 0x19, 0x3e, 0x65, 0x7c, 0x78, 0x3e,
  0x71, 0x6a, 0xc3, 0x3e, 0xeb, 0xae, 0x89, 0xbd, 0x50, 0x16, 0xf8, 0x3d,
  0x88, 0x37, 0x08, 0x3f, 0xf0, 0x26, 0x37, 0x3e, 0xe6, 0x53, 0x61, 0x3e,
  0x29, 0x80, 0x8a, 0x3e, 0xf5, 0x1c, 0x4d, 0x3e, 0x3c, 0xd1, 0x93, 0xbe,
  0x2e, 0x01, 0x4f, 0xbe, 0x70, 0x21, 0xe1, 0x3d, 0xc4, 0x31, 0x16, 0xbe,
  0x2a, 0x75, 0x31, 0x3e, 0x8e, 0x90, 0xac, 0x3d, 0x02, 0x69, 0xb2, 0xbe,
  0xaa, 0x3b, 0xc5, 0xbe, 0x90, 0x2b, 0xbd, 0xbd, 0xc6, 0x4b, 0x5a, 0x3e,
  0xd5, 0xab, 0xde, 0xbe, 0x88, 0xcb, 0xc2, 0xbe, 0xbb, 0x9a, 0x87, 0xbe,
  0x0a, 0x3b, 0x34, 0x3e, 0xa1, 0x32, 0x37, 0x3e, 0xf2, 0xeb, 0xce, 0x3d,
  0x65, 0x29, 0xc0, 0xbd, 0xa8, 0xf7, 0x4f, 0xbe, 0x03, 0x7c, 0xb4, 0xbe,
  0xea, 0xf8, 0x63, 0xbe, 0x68, 0x94, 0x61, 0x3e, 0x75, 0x90, 0x61, 0x3d,
  0x96, 0xf4, 0xd1, 0xbe, 0x9a, 0xc0, 0x12, 0xbc, 0x63, 0xef, 0x54, 0xbe,
  0xd6, 0x6e, 0x30, 0x3e, 0xb4, 0x53, 0x2e, 0x3e, 0xfa, 0x3a, 0x50, 0xbd,
  0x1a, 0x28, 0xf2, 0xbe, 0x74, 0x2c, 0xef, 0xbd, 0x46, 0x9b, 0x77, 0xbc,
  0x02, 0x71, 0x85, 0xbd, 0xba, 0xf9, 0xe6, 0xbe, 0xf0, 0xc5, 0xca, 0xbe,
  0xb2, 0x7f, 0x0e, 0x3e, 0xea, 0xf5, 0x0d, 0x3e, 0x50, 0x1c, 0x9b, 0xbd,
  0xb9, 0x97, 0x98, 0xbd, 0x05, 0xe9, 0x15, 0xbe, 0xf3, 0x9f, 0x9c, 0xbe,
  0x69, 0xac, 0x6e, 0x3e, 0x9e, 0x73, 0x84, 0xbd, 0x55, 0xfe, 0x6d, 0xbe,
  0x38, 0x52, 0xc8, 0xbe, 0x8e, 0x0d, 0x56, 0xbe, 0xc8, 0xc4, 0x00, 0xbe,
  0x96, 0x8a, 0x65, 0x3e, 0x80, 0xb3, 0x79, 0x3e, 0xa7, 0xae, 0x00, 0xbd,
  0x65, 0x71, 0xb6, 0x3c, 0x05, 0xef, 0xb7, 0xbd, 0x11, 0xf7, 0x57, 0xbe,
  0xc0, 0xf0, 0xfb, 0x3d, 0x13, 0x9e, 0x50, 0x3e, 0x4b, 0xd5, 0xe4, 0xbd,
  0xd2, 0x76, 0xd5, 0xbd, 0x79, 0x51, 0xb6, 0xbe, 0x08, 0x37, 0xec, 0x3d,
  0x81, 0x3e, 0x18, 0x3d, 0xb0, 0x70, 0x0b, 0xbe, 0x71, 0xee, 0x11, 0xbe,
  0xef, 0x80, 0xaa, 0xbe, 0x6c, 0xe7, 0x09, 0xbd, 0x53, 0xef, 0x10, 0xbe,
  0xd7, 0x75, 0x21, 0xbe, 0xb3, 0xbe, 0x22, 0xbd, 0xe0, 0xd0, 0x61, 0xbd,
  0x43, 0x7b, 0xb5, 0x3d, 0x7e, 0xdf, 0xd7, 0x3c, 0xe3, 0x3c, 0x0a, 0xbe,
  0x68, 0x17, 0x19, 0xbe, 0xf7, 0xcf, 0x09, 0xbe, 0xd0, 0x98, 0x92, 0x3d,
  0x02, 0x75, 0x31, 0x3e, 0xc1, 0xd6, 0xfc, 0x3d, 0x9e, 0xbb, 0xcc, 0x3d,
  0x60, 0x56, 0x13, 0xbc, 0xcb, 0xd1, 0x2a, 0xbe, 0x9b, 0x82, 0x49, 0xbe,
  0x10, 0x5f, 0xd4, 0x3d, 0x10, 0xb8, 0xfa, 0xbc, 0x14, 0x4e, 0x44, 0xbd,
  0x6a, 0xa7, 0xcf, 0xbd, 0x94, 0x97, 0xc8, 0xbd, 0x8d, 0xdc, 0xff, 0xbd,
  0xba, 0x47, 0x1e, 0x3d, 0xf5, 0x63, 0x47, 0xbe, 0x08, 0x97, 0x37, 0xbe,
  0x89, 0x52, 0x6f, 0x3b, 0xe8, 0x20, 0xa3, 0x3c, 0xb0, 0x63, 0xf9, 0x3c,
  0x9c, 0x81, 0x59, 0xbd, 0x07, 0xb7, 0x04, 0x3e, 0x86, 0xb5, 0x2d, 0xbe,
  0xf6, 0xe1, 0x7e, 0x3d, 0x19, 0x44, 0xdb, 0xbe, 0xd0, 0x28, 0x09, 0xbe,
  0x20, 0x97, 0x05, 0x3c, 0xbc, 0x1a, 0xb1, 0x3a, 0x92, 0x22, 0x70, 0x3e,
  0x85, 0xb8, 0xa8, 0xbd, 0xde, 0x1d, 0x02, 0xbe, 0xb9, 0xed, 0x53, 0x3e,
  0xe1, 0xf6, 0x25, 0xbe, 0x16, 0x76, 0x0a, 0xbe, 0x49, 0x37, 0x19, 0x3e,
  0xb0, 0x48, 0x70, 0x3c, 0xc8, 0xf9, 0xa4, 0x3d, 0xce, 0x10, 0xb2, 0x3d,
  0xd7, 0x13, 0xf3, 0x3d, 0x8c, 0x19, 0x4f, 0x3e, 0x91, 0xe8, 0xf2, 0xbe,
  0xd4, 0x51, 0x94, 0x3c, 0x83, 0x8c, 0x2e, 0x3e, 0x84, 0x67, 0xbb, 0x3e,
  0xd1, 0xda, 0xa9, 0x3e, 0xed, 0xce, 0xa3, 0x3a, 0x95, 0x7e, 0xc2, 0x3c,
  0xd8, 0x1d, 0xd5, 0xbd, 0x98, 0x59, 0xb1, 0x3e, 0x20, 0x85, 0x99, 0x3d,
  0xa7, 0xb8, 0x00, 0xbd, 0x39, 0x2e, 0x0d, 0x3e, 0xfc, 0x2c, 0x14, 0xbd,
  0x37, 0x38, 0x29, 0xbe, 0xba, 0xd7, 0xf3, 0x3b, 0xf5, 0x79, 0x91, 0x3e,
  0x56, 0xf6, 0xff, 0xff, 0x04, 0x00, 0x00, 0x00, 0xd0, 0x07, 0x00, 0x00,
  0xdb, 0x3d, 0x6a, 0x3c, 0x49, 0xbb, 0x2f, 0xbe, 0x62, 0x2c, 0x17, 0xbf,
  0x41, 0xe5, 0x2f, 0x3e, 0x53, 0x4c, 0x3a, 0xbf, 0x6b, 0xfd, 0x96, 0xbe,
  0x2c, 0x97, 0x94, 0x3e, 0xb6, 0x5c, 0x88, 0x3e, 0x1b, 0xbb, 0xf3, 0xbe,
  0x1b, 0x2d, 0xb0, 0xbe, 0x3e, 0x73, 0x1c, 0x3e, 0x7a, 0xe9, 0x30, 0xbc,
  0x01, 0x1f, 0xf3, 0x3d, 0x6a, 0xed, 0x5a, 0xbe, 0x47, 0x0e, 0x09, 0x3d,
  0x4d, 0xa5, 0x97, 0xbe, 0xad, 0x37, 0xa5, 0x3d, 0xf5, 0xfd, 0x8d, 0x3d,
  0xe6, 0xc6, 0x01, 0xbf, 0xc3, 0xb5, 0xe0, 0xbe, 0xc2, 0xb9, 0x49, 0x3e,
  0xeb, 0x7d, 0xe7, 0xbe, 0xa4, 0xa2, 0x90, 0x3e, 0x6f, 0x8f, 0x38, 0x3e,
  0xac, 0x9a, 0x1e, 0xbf, 0xfa, 0xb2, 0xcf, 0xbd, 0xc6, 0xd4, 0x68, 0xbe,
  0xb3, 0x2a, 0xee, 0x3d, 0x7e, 0xfa, 0xe9, 0xbd, 0x3c, 0xf0, 0x55, 0x3c,
  0xc4, 0xd3, 0xd9, 0xbe, 0x95, 0xca, 0x24, 0x3e, 0xeb, 0xef, 0x57, 0x3e,
  0x6b, 0xad, 0x21, 0x3e, 0x9f, 0x38, 0x71, 0xbe, 0xef, 0xd6, 0x25, 0xbd,
  0xa5, 0xad, 0xe8, 0x3c, 0x03, 0x15, 0xd7, 0x3e, 0x61, 0xf9, 0x5b, 0x3e,
  0xab, 0x57, 0x8b, 0x3e, 0x95, 0x2d, 0x8f, 0xbe, 0x32, 0xda, 0xc7, 0x3c,
  0x6a, 0x95, 0x4f, 0xbe, 0x80, 0x33, 0x43, 0xbe, 0xb0, 0x2d, 0xff, 0xbe,
  0x04, 0x79, 0xe1, 0xbd, 0xe4, 0xad, 0x06, 0xbf, 0xaa, 0x54, 0x58, 0xbf,
  0xbc, 0x4d, 0x9b, 0xbd, 0x24, 0x64, 0x68, 0x3d, 0x12, 0x2e, 0xaa, 0x3e,
  0x3a, 0xaa, 0xe7, 0x3d, 0x39, 0xea, 0x10, 0xbf, 0xa6, 0xcc, 0xa3, 0x3d,
  0x59, 0x6d, 0x71, 0xbc, 0x2b, 0xd5, 0x3b, 0xbf, 0x63, 0x4a, 0x30, 0xbf,
  0xd5, 0x26, 0x53, 0xbe, 0x6d, 0x61, 0x20, 0xbe, 0x30, 0x45, 0x9d, 0xbe,
  0x46, 0x6b, 0xce, 0x3d, 0xad, 0xaa, 0x1f, 0xbe, 0x34, 0x61, 0xf7, 0x3e,
  0x28, 0x7a, 0x73, 0xbe, 0x80, 0xaf, 0xf3, 0xbe, 0x62, 0x0c, 0x3c, 0xbf,
  0xd2, 0x60, 0xe0, 0x3e, 0x5b, 0x7e, 0x03, 0xbf, 0x0c, 0xe9, 0x0b, 0xbc,
  0xcc, 0xeb, 0x38, 0xbe, 0xd3, 0x53, 0xb3, 0x3d, 0x54, 0x58, 0x87, 0x3e,
  0xed, 0x98, 0x3f, 0xbe, 0x40, 0x47, 0x5c, 0xbd, 0xb0, 0x39, 0xe1, 0xbd,
  0xd4, 0x98, 0x8f, 0x3e, 0x1b, 0x05, 0x20, 0xbf, 0x21, 0xa7, 0x88, 0xbe,
  0xd0, 0xbd, 0xf5, 0xbd, 0x26, 0x7d, 0xaf, 0xbc, 0x6e, 0xf2, 0x12, 0xbe,
  0xcb, 0x1f, 0x0a, 0x3e, 0xed, 0x89, 0xf2, 0x3e, 0x80, 0xe9, 0xaf, 0xbc,
  0xa2, 0xbc, 0x59, 0x3e, 0x68, 0x62, 0xe1, 0xbd, 0x34, 0x0d, 0xe6, 0xbd,
  0x9e, 0x0e, 0xbe, 0xbe, 0xd3, 0xcd, 0xd4, 0xbc, 0xe4, 0x91, 0x34, 0x3d,
  0xa4, 0x10, 0x2a, 0xbf, 0xc3, 0x95, 0x5f, 0x3e, 0x08, 0x3c, 0x25, 0xbf,
  0x20, 0x31, 0xe5, 0x3d, 0xe0, 0x8d, 0xa1, 0xbc, 0xdd, 0xf3, 0xf6, 0xbe,
  0x62, 0xf7, 0x25, 0xbf, 0xac, 0xa4, 0xfe, 0xbe, 0x2c, 0xce, 0xea, 0xbd,
  0x7c, 0xef, 0x5e, 0xb9, 0x9e, 0x7e, 0x21, 0x3e, 0x05, 0x81, 0x29, 0xbe,
  0x0e, 0xaa, 0x81, 0x3e, 0x98, 0xa5, 0xcb, 0xbc, 0xee, 0x48, 0xd6, 0x3d,
  0xcb, 0x33, 0x5f, 0xbe, 0x3c, 0x38, 0x1a, 0xbf, 0x4f, 0xe1, 0x8a, 0xbc,
  0xc8, 0x1d, 0x29, 0xbf, 0x94, 0x2f, 0xdd, 0xbd, 0x8d, 0x86, 0xb1, 0xbe,
  0x43, 0xc6, 0xbd, 0xbd, 0x4c, 0x30, 0xac, 0xbc, 0x27, 0x24, 0x26, 0xbd,
  0x97, 0x13, 0x38, 0xbf, 0x3b, 0xfd, 0x2b, 0xbe, 0xa4, 0x5a, 0x4c, 0xbe,
  0x7c, 0x79, 0x8b, 0x3d, 0x72, 0x38, 0x2c, 0x3e, 0x88, 0xa8, 0x83, 0xbe,
  0x39, 0xcb, 0x3a, 0xbf, 0x83, 0x6e, 0x11, 0xbe, 0x9b, 0xab, 0xdd, 0xbe,
  0xc0, 0x52, 0x7f, 0x3b, 0x5f, 0xdf, 0x73, 0xbf, 0x25, 0xc1, 0x0b, 0xbf,
  0x0f, 0xe6, 0x28, 0x3d, 0xfe, 0xbd, 0x03, 0x38, 0x7a, 0x54, 0xdf, 0x3d,
  0xbe, 0xa6, 0xc0, 0x3d, 0xe8, 0x27, 0x5c, 0x3d, 0x86, 0x99, 0xf6, 0xbe,
  0x23, 0x73, 0x5d, 0xbe, 0xcd, 0x75, 0xce, 0x3d, 0xe6, 0x66, 0x20, 0xbd,
  0xaa, 0xe9, 0x21, 0x3c, 0x85, 0x96, 0x4f, 0x3e, 0x62, 0x27, 0xb5, 0xbe,
  0xee, 0xc1, 0x96, 0xbd, 0xd5, 0x6d, 0x83, 0xbe, 0xe4, 0x9d, 0xa5, 0xbe,
  0xc7, 0xeb, 0x60, 0x3e, 0xfe, 0xd5, 0x22, 0xbe, 0x6d, 0x24, 0xbc, 0xbe,
  0x2d, 0xd2, 0x27, 0x3d, 0xbb, 0x1d, 0x2d, 0xbe, 0xd7, 0xb0, 0x8b, 0x3e,
  0x32, 0xc4, 0x91, 0x3e, 0x78, 0x8a, 0x03, 0xbe, 0x56, 0x83, 0xc8, 0x3d,
  0x51, 0xb2, 0x88, 0xbe, 0x84, 0x3e, 0x69, 0x3d, 0xa3, 0x16, 0x07, 0xbc,
  0xd4, 0x6f, 0x13, 0x3d, 0x5b, 0xd4, 0xaa, 0x3d, 0xde, 0xa1, 0x30, 0x3e,
  0x11, 0x2e, 0x36, 0x3e, 0x37, 0x84, 0x89, 0x3d, 0xfc, 0x6f, 0x6c, 0x3e,
  0xd7, 0x40, 0x49, 0xbe, 0xa4, 0xb0, 0x07, 0xbf, 0xf0, 0xe8, 0x43, 0xbd,
  0x1f, 0x88, 0x75, 0xbf, 0x45, 0x86, 0x14, 0x3e, 0x4f, 0x73, 0x4b, 0xbe,
  0x50, 0xe0, 0x8e, 0x3d, 0x27, 0x09, 0x52, 0xbf, 0xca, 0xab, 0x5c, 0x3e,
  0x89, 0x1e, 0x2f, 0xbe, 0xbf, 0x40, 0xcf, 0x3d, 0x08, 0xd3, 0x68, 0xbb,
  0x06, 0x2b, 0x10, 0xbf, 0xe6, 0x1f, 0xd9, 0xbd, 0x99, 0x9c, 0x1c, 0xbd,
  0x6d, 0x49, 0xe1, 0xbe, 0x3e, 0xc4, 0x60, 0xbf, 0xa2, 0x7d, 0x05, 0x3e,
  0xc2, 0x9b, 0x80, 0x3e, 0xd8, 0xaf, 0x56, 0xbd, 0x2d, 0xb5, 0x44, 0x3e,
  0x8e, 0x5d, 0x88, 0x3d, 0xb0, 0x5b, 0x88, 0x3d, 0x49, 0x92, 0x17, 0xbf,
  0xf1, 0x65, 0xf0, 0xbe, 0xa8, 0x78, 0x15, 0xbf, 0x44, 0x32, 0x2d, 0x3d,
  0x15, 0xa6, 0xb9, 0x3d, 0x5a, 0x93, 0x47, 0x3e, 0xa0, 0x8d, 0xde, 0x3d,
  0x24, 0x63, 0x2c, 0xbe, 0x91, 0xe7, 0x0f, 0xbe, 0xc0, 0xed, 0x24, 0xbe,
  0x69, 0x54, 0x8f, 0x3e, 0x23, 0x5f, 0xea, 0x3d, 0xc4, 0xcb, 0x25, 0x3d,
  0x2a, 0x53, 0xa3, 0xbd, 0x56, 0x2e, 0x02, 0xbe, 0xc0, 0x7b, 0x20, 0x3c,
  0x26, 0x8d, 0x0b, 0x3e, 0x1a, 0x39, 0x22, 0x3e, 0x19, 0x2a, 0x47, 0xbd,
  0x10, 0xdd, 0x96, 0xbe, 0x9f, 0xe3, 0xbf, 0x3d, 0xdb, 0x6d, 0x5d, 0xbe,
  0x7e, 0xc0, 0x9b, 0x3e, 0x9a, 0xc4, 0x89, 0x3e, 0x18, 0xca, 0xc4, 0xbd,
  0x39, 0xd6, 0xee, 0xbe, 0x5b, 0x83, 0xf9, 0x3d, 0xbd, 0x43, 0x54, 0x3e,
  0x3f, 0xbd, 0x55, 0x3e, 0x9f, 0xb0, 0xa6, 0x3a, 0xf7, 0xbe, 0x00, 0xbd,
  0xd0, 0xe4, 0x09, 0xbe, 0xc7, 0xff, 0xb2, 0x3d, 0xb3, 0x1d, 0x80, 0x3e,
  0x6c, 0x47, 0x68, 0xbe, 0x96, 0xc6, 0x20, 0x3c, 0x25, 0x01, 0x05, 0xbd,
  0x7b, 0xe6, 0x12, 0x3e, 0xeb, 0x0c, 0x80, 0x3d, 0xb6, 0x92, 0xb4, 0x3d,
  0x65, 0x5d, 0x27, 0xbe, 0x35, 0xaa, 0x52, 0x3e, 0x88, 0xa2, 0x97, 0x3e,
  0x6b, 0xf0, 0xb2, 0x3d, 0xe7, 0x61, 0x3c, 0x3c, 0x7c, 0xa7, 0xe8, 0xbd,
  0x41, 0x89, 0x0e, 0xbe, 0xb8, 0x79, 0x1a, 0xbd, 0x41, 0x94, 0x0c, 0x3e,
  0xad, 0xeb, 0x7e, 0x3e, 0xb0, 0xfa, 0x87, 0x3d, 0x55, 0x30, 0x94, 0x3d,
  0xdb, 0x8c, 0xb9, 0x3e, 0x55, 0xee, 0x88, 0xbe, 0x61, 0x0e, 0x75, 0x3f,
  0xc6, 0xa4, 0xbb, 0xbc, 0x7f, 0xfd, 0x5f, 0xbe, 0x9f, 0x35, 0x9d, 0x3e,
  0x34, 0x7b, 0x9d, 0xbd, 0x88, 0xc0, 0x03, 0x3e, 0xfe, 0x88, 0xf0, 0xbd,
  0x5e, 0xad, 0x96, 0x3e, 0x46, 0x2a, 0xc0, 0x3e, 0xbc, 0x57, 0xfb, 0x3c,
  0x80, 0xe7, 0xc1, 0xbd, 0xfd, 0x93, 0xef, 0xbd, 0x98, 0x2d, 0x49, 0x3d,
  0x4e, 0xd0, 0x4d, 0xbe, 0xdd, 0xa8, 0x66, 0x3e, 0xd3, 0x5e, 0x13, 0xbe,
  0xc3, 0xf6, 0x5c, 0x3e, 0xe8, 0x0e, 0x08, 0xbe, 0x26, 0xef, 0x43, 0x3d,
  0xe4, 0xf0, 0x65, 0xbe, 0x4f, 0x75, 0xa0, 0x3e, 0x13, 0xce, 0x51, 0x3e,
  0xe1, 0x68, 0x60, 0xbe, 0xdc, 0x07, 0x4e, 0xbd, 0xa0, 0x5c, 0xf3, 0x3d,
  0x9c, 0x98, 0x69, 0x3e, 0x57, 0x5e, 0xca, 0x3e, 0x9c, 0x6c, 0x5b, 0xbe,
  0x35, 0x3c, 0xbd, 0x3e, 0x60, 0x4c, 0x26, 0xbe, 0x78, 0x7d, 0x3a, 0xbc,
  0x1b, 0x2e, 0x89, 0xbd, 0x4f, 0x35, 0x29, 0x3e, 0x8a, 0x67, 0x59, 0xbe,
  0xaa, 0x6b, 0x77, 0x3e, 0xfd, 0x87, 0x3a, 0xbe, 0x49, 0x2c, 0x15, 0x3e,
  0x96, 0xdd, 0x42, 0xbe, 0xb9, 0x55, 0x1d, 0xbd, 0x6e, 0x17, 0xc6, 0x3e,
  0x25, 0x20, 0x67, 0xbe, 0x29, 0xea, 0x10, 0xbe, 0x79, 0x8e, 0x4b, 0xbe,
  0x9f, 0x39, 0x03, 0x3d, 0xbc, 0x1b, 0x2a, 0x3d, 0xad, 0x2e, 0xfa, 0xbd,
  0x7a, 0x38, 0xea, 0xbd, 0x64, 0x8b, 0x13, 0x3e, 0x3a, 0xa7, 0x15, 0x3e,
  0x11, 0xea, 0x22, 0x3e, 0x4b, 0xd1, 0x21, 0xbe, 0xcc, 0xdc, 0x52, 0x3e,
  0x32, 0x02, 0x9d, 0xbd, 0x5c, 0x57, 0x51, 0xbd, 0x1a, 0xb2, 0x53, 0x3e,
  0x64, 0x9b, 0x4e, 0x3d, 0x23, 0x05, 0xf9, 0x3c, 0x65, 0x1f, 0x18, 0xbd,
  0x6a, 0x89, 0x91, 0x3e, 0xe7, 0xd9, 0x23, 0x3b, 0x0f, 0xfa, 0x63, 0xbe,
  0x0c, 0x1b, 0x62, 0xbe, 0xa0, 0x1d, 0x68, 0x3e, 0x23, 0x56, 0x98, 0x3e,
  0x9f, 0x16, 0xcc, 0x3d, 0xe4, 0xd6, 0x1e, 0x3e, 0x07, 0x2b, 0xfa, 0xbd,
  0x56, 0x73, 0x18, 0xbe, 0xcb, 0x7b, 0x2a, 0xbe, 0x11, 0x6b, 0xfb, 0x3d,
  0xac, 0x76, 0xa8, 0x3d, 0x1b, 0xc9, 0x64, 0x3d, 0x50, 0x2d, 0x9c, 0x3d,
  0x0f, 0x95, 0x55, 0x3e, 0xc7, 0xc6, 0xf8, 0xbd, 0xb2, 0xa0, 0xc6, 0xbd,
  0x0d, 0x1a, 0xef, 0xbd, 0xbf, 0x60, 0x62, 0x3e, 0x83, 0x54, 0x0c, 0x3e,
  0xb6, 0x17, 0x91, 0x3e, 0x25, 0xb7, 0xf4, 0x3d, 0xff, 0x2c, 0x3f, 0xbd,
  0xcc, 0x0c, 0x53, 0xbc, 0xb8, 0x86, 0x21, 0xbe, 0xba, 0x13, 0x52, 0xbc,
  0xcf, 0xea, 0xcc, 0x3d, 0xab, 0x2b, 0x86, 0x3e, 0x8c, 0x62, 0x19, 0x3d,
  0xf8, 0xcb, 0x2f, 0xbe, 0x66, 0xa2, 0x4a, 0x3e, 0x7f, 0xac, 0xff, 0xbd,
  0x21, 0x3e, 0x54, 0xbe, 0xf0, 0xd6, 0x0a, 0xbd, 0x3c, 0x8a, 0xe2, 0xbd,
  0xd5, 0x98, 0xf1, 0xbc, 0x9a, 0x4f, 0x1d, 0xbd, 0x4d, 0x7e, 0xa7, 0x3e,
  0xb2, 0x35, 0x2e, 0x3e, 0xbc, 0x4b, 0x2b, 0x3b, 0xda, 0x30, 0xa2, 0x3e,
  0x9f, 0x40, 0x58, 0xbf, 0x8f, 0x1e, 0xa3, 0x3e, 0xee, 0xab, 0xc7, 0x3d,
  0xff, 0x63, 0xda, 0x3c, 0x49, 0x63, 0x0d, 0x3e, 0x22, 0x29, 0x4e, 0xbd,
  0x18, 0xe1, 0x62, 0x3e, 0xdc, 0x3c, 0x97, 0x3d, 0xe6, 0xa4, 0x39, 0x3d,
  0xa0, 0x64, 0xf5, 0xbd, 0xa4, 0x50, 0x01, 0x3e, 0x04, 0xaa, 0x56, 0x3e,
  0xfd, 0x83, 0x2f, 0x3c, 0x24, 0xba, 0x1c, 0xbe, 0x50, 0xa0, 0x7f, 0xbe,
  0x14, 0x92, 0x20, 0xbe, 0xf5, 0x03, 0x68, 0x3e, 0xa0, 0xac, 0xfd, 0xbb,
  0xc6, 0x4c, 0x2d, 0x3e, 0xff, 0xa4, 0x3f, 0x3e, 0x35, 0xee, 0xf5, 0x3d,
  0x78, 0x40, 0x45, 0x3e, 0x3c, 0xf4, 0x65, 0x3e, 0x1c, 0xad, 0x9b, 0x3d,
  0x10, 0xab, 0xe1, 0x3d, 0x82, 0xf3, 0x14, 0xbe, 0x54, 0x1d, 0xe0, 0xbe,
  0x31, 0x2d, 0x31, 0x3e, 0xbc, 0x48, 0x5b, 0x3e, 0xb6, 0x8e, 0x05, 0x3c,
  0x75, 0x9b, 0x33, 0xbe, 0x6b, 0x03, 0xc2, 0xbc, 0xec, 0x19, 0xe0, 0xbd,
  0x0f, 0x2d, 0x56, 0x3e, 0x53, 0xea, 0x85, 0x3d, 0xcc, 0xdb, 0x0e, 0x3e,
  0x50, 0x1e, 0x39, 0xbc, 0xa0, 0xfa, 0xa3, 0xbe, 0x50, 0xc7, 0x00, 0xbe,
  0xed, 0xd8, 0xe0, 0xbe, 0xe8, 0x19, 0x34, 0x3e, 0xf1, 0x06, 0x29, 0xbe,
  0xc0, 0xee, 0x50, 0xbc, 0x4b, 0x47, 0x34, 0xbe, 0x8e, 0x6f, 0xa5, 0xbd,
  0x9a, 0x3b, 0x4c, 0x3d, 0xb9, 0xf1, 0x13, 0x3e, 0xe1, 0x35, 0x96, 0x3e,
  0x79, 0x46, 0x09, 0x3e, 0x2d, 0x50, 0x0d, 0x3e, 0xe4, 0x0d, 0xb1, 0x3c,
  0x6d, 0x7d, 0x3c, 0x3e, 0xd1, 0xa5, 0x4f, 0xbd, 0xaa, 0x80, 0x85, 0xbd,
  0xa5, 0x7b, 0xce, 0xbd, 0xab, 0xc3, 0x74, 0xbe, 0xbb, 0xf5, 0xc9, 0x3d,
  0x73, 0x67, 0x97, 0x3e, 0x9a, 0xd8, 0x58, 0xbe, 0xe2, 0x8f, 0x7e, 0xbd,
  0x67, 0x9d, 0x1a, 0x3e, 0x04, 0xf3, 0x4a, 0x3c, 0xa8, 0x3e, 0x4c, 0x3d,
  0x71, 0x8f, 0x37, 0xbe, 0x6c, 0x4f, 0xee, 0xbe, 0x0c, 0xf8, 0x6a, 0x3e,
  0xe2, 0x4e, 0x88, 0x3e, 0xe4, 0x6d, 0xde, 0xbd, 0x9e, 0x9e, 0x9d, 0xbe,
  0x42, 0x6a, 0x7e, 0xbe, 0xeb, 0x25, 0x1c, 0x3e, 0x80, 0xea, 0xd2, 0x3e,
  0xa8, 0xdb, 0xda, 0x3e, 0x96, 0xb2, 0x47, 0xbd, 0x34, 0xd5, 0xd7, 0xbe,
  0xc2, 0x86, 0x92, 0x3e, 0x4e, 0xa6, 0xfd, 0xbe, 0x7b, 0xc2, 0x1d, 0x3d,
  0x5d, 0xaa, 0x27, 0x3e, 0xe8, 0x07, 0x32, 0xbe, 0x84, 0xe1, 0x41, 0xbe,
  0x35, 0x08, 0xd5, 0xbd, 0x2a, 0x3f, 0x94, 0x3e, 0x92, 0x9f, 0xf7, 0xbe,
  0xf5, 0x4e, 0x91, 0xbe, 0x7f, 0xe3, 0x64, 0x3d, 0xaa, 0xdc, 0xa1, 0xbe,
  0x18, 0xbe, 0xab, 0xbd, 0x62, 0x34, 0x62, 0x3e, 0x33, 0x8b, 0xed, 0xbd,
  0x31, 0x1b, 0x09, 0xbf, 0xee, 0x19, 0x03, 0x3e, 0x50, 0xd1, 0x7b, 0xbd,
  0xf9, 0x03, 0xe5, 0xbd, 0x5f, 0xa5, 0xee, 0xbe, 0x8d, 0x27, 0x73, 0xbe,
  0x80, 0x0e, 0x94, 0xbe, 0x15, 0x0b, 0x8a, 0x3d, 0x77, 0xb7, 0xd6, 0xbe,
  0xf1, 0x31, 0x27, 0x3d, 0x5a, 0x2d, 0xe7, 0x3d, 0xc7, 0x22, 0x61, 0xbe,
  0xb6, 0x3d, 0xc8, 0xbd, 0xcd, 0xe7, 0x40, 0xbe, 0x36, 0x0c, 0x89, 0xbd,
  0x33, 0xd4, 0xa3, 0xbe, 0x00, 0x26, 0x04, 0x3e, 0x52, 0x10, 0xec, 0xbd,
  0x22, 0xf2, 0xa6, 0xbe, 0x60, 0xb0, 0x0e, 0x3e, 0xfc, 0xb7, 0x66, 0x3e,
  0x55, 0x2a, 0x59, 0xbe, 0x98, 0x66, 0x0c, 0xbf, 0x30, 0xaf, 0x60, 0xbd,
  0xb0, 0xae, 0xb2, 0x3e, 0x1d, 0xb8, 0x4a, 0x3e, 0xe1, 0x43, 0x86, 0xbe,
  0x3a, 0x12, 0x8a, 0x3d, 0xa7, 0x30, 0xbc, 0xbc, 0xee, 0x06, 0xef, 0x3c,
  0xcf, 0xc2, 0x09, 0xbf, 0xa8, 0xcc, 0xab, 0xbe, 0xb4, 0xe6, 0xb3, 0xbc,
  0xb9, 0x91, 0x2d, 0x3e, 0x1d, 0x65, 0x83, 0xbe, 0x8f, 0x68, 0x9b, 0x3e,
  0x65, 0x1f, 0x5d, 0xbe, 0x00, 0xd8, 0x00, 0xba, 0x26, 0x51, 0x9f, 0xbe,
  0x2d, 0x38, 0x80, 0x3d, 0x7b, 0x98, 0x95, 0x3e, 0x8e, 0x0a, 0xa8, 0xbe,
  0xa1, 0x90, 0x10, 0xbf, 0xd2, 0xa8, 0x95, 0x3d, 0x64, 0x66, 0xff, 0x3c,
  0x12, 0xb6, 0xb3, 0x3e, 0x25, 0xdf, 0x09, 0x3e, 0x7e, 0x1c, 0xa2, 0x3e,
  0x7b, 0x22, 0xea, 0xbe, 0x93, 0x4c, 0x33, 0xbe, 0xf8, 0xfa, 0xe0, 0xbd,
  0xf7, 0x0a, 0xb0, 0xbe, 0xfa, 0x0b, 0xce, 0xbd, 0x56, 0x8d, 0x2d, 0x3e,
  0x74, 0x5f, 0x2e, 0xbd, 0x56, 0x94, 0x20, 0xbe, 0xaf, 0x7b, 0x8a, 0xbd,
  0x42, 0x54, 0x9c, 0x3c, 0x0b, 0xde, 0x83, 0xbe, 0x61, 0x03, 0x47, 0x3e,
  0xc9, 0x6e, 0x83, 0x3e, 0xaa, 0x76, 0x19, 0xbe, 0xfe, 0xa5, 0xa6, 0x3c,
  0x9a, 0x8e, 0xb9, 0xbd, 0x21, 0x42, 0x33, 0x3e, 0x0c, 0xf7, 0x75, 0x3d,
  0x01, 0x26, 0xee, 0x3d, 0x26, 0x18, 0x14, 0x3e, 0x58, 0x3b, 0xb7, 0xbe,
  0x81, 0x93, 0x00, 0xbf, 0x51, 0xcf, 0xbd, 0x3e, 0x56, 0xce, 0xc7, 0x3e,
  0x1f, 0xad, 0x46, 0xbe, 0xb5, 0x88, 0xd3, 0xbe, 0x32, 0xfe, 0xff, 0xff,
  0x04, 0x00, 0x00, 0x00, 0x80, 0x00, 0x00, 0x00, 0x00, 0x00, 0x00, 0x00,
  0x00, 0x00, 0x00, 0x00, 0x00, 0x00, 0x00, 0x00, 0x00, 0x00, 0x00, 0x00,
  0x00, 0x00, 0x00, 0x00, 0x00, 0x00, 0x00, 0x00, 0x00, 0x00, 0x00, 0x00,
  0x00, 0x00, 0x00, 0x00, 0x00, 0x00, 0x00, 0x00, 0x00, 0x00, 0x00, 0x00,
  0x00, 0x00, 0x00, 0x00, 0x00, 0x00, 0x00, 0x00, 0x00, 0x00, 0x00, 0x00,
  0x00, 0x00, 0x00, 0x00, 0x00, 0x00, 0x00, 0x00, 0x00, 0x00, 0x00, 0x00,
  0x00, 0x00, 0x00, 0x00, 0x00, 0x00, 0x00, 0x00, 0x00, 0x00, 0x00, 0x00,
  0x00, 0x00, 0x00, 0x00, 0x00, 0x00, 0x00, 0x00, 0x00, 0x00, 0x00, 0x00,
  0x00, 0x00, 0x00, 0x00, 0x00, 0x00, 0x00, 0x00, 0x00, 0x00, 0x00, 0x00,
  0x00, 0x00, 0x00, 0x00, 0x00, 0x00, 0x00, 0x00, 0x00, 0x00, 0x00, 0x00,
  0x00, 0x00, 0x00, 0x00, 0x00, 0x00, 0x00, 0x00, 0x00, 0x00, 0x00, 0x00,
  0x00, 0x00, 0x00, 0x00, 0xbe, 0xfe, 0xff, 0xff, 0x04, 0x00, 0x00, 0x00,
  0x80, 0x00, 0x00, 0x00, 0xf6, 0xfb, 0xa9, 0xbd, 0x25, 0x86, 0x3a, 0xbf,
  0xd7, 0xf9, 0x19, 0xbf, 0xda, 0xac, 0xe7, 0x3e, 0x93, 0x73, 0xf2, 0x3e,
  0xf7, 0x19, 0x12, 0x3e, 0x53, 0xc9, 0xd2, 0x3e, 0xe2, 0x16, 0x03, 0x3f,
  0x39, 0x49, 0x32, 0xbf, 0x43, 0x1d, 0x78, 0x3d, 0xec, 0x1f, 0xea, 0x3e,
